	DD10	DD102	DD104	DD106	DD107	DD108	DD110	DD111	DD112	DD113	DD114	DD115	DD116	DD118	DD119	DD12	DD120	DD121	DD122	DD123	DD125	DD128	DD129	DD13	DD130	DD132	DD133	DD134	DD135	DD136	DD137	DD138	DD139	DD14	DD140	DD141	DD144	DD145	DD146	DD147	DD148	DD149	DD15	DD150	DD151	DD152	DD153	DD154	DD155	DD157	DD160	DD161	DD162	DD164	DD167	DD168	DD169	DD17	DD18	DD2	DD20	DD21	DD22	DD23	DD24	DD25	DD27	DD28	DD29	DD3	DD30	DD31	DD32	DD33	DD34	DD36	DD38	DD39	DD4	DD42	DD43	DD44	DD47	DD48	DD5	DD53	DD58	DD59	DD6	DD60	DD61	DD63	DD64	DD65	DD67	DD68	DD7	DD70	DD71	DD72	DD79	DD8	DD80	DD81	DD82	DD83	DD84	DD85	DD86	DD87	DD89	DD90	DD93	DD96	DD97	DD98	DIET1	DIET10	DIET11	DIET12	DIET13	DIET14	DIET15	DIET16	DIET17	DIET18	DIET19	DIET2	DIET20	DIET21	DIET22	DIET23	DIET24	DIET25	DIET26	DIET27	DIET28	DIET29	DIET3	DIET30	DIET31	DIET32	DIET33	DIET34	DIET35	DIET36	DIET37	DIET38	DIET39	DIET4	DIET40	DIET41	DIET42	DIET43	DIET44	DIET45	DIET46	DIET47	DIET48	DIET49	DIET5	DIET50	DIET51	DIET52	DIET53	DIET54	DIET55	DIET56	DIET6	DIET7	DIET8	DIET9	ID100	ID103	ID104	ID106	ID109	ID110	ID112	ID113	ID115	ID117	ID120	ID123	ID124	ID125	ID127	ID128	ID129	ID131	ID132	ID133	ID134	ID135	ID136	ID138	ID140	ID153	ID155	ID156	ID16	ID167	ID17	ID18	ID188	ID205	ID209	ID21	ID210	ID211	ID214	ID216	ID217	ID220	ID221	ID225	ID230	ID231	ID235	ID237	ID238	ID239	ID240	ID241	ID25	ID254	ID255	ID256	ID257	ID258	ID259	ID260	ID261	ID262	ID263	ID264	ID265	ID266	ID27	ID28	ID29	ID3	ID30	ID31	ID32	ID33	ID34	ID35	ID36	ID37	ID38	ID39	ID4	ID40	ID42	ID43	ID44	ID45	ID46	ID47	ID49	ID5	ID50	ID51	ID52	ID53	ID54	ID55	ID56	ID57	ID58	ID59	ID6	ID60	ID61	ID63	ID64	ID7	ID8	ID83	ID85	ID86	ID87	ID89	ID9	ID90	ID91	ID92	ID95	ID97	ID98	ID99	ITS3.DD10	ITS3.DD102	ITS3.DD105	ITS3.DD107	ITS3.DD108	ITS3.DD110	ITS3.DD111	ITS3.DD112	ITS3.DD113	ITS3.DD115	ITS3.DD116	ITS3.DD118	ITS3.DD119	ITS3.DD12	ITS3.DD120	ITS3.DD121	ITS3.DD122	ITS3.DD123	ITS3.DD124	ITS3.DD125	ITS3.DD129	ITS3.DD13	ITS3.DD130	ITS3.DD132	ITS3.DD134	ITS3.DD136	ITS3.DD137	ITS3.DD138	ITS3.DD139	ITS3.DD14	ITS3.DD140	ITS3.DD141	ITS3.DD143	ITS3.DD144	ITS3.DD146	ITS3.DD148	ITS3.DD149	ITS3.DD15	ITS3.DD151	ITS3.DD153	ITS3.DD155	ITS3.DD17	ITS3.DD18	ITS3.DD20	ITS3.DD21	ITS3.DD22	ITS3.DD23	ITS3.DD24	ITS3.DD25	ITS3.DD27	ITS3.DD28	ITS3.DD29	ITS3.DD3	ITS3.DD30	ITS3.DD31	ITS3.DD32	ITS3.DD33	ITS3.DD34	ITS3.DD36	ITS3.DD38	ITS3.DD39	ITS3.DD4	ITS3.DD41	ITS3.DD42	ITS3.DD43	ITS3.DD44	ITS3.DD45	ITS3.DD46	ITS3.DD47	ITS3.DD48	ITS3.DD5	ITS3.DD51	ITS3.DD53	ITS3.DD58	ITS3.DD59	ITS3.DD6	ITS3.DD60	ITS3.DD61	ITS3.DD63	ITS3.DD64	ITS3.DD65	ITS3.DD67	ITS3.DD68	ITS3.DD7	ITS3.DD70	ITS3.DD75	ITS3.DD77	ITS3.DD79	ITS3.DD80	ITS3.DD84	ITS3.DD85	ITS3.DD86	ITS3.DD87	ITS3.DD89	ITS3.DD90	ITS3.DD92	ITS3.DD96	ITS3.DD98	ITS3.DD99	ITS3.DIET14	ITS3.DIET16	ITS3.DIET18	ITS3.DIET20	ITS3.DIET22	ITS3.DIET25	ITS3.DIET31	ITS3.DIET34	ITS3.DIET37	ITS3.DIET4	ITS3.DIET43	ITS3.DIET49	ITS3.DIET52	ITS3.DIET54	ITS3.DIET56	ITS3.DIET6	ITS3.DIET8	ITS3.ID100	ITS3.ID103	ITS3.ID104	ITS3.ID106	ITS3.ID109	ITS3.ID110	ITS3.ID112	ITS3.ID113	ITS3.ID115	ITS3.ID117	ITS3.ID119	ITS3.ID124	ITS3.ID125	ITS3.ID126	ITS3.ID127	ITS3.ID128	ITS3.ID129	ITS3.ID131	ITS3.ID132	ITS3.ID133	ITS3.ID134	ITS3.ID135	ITS3.ID136	ITS3.ID138	ITS3.ID140	ITS3.ID145	ITS3.ID162	ITS3.ID170	ITS3.ID177	ITS3.ID191	ITS3.ID199	ITS3.ID201	ITS3.ID207	ITS3.ID209	ITS3.ID214	ITS3.ID217	ITS3.ID220	ITS3.ID221	ITS3.ID223	ITS3.ID231	ITS3.ID246	ITS3.ID256	ITS3.ID43	ITS3.ID47	ITS3.ID55	ITS3.ID56	ITS3.ID8	ITS3.ID83	ITS3.ID85	ITS3.ID86	ITS3.ID87	ITS3.ID89	ITS3.ID90	ITS3.ID92	ITS3.ID95	ITS3.ID97	ITS3.ID98	ITS3.ID99
DD10	0.0	0.631315064347	0.606981545251	0.457274916454	0.621676500243	0.673221731342	0.617204501873	0.686830923162	0.665611242982	0.49497902605	0.593391391518	0.598863612473	0.592492499379	0.516978003059	0.573586195951	0.510551879717	0.643646753167	0.66435607534	0.67379351594	0.536531450822	0.631771557855	0.679069240979	0.621149606057	0.528700281957	0.54143021197	0.624208585043	0.691354090897	0.458739125042	0.566043910152	0.612494726399	0.547713144154	0.689372919332	0.65279886402	0.706117502349	0.591301684063	0.585930657774	0.643912550717	0.665386507083	0.574164362297	0.644705833397	0.646811559905	0.61245441991	0.625463638357	0.620826370996	0.563740821145	0.58977220739	0.654956355906	0.571413025942	0.59611649647	0.574141792799	0.609080621152	0.515735571041	0.56974428862	0.654185309991	0.588754362037	0.5761332336	0.645539124362	0.54927089511	0.62918261021	0.63364915207	0.628997212438	0.690604374105	0.635266251027	0.624069623448	0.681017831064	0.448085784934	0.485326740926	0.595963197645	0.653278662964	0.675904425674	0.613794008128	0.588724060419	0.654927820206	0.64143222663	0.632951525573	0.630159262957	0.592780944231	0.65841457306	0.746328783387	0.612507771192	0.638047776049	0.650837692644	0.586736340412	0.573775201264	0.567170590588	0.582239803156	0.612766451399	0.653455594673	0.582353173106	0.671386500145	0.595475082934	0.643021625615	0.572066805194	0.600148557981	0.671910710818	0.603766280406	0.658298086416	0.616021469491	0.663520716093	0.7493999719	0.629996644342	0.469652342453	0.729567148918	0.648166890477	0.621860785853	0.606041255355	0.645822590658	0.64656776085	0.686658343846	0.632971642373	0.687274014704	0.669104714769	0.665817304921	0.664166653262	0.690178871123	0.543142579049	0.947186318978	0.970489397035	0.982135366605	0.965020687766	0.954520487958	0.953483827639	0.928370159443	0.926359069087	0.956681352438	0.966802466092	0.933201328872	0.96449197861	0.92045213843	0.932744627683	0.967696966687	0.934366922723	0.939974758843	0.936049118226	0.928346185919	0.941973135179	0.849279607363	0.959300521817	0.953777240558	0.950020776726	0.948506477091	0.912785808413	0.837694711806	0.820831916059	0.951754108151	0.939685796563	0.952906221098	0.852048577445	0.929483965335	0.957872230758	0.946665713754	0.954386214375	0.970742178763	0.950585470743	0.917310744978	0.965198862124	0.910916827672	0.963912911116	0.969204213593	0.961067641395	0.960479921374	0.950492926078	0.950965689347	0.967165008494	0.943041770137	0.960703822025	0.957108927009	0.945162233445	0.964524430617	0.936672363455	0.930300924078	0.944480442331	0.692879948319	0.663131839747	0.621860359739	0.585020134332	0.575902609146	0.633435874256	0.563636355758	0.593384141959	0.592491507996	0.623787387476	0.634349558793	0.613967987881	0.823675820647	0.667806318658	0.495545977026	0.564035370628	0.615607382331	0.610877306006	0.608392263098	0.644863147046	0.60531432088	0.652700919725	0.656168986624	0.625823479974	0.629704816552	0.674685667114	0.611331196236	0.646927583541	0.58771614933	0.623046537008	0.637794222381	0.613075420655	0.618646655878	0.484543583896	0.607100802505	0.608896146094	0.658783482281	0.654187784447	0.680109127898	0.545674441221	0.696531729337	0.533616368082	0.593222859384	0.643125013768	0.646159697111	0.629424196333	0.531040766817	0.632243631989	0.653418368828	0.612593379368	0.612029514385	0.644940299691	0.644393797948	0.694561349436	0.605702106552	0.576145095172	0.647621370961	0.641296495665	0.62402385477	0.610166924856	0.581698479432	0.622047832172	0.56627061886	0.697024662006	0.629070140735	0.586271784294	0.629842681295	0.610397929195	0.579313112116	0.600622557735	0.577737446839	0.603178035221	0.618990834652	0.612968361238	0.601434035085	0.610196172837	0.633133869938	0.598610436871	0.644359481327	0.634542228635	0.626979124042	0.62306287164	0.599630800218	0.60818000734	0.617086679494	0.606938384874	0.646778900054	0.617688672783	0.609298818284	0.656732751152	0.503037271591	0.49858419878	0.692170666996	0.64722679888	0.600562305971	0.622823815208	0.701493767536	0.695421364827	0.658696641601	0.554012958828	0.630825513153	0.656428083674	0.637319586759	0.639976795197	0.601521582254	0.599292602908	0.620791192037	0.636313850226	0.577843944548	0.650189097411	0.533466390332	0.55831268194	0.650880809541	0.563595174037	0.626719301928	0.635739168778	0.567789241245	0.634460014421	0.637066737582	0.516552384332	0.910558452654	0.872202901744	0.989325231225	0.90034074766	0.968855583183	0.898995654656	1.0	0.985516906202	0.971488468554	0.86267596335	0.86591354386	1.0	0.86878077518	0.941438362708	0.965032597633	0.985590150946	0.941539610396	0.910733078172	0.975577099143	0.958698932599	0.955040084307	0.897803608541	0.934923968985	0.977070758195	0.978412397904	0.876875099679	0.931813108538	0.940406599726	0.951536454113	0.969021945711	0.941961362754	0.925055958218	0.901704857662	0.953680800733	0.938982771864	0.950163810837	0.929745551279	0.956160343472	0.953550086826	0.966262930589	0.953983312974	0.908062491282	0.938886093115	0.921809374072	0.938568429182	0.975692929848	0.933227134545	0.909690515331	0.952780028515	0.911815041723	0.931217420582	0.897092616121	0.927061176492	0.915439403357	0.892971281428	0.927654496424	0.911354235539	0.895323362268	0.950227408977	0.919231851801	1.0	0.905990685336	0.989808867887	0.981504545397	0.96955231549	0.914239435984	0.940220761852	0.908080560178	0.937525114384	0.922550681332	0.923550591801	0.936010550768	0.899627888077	0.881392869941	0.929569573643	0.988347193432	0.980888523126	0.936805138589	0.982764442933	0.990421386319	0.924950180142	0.938202742517	0.903498916879	0.91710407707	0.948417578171	0.946058935596	0.95577632087	0.941320807853	0.961861125068	0.939456885547	0.951218087501	0.940338939949	0.951068065636	0.96807081926	0.92948079399	0.985848293924	0.900460331914	0.895125933453	0.922416926608	0.874255909991	0.908919946912	0.920261677729	0.892492409055	0.892423916849	0.989522017932	0.915911383861	0.964792780577	0.974453890961	0.894187989959	0.918311663735	1.0	1.0	0.878074021837	0.895877192298	0.898430896196	0.899346830296	0.986629335839	0.956185551263	0.945243954068	0.961618289248	0.947007209466	0.971850103353	1.0	0.921878257842	0.927663420101	0.97300430397	0.94291939786	0.953931826449	1.0	0.956744699064	0.951411178658	0.886851728257	0.962691394628	0.954429633173	0.978528530393	0.985608890853	0.958897436974	0.908111865581	0.975337552771	0.978204858105	0.954055876833	0.917914828822	0.943326297638	0.915655760386	0.919175812563	0.901720129483	0.976985548335	0.940774533971	0.876897185806	0.972555310304	0.903323584312	0.914374920583	0.990126123192	0.928723453265	0.956900944349	0.985544636397	0.929158336401	0.954197777041	0.93030452586	0.979796100107	0.970695742727	0.98083723257	0.979212331259	0.943036975489	0.975177392018	0.97422675089	0.911015023973	0.920988069405	0.974661825345	0.949745822818	0.940527621609	0.924118205829	0.922563022817	0.979490297113
DD102	0.631315064347	0.0	0.575281222166	0.594129856218	0.648604236511	0.739617043001	0.705636798981	0.640173610135	0.589559755385	0.669532002199	0.447372611257	0.711755199482	0.677704757075	0.605237633366	0.671825166563	0.602313504008	0.739950539779	0.690063105545	0.728273488863	0.622099021405	0.453784451698	0.733087544563	0.64581527971	0.613106303951	0.627875268642	0.639600070993	0.622802398963	0.591908333513	0.662428181978	0.628882530028	0.634528641851	0.724818518278	0.750811164952	0.77479938241	0.68444346626	0.664916314073	0.67876459154	0.663894173147	0.659804577436	0.750429558798	0.723414057309	0.7121665344	0.664159414927	0.657575521953	0.686372663825	0.615313519637	0.735828824463	0.602674704824	0.540632671293	0.684924140047	0.709100701951	0.666077516513	0.679174152122	0.698505445552	0.672862914666	0.678125981913	0.694448944781	0.636505971917	0.494660104199	0.68613162045	0.450310574674	0.743456243717	0.482244489739	0.645197844675	0.666660766064	0.615614182097	0.636659001438	0.674204017558	0.679093661092	0.681558905464	0.703596787077	0.675450442399	0.730468562619	0.654101080555	0.66843264529	0.515947407147	0.678816410013	0.733761561998	0.741975755457	0.696032734198	0.688673304018	0.620211075175	0.644862586871	0.680998490895	0.664266441626	0.620543906686	0.583217032122	0.683364132906	0.556436758861	0.723917616099	0.649545633078	0.692535527459	0.680209691806	0.692490447039	0.680040767723	0.685935198215	0.761564512924	0.661963720385	0.684732237266	0.782196064805	0.640004300889	0.662002571208	0.666830428101	0.620100951037	0.565689594166	0.613548911303	0.594257303211	0.548262781625	0.631331073953	0.604748471893	0.619808650145	0.612521641855	0.47255067889	0.580859744127	0.759775863634	0.61118349607	0.95612352395	0.964788756947	0.978066545212	0.954287842433	0.951330624056	0.942538040478	0.962795207454	0.953406965013	0.944828503749	0.960148892636	0.946808762131	0.964363524267	0.938936650382	0.926888787895	0.961139588112	0.946527141156	0.940338153724	0.944071724204	0.930656436941	0.936319761164	0.835788657798	0.953745384407	0.949549554772	0.933761073335	0.931978146862	0.891289721585	0.82550532619	0.803801948284	0.938381562026	0.925143272815	0.932476366924	0.824673599222	0.931123905724	0.956830757191	0.943393580214	0.939003987189	0.962071624513	0.935148461338	0.896195329383	0.958115192833	0.8934875601	0.957087521279	0.962508749578	0.953947653265	0.966364164747	0.937177060222	0.938409951907	0.959226717876	0.946968663977	0.960783508987	0.95804339986	0.943523458372	0.965695732262	0.963895595617	0.956062391865	0.953205118085	0.736503825751	0.616773164659	0.62093987637	0.593742804929	0.636669248416	0.744633709877	0.7125388618	0.648782489648	0.587771619113	0.751892983193	0.643691224385	0.611289584125	0.791470057349	0.72035231754	0.671091751668	0.669777979804	0.556204275212	0.6569081416	0.627038596793	0.69418880803	0.657992468792	0.732780897292	0.743260512121	0.737139381795	0.715493659576	0.731166570604	0.632008643153	0.739695040891	0.672129431385	0.582331412901	0.721683311712	0.715629615174	0.518020424107	0.647441075278	0.711837844144	0.724639229588	0.625801401531	0.581054435316	0.707499269599	0.648234095619	0.731593916004	0.634524397221	0.695389844105	0.666373694363	0.718999490735	0.622170936628	0.69661761194	0.684998069545	0.742846965858	0.694295850919	0.717915684516	0.672254312183	0.737745847812	0.707476898078	0.725223080221	0.676308166025	0.642350286578	0.723602464339	0.669119937843	0.688359750016	0.691987086484	0.741633598186	0.680695911343	0.694778287395	0.710982793287	0.533119985867	0.718426513399	0.714176518571	0.72489707441	0.730398629294	0.657653260232	0.681120586865	0.72987324237	0.675187158496	0.691610609568	0.700551373768	0.720206565738	0.704713068436	0.749977034561	0.743939140193	0.727762287823	0.662184681468	0.602063994811	0.632624054141	0.650338368902	0.715149032027	0.685691033798	0.604472573978	0.697831389399	0.741844390581	0.67541116566	0.668044121957	0.728496390208	0.652426609676	0.609372246955	0.651687127878	0.721726119018	0.701501777975	0.716049593747	0.716391269379	0.690287750632	0.631595600761	0.715444376469	0.693182904708	0.6676286624	0.708539519279	0.678416049573	0.682044121545	0.680360630711	0.640337694556	0.631595227785	0.687404223751	0.748864901248	0.64494202608	0.637004002027	0.686279037252	0.681180866387	0.714981016758	0.730499336658	0.685396079111	0.912912955763	0.885563492871	0.982572268327	0.898734596466	0.967882807319	0.90042217101	1.0	0.979367227177	0.971217533539	0.878818708648	0.887468848267	1.0	0.882955719783	0.939904087611	0.953308494845	0.979533346776	0.934747896787	0.90311646572	0.964318823394	0.953071384887	0.94159335972	0.897856387961	0.930615295296	0.966556716901	0.967938500282	0.879741837124	0.925737984615	0.933804506958	0.9365736006	0.956211920319	0.933930730249	0.916553099989	0.904751080324	0.952951724777	0.916639845994	0.943259689991	0.929924598337	0.9412179384	0.947867231493	0.965240414271	0.940127451477	0.901559405427	0.925090135415	0.91380375973	0.930704997549	0.96450135559	0.921570767654	0.907102183988	0.938008943425	0.912750620211	0.933118743452	0.897806920409	0.910591275798	0.912309261672	0.899995590809	0.926289652241	0.907668715771	0.891475172658	0.937085293379	0.918624165635	1.0	0.911582139478	0.985185959627	0.975084613098	0.961096199669	0.903617737747	0.937279423056	0.908881860625	0.93622794536	0.922289511104	0.912077412355	0.937166626176	0.893040255795	0.899553989573	0.91856598035	0.984386239208	0.972168206287	0.936391620956	0.972512229151	0.984556684932	0.925536124892	0.942190062378	0.901211840715	0.920101919406	0.941190421773	0.938398111657	0.942477734952	0.937342931924	0.950388877081	0.92445625923	0.947990179453	0.929637981933	0.944586423098	0.956157471903	0.919694475022	0.97997776164	0.900268391358	0.893769753458	0.906647925459	0.889357544075	0.90267608913	0.922699653134	0.893910306301	0.892116943727	0.983246926602	0.907564321548	0.953127963502	0.965832435721	0.900905599036	0.914626750571	1.0	1.0	0.896708946234	0.902079532553	0.899568808608	0.904074588951	0.990678719374	0.947234623048	0.934522625356	0.943738739867	0.930501181585	0.96286627793	1.0	0.918407043313	0.912945311665	0.957867536872	0.92040823023	0.936489901767	1.0	0.946825595044	0.947117073027	0.89036979845	0.948775676878	0.948710088399	0.968192941004	0.979383298518	0.944077490395	0.904804828077	0.964969150487	0.969553635671	0.938558189591	0.915441015267	0.940565192637	0.921249853997	0.911110992957	0.908574984167	0.963130783186	0.924335745754	0.877543873207	0.962626340394	0.907949899446	0.908192963478	0.98419284853	0.91376812825	0.956896648212	0.97943023728	0.918226418364	0.94334093418	0.928246260516	0.967633295092	0.958907203962	0.974887430185	0.970583123865	0.925747623119	0.967170074801	0.961233445521	0.901602186709	0.919730542821	0.963402994639	0.943898098178	0.933084342231	0.920677584585	0.91204549166	0.967168695211
DD104	0.606981545251	0.575281222166	0.0	0.594548808789	0.65892603598	0.713579105147	0.685796169447	0.662999576626	0.61987911077	0.637479821125	0.534958251148	0.702532087574	0.658043583188	0.593823833053	0.645897143807	0.589014473254	0.716493523158	0.659626467083	0.703329308259	0.637902928596	0.563687063088	0.721690870332	0.666485108781	0.607011701621	0.624155967205	0.632798097475	0.667918571989	0.587770075632	0.65427184369	0.620442836861	0.627473075888	0.728590644768	0.723358677373	0.76263004846	0.66035472603	0.656469909734	0.697311868344	0.685253375494	0.635540892102	0.723414601692	0.700064702115	0.669119895299	0.639643161804	0.627219058251	0.651673967911	0.619258701052	0.717137452565	0.488472897567	0.527634727892	0.632744001263	0.653950088332	0.606904196956	0.630697705846	0.625349411621	0.636178281857	0.650130404715	0.698021181809	0.606747256363	0.571680181929	0.65947374383	0.565645129487	0.72992085561	0.561471075903	0.642695370277	0.621663775036	0.581829868245	0.608476207017	0.644298856773	0.666338831335	0.718945242166	0.699076298059	0.640206580762	0.702194352834	0.635737963008	0.687437233181	0.597576354318	0.647949375439	0.713188633123	0.774977846329	0.661735491956	0.695150833263	0.51384117509	0.627569335298	0.654914990331	0.629357267921	0.627381545174	0.622210895475	0.693006533544	0.597378749106	0.71319147887	0.658616562008	0.689581901123	0.647093096061	0.679268149324	0.710135896247	0.663386724848	0.732163764045	0.650360718214	0.690817477796	0.78167686793	0.658728286221	0.64170243768	0.702682791878	0.523630525179	0.433165936913	0.500777299271	0.506040027491	0.521713392745	0.659814701079	0.53787899568	0.601267849269	0.554591079936	0.596786111533	0.556062661246	0.741966067684	0.623034406518	0.964681954439	0.972723140412	0.982209869723	0.966783451082	0.961187444938	0.956536127074	0.965231228062	0.957905733744	0.959148036587	0.968560107274	0.951995080362	0.971928701815	0.94029848457	0.929996421542	0.963916550937	0.951074705071	0.946916535026	0.952707736862	0.933994418709	0.94863481699	0.854586800846	0.958051967093	0.961032888579	0.945935528794	0.944501730789	0.909489541434	0.837874011116	0.820530770071	0.951926906053	0.937683189302	0.948116559021	0.853990405159	0.931020236789	0.966707515451	0.945119654878	0.952411859822	0.969817107626	0.948182199649	0.911069734688	0.96586091896	0.915522797764	0.967982090155	0.972336140108	0.965337169991	0.973190476721	0.952259174042	0.956206161257	0.969967823556	0.956090934072	0.96888536796	0.967320068934	0.955585403231	0.972797263044	0.969958932727	0.964201399715	0.962766677846	0.708589378382	0.623315315343	0.47292260014	0.461428347332	0.572467342572	0.68630399931	0.668351516248	0.64973578282	0.465592100606	0.69025700303	0.531019136787	0.528928764582	0.831855825643	0.673786584672	0.603432240529	0.630905647549	0.529750851217	0.580763349925	0.468706730761	0.646841179657	0.591056989109	0.671509486361	0.669737026264	0.70131086235	0.656682879632	0.687966786026	0.504220081526	0.67614779918	0.594389684898	0.563279525855	0.664739007269	0.664937719673	0.548185773744	0.623821135315	0.664242090024	0.676607842819	0.599182954834	0.551834702578	0.608055174981	0.593193573469	0.645445291655	0.591385083597	0.634250492856	0.61826788994	0.669059578941	0.588100790314	0.623565916073	0.648527998234	0.687935478538	0.652418044714	0.670052004293	0.616629236281	0.693075799516	0.691190880839	0.66069799004	0.6251794351	0.582814879434	0.673267423773	0.640714653725	0.650209065061	0.662416479073	0.673112397267	0.627013439007	0.675884492606	0.638623043711	0.551900179228	0.673133426467	0.648137711766	0.645953070702	0.675990993248	0.60103288634	0.598378426383	0.669600349577	0.639125283618	0.614865864175	0.640663201573	0.658272087157	0.654230558146	0.682110554103	0.681482647342	0.675894525207	0.594051788124	0.579338859344	0.488789940467	0.639445580458	0.670576887138	0.636719758098	0.446759363774	0.652393753328	0.678884239718	0.592903592312	0.61453332349	0.689280113058	0.577689842757	0.464614537984	0.498604968132	0.633471782616	0.697917041703	0.667025054501	0.639362493281	0.638146748122	0.598234024842	0.681845406368	0.647083791765	0.654226324256	0.66384618568	0.594230565677	0.659459654404	0.641651008884	0.602523447088	0.57923128422	0.63277210102	0.691717086213	0.573455335983	0.58260528548	0.656131697042	0.655535369875	0.652388990097	0.675894205204	0.634120733671	0.924170734205	0.884425102685	0.987769387485	0.905778108837	0.976261867868	0.910772841636	1.0	0.984151104687	0.977736986597	0.873775658478	0.883998792776	1.0	0.879129109783	0.951046210994	0.965274494545	0.984241108817	0.948025967899	0.922382402433	0.973573860771	0.965425604367	0.954288284124	0.911362490798	0.945236149538	0.974808861191	0.976080425215	0.88487577545	0.940780442925	0.940959178905	0.948619677932	0.967574597211	0.948626664235	0.933870389428	0.913322748846	0.962002673142	0.937158473874	0.957578486845	0.939879886208	0.952872929073	0.961394046344	0.973285536358	0.951525279089	0.917429342124	0.942329760454	0.927653219089	0.937503851248	0.973576380147	0.929783985001	0.925307201986	0.952166616156	0.92058596891	0.942028861367	0.910518045445	0.926598337659	0.92535196577	0.910831355537	0.938871399454	0.921463604134	0.903346480838	0.948951452438	0.930295242938	1.0	0.92400545824	0.98959321078	0.981306125125	0.966430874162	0.924024618357	0.944306440146	0.921156556814	0.94862350473	0.928948755273	0.924411273747	0.948978588349	0.906480854616	0.902670808585	0.931378052056	0.988318959818	0.979127543391	0.949098221459	0.980658537584	0.989151784694	0.939588352878	0.9502906138	0.919665391392	0.933533810379	0.954745050285	0.952978778583	0.957911351143	0.945321451646	0.959956096118	0.937005426085	0.961947800238	0.944568177804	0.955355762476	0.966277614856	0.935665846979	0.985253979004	0.910680509563	0.906656906583	0.927160202892	0.892995944138	0.914647091326	0.931611729603	0.912671235602	0.906754470731	0.985199896551	0.920154010114	0.963256470402	0.973060591045	0.910939483174	0.926187311207	1.0	1.0	0.903910366025	0.909719729514	0.91275965926	0.913650850891	0.993434253733	0.961404059311	0.950434788969	0.958941187163	0.944934382613	0.972160207869	1.0	0.928549762572	0.930263172232	0.968663447198	0.942049467501	0.951726955198	1.0	0.957134277144	0.960529045833	0.894571190138	0.9618664446	0.958068590923	0.976554398824	0.984159793421	0.957142469527	0.913706236307	0.973255147389	0.97641738637	0.953284296611	0.928679122669	0.951515979022	0.924912436731	0.926737247642	0.917156855186	0.974125542381	0.939230973904	0.886751164875	0.971780675716	0.917576095583	0.924060714882	0.988900665874	0.931766023262	0.964988089615	0.98418519316	0.929199203913	0.950999822051	0.938472024485	0.977285361427	0.967713957983	0.979261881922	0.977308936453	0.941931790358	0.974888656655	0.971673267469	0.916699227591	0.929669855358	0.972263249469	0.954515742475	0.949860110527	0.928943754736	0.924571820771	0.977273387695
DD106	0.457274916454	0.594129856218	0.594548808789	0.0	0.587943628296	0.648214089132	0.611429815214	0.670300221031	0.626781574279	0.492138154748	0.548598040227	0.567094022788	0.585280163	0.522746967684	0.571879375826	0.483014803253	0.667209003509	0.653286660541	0.641315804013	0.474266546968	0.597101535379	0.659178370577	0.592465432366	0.53274718095	0.507992294124	0.59264228309	0.658889674346	0.40882640518	0.557794439094	0.578990960526	0.527051122999	0.657337843262	0.667674043194	0.716272766207	0.576204511299	0.579456759084	0.620882808463	0.635431746561	0.564604836378	0.662786121844	0.631296176564	0.599030276333	0.617687640973	0.610332040991	0.554551500938	0.579580158093	0.633041174607	0.559988249661	0.580928185091	0.571465044293	0.607732089468	0.509094866542	0.555906259614	0.655228592719	0.577741871084	0.580941136269	0.612691363622	0.533844833374	0.596273894859	0.612636477609	0.598603396306	0.66629089828	0.60968837163	0.60477170005	0.656485554985	0.41486865598	0.50066395774	0.581290998826	0.622572178409	0.634381260188	0.601004089344	0.576775462778	0.632467593745	0.620691837504	0.603801023889	0.593861011031	0.577220210354	0.646581919964	0.71144803106	0.589762411817	0.60460572975	0.624103935738	0.565816976152	0.57785699496	0.558668554162	0.555412379604	0.577925904808	0.608348590699	0.588716870931	0.648943633533	0.573903292036	0.608812336161	0.565931226523	0.584248766187	0.630634832985	0.584616132833	0.666049418554	0.585963614638	0.643408780448	0.73889607948	0.60056544411	0.494645706986	0.694844955422	0.629006674531	0.602897835596	0.628600916648	0.614130865393	0.61576008767	0.665633242585	0.598276908573	0.656922841041	0.647901287292	0.623805337816	0.643019850942	0.65640478453	0.534226956917	0.958256321966	0.97251142055	0.98051780377	0.967014128336	0.952553374705	0.955328561717	0.960497141854	0.960497190658	0.958350132461	0.968602440153	0.949699106783	0.972938505046	0.939335508751	0.934433019126	0.967570784403	0.945065658205	0.951211004721	0.938416248426	0.931865176108	0.948623796248	0.845368373124	0.963821498461	0.959636840388	0.948684530451	0.948056081717	0.908859835236	0.836841779052	0.815873807349	0.946710711883	0.936299041194	0.948633240985	0.841050783768	0.929540282656	0.966426286911	0.946497779318	0.95490746235	0.972284788325	0.950522200074	0.917841430692	0.969475624218	0.907330322292	0.967143931282	0.971753696358	0.963109972794	0.971948286109	0.949021809673	0.953361459361	0.968643375893	0.95732401885	0.969625021371	0.966372332915	0.95403383603	0.97086885021	0.968424713557	0.962579975552	0.960945489509	0.698108221162	0.645474263888	0.608263965368	0.577009613365	0.569863291685	0.639295001506	0.557653433367	0.583654311332	0.587315424227	0.627172366036	0.621523337708	0.593773895698	0.797909837646	0.648562244048	0.513132160755	0.576877874378	0.600953290015	0.601129351843	0.594111033246	0.648333906791	0.598885901924	0.642654741241	0.660443388146	0.627413417741	0.639663824566	0.664008180729	0.609324631395	0.643265685529	0.571135979558	0.611755365815	0.637160024758	0.62093998227	0.5810315204	0.470513628023	0.616274616839	0.612516561265	0.652192122346	0.647642389623	0.676912498871	0.535901686697	0.693682450177	0.542124787671	0.594391238715	0.627906705623	0.63534434991	0.604005795138	0.542554386783	0.628264949903	0.639852501406	0.584618394547	0.602639301214	0.630664594652	0.665351871089	0.682291521886	0.613422380047	0.575558027216	0.636168947644	0.627674429958	0.596256863946	0.594298111671	0.595276086512	0.639431733289	0.576660767321	0.684546494419	0.630972777038	0.571788394337	0.631769741091	0.619620292836	0.589788321357	0.600397088111	0.580112943134	0.598819516652	0.619674193375	0.601882805061	0.593765720489	0.602560766498	0.642825415978	0.589517124249	0.659471706034	0.648891748155	0.625949231663	0.610682568647	0.600745720697	0.59506494428	0.61282218391	0.613089991569	0.635167351663	0.597856715238	0.600280248829	0.666819259722	0.523270869037	0.516299347931	0.688545952352	0.623773346371	0.588346770783	0.624851065156	0.706139137477	0.674613374915	0.656447866224	0.589355869338	0.616903886467	0.636850169696	0.639944148174	0.641501793101	0.583284279808	0.59093350502	0.61216447278	0.626198300172	0.57212023351	0.638953303916	0.537115016477	0.569617536144	0.648220628805	0.563892520695	0.616783911084	0.626739133251	0.559951065824	0.627518247401	0.644573626818	0.523222265217	0.902468554248	0.863792628083	0.98752190287	0.888862120416	0.965514302915	0.891469855331	1.0	0.983390615759	0.967396624328	0.857428151404	0.865140922839	1.0	0.864704182164	0.940477667166	0.962540206836	0.983486874131	0.935395018578	0.903840026592	0.97200975719	0.954475738959	0.952790681216	0.885614869261	0.930007569707	0.973962660246	0.975254762069	0.870761343678	0.927352944373	0.934824925589	0.948107075565	0.963149631534	0.936012496814	0.920120858736	0.888597709962	0.949229667159	0.932281459333	0.945940355059	0.92468322827	0.949024979314	0.950198779338	0.961480894392	0.94976579976	0.899140496228	0.933173663266	0.916165168514	0.927644288368	0.972163835634	0.928136327971	0.903547034085	0.949360755841	0.907026175603	0.92655954773	0.888940336579	0.920678356638	0.908182454347	0.888068640124	0.923264857428	0.900445411727	0.883828727246	0.943182191426	0.911302585073	1.0	0.904000711402	0.989383138641	0.980086614526	0.963482814664	0.903523094392	0.933678325502	0.901464370019	0.927079536863	0.911742078831	0.918455400598	0.930280927804	0.889793674175	0.880339635867	0.924877766706	0.986634004367	0.978090117281	0.934826757272	0.979963652493	0.989016456868	0.92333293057	0.934190493944	0.889793867231	0.912809247282	0.943664166381	0.939796909074	0.953465608872	0.935596933067	0.957717554677	0.935583016198	0.947518744036	0.934429453162	0.947898508512	0.964795223328	0.926219289563	0.985639885438	0.890401335837	0.886054772052	0.913243792546	0.87280610207	0.901490089309	0.912627943298	0.887817228164	0.882061098389	0.987987274288	0.904618616954	0.960943376638	0.96890773923	0.885534051474	0.908709168851	1.0	1.0	0.872887014804	0.887822336071	0.890286623574	0.889753008921	0.984612956407	0.951038939675	0.939410649791	0.957368350895	0.945463743034	0.97010272984	1.0	0.915662133734	0.921300995988	0.967774317435	0.937642206787	0.949975357454	1.0	0.951877054364	0.945606961691	0.882093624012	0.959981072078	0.948083165108	0.975402958141	0.983497489709	0.95452413992	0.903353428073	0.971838089557	0.97587760226	0.953258698569	0.909400487717	0.939507333601	0.905022942347	0.908295299628	0.897578131046	0.973601976599	0.936503405103	0.867895669725	0.969352634227	0.892574658491	0.903053105276	0.988676365568	0.916856475846	0.951888383438	0.983427075639	0.917677737739	0.949391636345	0.926169109563	0.976825734111	0.968219552259	0.980034490698	0.976263432551	0.937450786241	0.971603306859	0.970449931533	0.900802803555	0.911852570095	0.971022617862	0.944066397873	0.932656102774	0.918430888171	0.910733356138	0.976479398141
DD107	0.621676500243	0.648604236511	0.65892603598	0.587943628296	0.0	0.689159944188	0.645804159682	0.659391306786	0.634182351112	0.62485400911	0.61683497736	0.63380175678	0.597727715849	0.591793005911	0.616572017668	0.580466583407	0.694349545006	0.533437862833	0.686777600878	0.593335029448	0.63293944342	0.69459302668	0.445395948301	0.598296063859	0.591056190958	0.487988957898	0.646453162631	0.590040210593	0.612066456605	0.447677340703	0.56417375032	0.640000386812	0.701714889502	0.728963747696	0.618951454738	0.614004130079	0.601694454739	0.480620750226	0.604127882995	0.696392622917	0.671435362358	0.650263741819	0.489756441315	0.496146625235	0.629343304466	0.585510446736	0.661386725246	0.631971643896	0.634153053884	0.628831325393	0.6716340668	0.645981937526	0.640529106209	0.65150799402	0.65651769552	0.644049469099	0.60706859973	0.608440742966	0.628033064486	0.659363830746	0.626542107005	0.676410322374	0.628808073533	0.442251493642	0.636464408029	0.602241590728	0.610726231957	0.607298027953	0.60700306643	0.62469319914	0.610909373539	0.631591841662	0.677864734578	0.464384248006	0.598369649865	0.594950851885	0.63544605202	0.681566463422	0.654229695736	0.636858396188	0.570371651971	0.634529843989	0.601917253533	0.621575659671	0.631235941931	0.578284687204	0.605366510784	0.579954550891	0.61987171822	0.656235967812	0.588344345501	0.602223874979	0.607285717491	0.596879926265	0.618542034719	0.629876798081	0.707553466961	0.587970448328	0.665946094107	0.706629038862	0.599731041449	0.62213283486	0.662100260537	0.644818797152	0.644337453648	0.652111939788	0.639820308189	0.617339051702	0.641196992962	0.619526934794	0.65176912261	0.630515624059	0.649149274437	0.663790396407	0.669603150684	0.581647158765	0.945245151279	0.960896398482	0.972906221665	0.954562563457	0.938735823208	0.94186791899	0.950015020663	0.948755196548	0.942084773251	0.953176837471	0.942143543058	0.962947583665	0.922651164102	0.920390961151	0.958127275373	0.934588682189	0.935578243225	0.923482248434	0.912305467039	0.934816348144	0.816902962515	0.952436635747	0.946266034931	0.940915448956	0.938436252527	0.891557485714	0.821743956721	0.786000474729	0.9367517503	0.925165526959	0.938241274396	0.809269849353	0.905738536773	0.954816584702	0.920734406099	0.948370523542	0.969390596088	0.942187482512	0.897824030274	0.961333673033	0.892320115793	0.956259137646	0.961671606076	0.952236948287	0.963164512101	0.933770858372	0.942604975414	0.961453609661	0.946516368937	0.960427648452	0.955992454562	0.940124825664	0.961684954746	0.959251257455	0.951746112864	0.949652905873	0.619522562781	0.608763000547	0.679458075119	0.626086395585	0.602641414199	0.690501181578	0.665919771329	0.610512827966	0.663759828247	0.673527243022	0.660874224053	0.619599138005	0.725395797606	0.696874742749	0.652640637494	0.637690069198	0.671168758467	0.660235132944	0.658963048631	0.704786917171	0.675301638206	0.709141532301	0.739754361494	0.664620981495	0.668594383643	0.656550294856	0.681025594368	0.711785686956	0.641888693382	0.674940056717	0.671912314653	0.654980157189	0.645350274156	0.613983293443	0.656405895131	0.658609031632	0.694256705489	0.693077889018	0.701488800726	0.638574345689	0.705993945544	0.606892545002	0.644938323211	0.56983787598	0.673476101624	0.624559321244	0.657934320415	0.528911819919	0.705444818833	0.650530995177	0.672750250793	0.646659164302	0.676246705077	0.624108259066	0.667847770278	0.655341785966	0.649612285521	0.679723425627	0.509321915555	0.584247963733	0.645701404969	0.680623443603	0.651213187321	0.651380296654	0.637821978682	0.630562370222	0.666859357797	0.659057668393	0.674907772762	0.626154561259	0.660116193486	0.647626769686	0.674600084399	0.606613513498	0.65937968606	0.663651358677	0.663633595848	0.599251106262	0.702944453809	0.703983119953	0.675462933971	0.633591232656	0.65472944474	0.658002539127	0.63819730266	0.660855841441	0.557363647776	0.664442306075	0.673074136822	0.646912172984	0.65700325892	0.644669231148	0.618093708296	0.677504941725	0.652699373974	0.683781950815	0.712332837727	0.650243368448	0.563345721979	0.711457859274	0.617211429822	0.645715471124	0.656955557577	0.574523081911	0.644060364747	0.66627940385	0.651947829857	0.613134365874	0.62737186559	0.628861084586	0.602843640314	0.622692638768	0.713331644804	0.625845246095	0.643771258784	0.538442801075	0.631928840586	0.684855012437	0.683766345647	0.655523618556	0.87205147245	0.8397285978	0.984723873668	0.866342596296	0.955556275857	0.864090017763	1.0	0.978276610113	0.95863078938	0.828382347261	0.842581967716	1.0	0.824612844914	0.921741593661	0.953295630921	0.977521315441	0.916820506497	0.884764249033	0.964117654878	0.944186274831	0.939071088792	0.866575831837	0.913613488895	0.96710547206	0.96916344245	0.844687481365	0.907754501693	0.917006289207	0.932300583187	0.949266200414	0.915447208113	0.904041637178	0.862071358908	0.930837317827	0.911605353032	0.932219519982	0.898980887424	0.93061507429	0.940170095099	0.955552822269	0.938350476849	0.879217859912	0.913849772092	0.885372243887	0.906278456253	0.965503249461	0.905075593012	0.873469883693	0.933370512497	0.890199128753	0.898950413731	0.859430284354	0.896641703521	0.881139463707	0.864181190507	0.891078442574	0.872128649692	0.855551138576	0.929253236435	0.887859099991	1.0	0.878772794568	0.986760895732	0.975165266766	0.951653696223	0.879598787338	0.915346810855	0.878165571243	0.911342542355	0.890104492658	0.899726349941	0.916277817109	0.862732135432	0.847301309214	0.90413892735	0.983322802203	0.971735005799	0.913496908582	0.97555667593	0.985843166621	0.89434971775	0.914318130047	0.859488259379	0.885669757441	0.926177367133	0.929593422145	0.944178132819	0.919340218505	0.94754389369	0.914849382463	0.933214988091	0.918767246493	0.930656096783	0.955604028697	0.904591105386	0.981890542672	0.869213111972	0.858616932868	0.900023413772	0.844953594198	0.864695478957	0.885555399412	0.863286225463	0.856349776	0.985186179192	0.87198888233	0.952398069805	0.960714766139	0.859990977108	0.883194235523	1.0	1.0	0.845693430049	0.852669361834	0.859053527836	0.868768045116	0.980406360563	0.939121531736	0.92804398553	0.946588636838	0.927874251141	0.962061315982	1.0	0.892364193774	0.899553887057	0.959988023497	0.924680372559	0.93536011457	1.0	0.939257172579	0.931903300522	0.845860962409	0.951792375928	0.934434958961	0.969809524192	0.979419802782	0.93903756069	0.880649775764	0.964676560302	0.969842122935	0.936902357964	0.882053202837	0.916680201545	0.87693281222	0.886933570726	0.87337890756	0.967421983255	0.91796080598	0.839475821278	0.959418186866	0.866738018195	0.879720336133	0.985875690033	0.89959353424	0.938651379408	0.977419647896	0.894727246792	0.93588438878	0.908030576557	0.971084696822	0.958456425275	0.972642684005	0.971053695291	0.921749582528	0.967359208039	0.96315914038	0.878977759705	0.89038980511	0.963686470786	0.928675208303	0.91987531429	0.901687612087	0.889673453222	0.971359625464
DD108	0.673221731342	0.739617043001	0.713579105147	0.648214089132	0.689159944188	0.0	0.657922732165	0.78619866625	0.772470745032	0.673103586795	0.703855128421	0.681045223259	0.661959191213	0.674970703704	0.639287971661	0.67495924921	0.46225397821	0.735647885595	0.416777910702	0.6794942589	0.729622331804	0.417640980015	0.707176927405	0.668771868024	0.61454891108	0.718906543966	0.778537942272	0.646567617544	0.643379545076	0.708988796494	0.677016235133	0.705036487872	0.457103574502	0.554716940528	0.671280306567	0.66251142704	0.708466902338	0.733783549793	0.661889079379	0.451128127799	0.484449924758	0.623088207753	0.724171772882	0.732417302907	0.662678557468	0.641822044832	0.454437175368	0.671637109463	0.689232210353	0.66035144047	0.668765649374	0.668601969487	0.694086562337	0.753234076804	0.664470183459	0.666243259214	0.680145152929	0.685806515694	0.706479785031	0.70973127342	0.706943192814	0.445026888115	0.72736572653	0.72460894406	0.727245326517	0.660113766855	0.67340191002	0.646070971904	0.623969147517	0.709360200215	0.661735138098	0.659274684353	0.455010834903	0.739459217377	0.687406244055	0.716341659125	0.672706353901	0.45079367626	0.77479078398	0.664384300558	0.706049491956	0.735962511365	0.595313842257	0.655210259486	0.655103227775	0.694833849197	0.589643151195	0.588044390814	0.609208779148	0.461534077365	0.670815783036	0.685125207864	0.644417779926	0.646113082493	0.703866195558	0.659468561464	0.453837812485	0.671109908804	0.732422461536	0.794221019954	0.697153391115	0.681638914412	0.802779437935	0.726064981114	0.710297322612	0.741551650767	0.719328385726	0.731634148606	0.795990604623	0.730930694583	0.743345508718	0.737983679151	0.743061597755	0.745014117281	0.43212613626	0.656733637056	0.967542422436	0.973097822588	0.979977095727	0.969851096682	0.966861728371	0.959366176468	0.960399739951	0.957061183334	0.959555353947	0.970789291982	0.950156395657	0.975685077344	0.944709177064	0.937316619192	0.970820973336	0.954767125166	0.952027783272	0.952097917764	0.931837647736	0.946023209648	0.863108337236	0.967348063161	0.961953440742	0.954551855134	0.956054613241	0.918673145536	0.85295406641	0.845751923141	0.95123147799	0.941926929176	0.955227562716	0.87115010595	0.931183761227	0.968119996059	0.947589021125	0.96125790297	0.977747286623	0.959773829117	0.924119097252	0.975013628555	0.925690874049	0.968874183475	0.973893216686	0.96539147915	0.973652743597	0.954907899092	0.958926564942	0.971338212869	0.959629839811	0.973275730286	0.966765519982	0.956021109097	0.974096290569	0.968778824894	0.962751779168	0.961686133062	0.792930028383	0.770564484323	0.729190307624	0.705475292761	0.685286679763	0.655078734541	0.726849905717	0.684413694124	0.731484967684	0.717127139634	0.738566184469	0.727634940627	0.857599173199	0.503988768864	0.684137173324	0.664527764452	0.714466401117	0.708989152313	0.712269627248	0.670747636956	0.595330978177	0.486248006243	0.547219001226	0.649977702238	0.566766703789	0.700989044415	0.699560914821	0.512177557001	0.650620145571	0.714348514279	0.616096054547	0.648027317285	0.711366126525	0.672990676713	0.688659789415	0.640501946911	0.758465663968	0.759927036661	0.778069655703	0.690262742179	0.784107889363	0.677192213822	0.661565053481	0.744886707894	0.511703480202	0.701255396014	0.668793640535	0.718581859475	0.510584698906	0.648430356421	0.683501135452	0.726908823426	0.618059379032	0.782023604465	0.721783196201	0.673355955519	0.743875842895	0.701387296558	0.696503855649	0.680530374884	0.662819710757	0.672335509691	0.6703604767	0.785467291973	0.714943920717	0.709217652519	0.65215458554	0.599369212838	0.67315060761	0.680575743777	0.660330339677	0.647861951205	0.651004386166	0.658436720803	0.670744205797	0.643520698285	0.683350624713	0.634759744487	0.672862002818	0.657358590637	0.509089419626	0.716681524847	0.690598216286	0.690347075815	0.6841083865	0.661758797319	0.732763748451	0.715771104392	0.686061193855	0.701506590455	0.68213852675	0.686946177191	0.787390713482	0.732490820944	0.719556770099	0.742065011915	0.793928381212	0.793398008166	0.749996184159	0.728041039699	0.678274860584	0.774611740535	0.703162390755	0.73592272036	0.682112541944	0.634317224638	0.701218502	0.700643908574	0.655440804052	0.760927927759	0.683680835752	0.642854380432	0.517431012584	0.694714456748	0.715696192974	0.726305064935	0.647902958919	0.536963190274	0.711184535091	0.679946531609	0.916139306114	0.874603246737	0.987945712393	0.896756335819	0.974916899094	0.903555739207	1.0	0.985709221802	0.978954563179	0.869985848252	0.880654679003	1.0	0.875436918893	0.948339894632	0.965644709724	0.985789112008	0.941787715858	0.915764204333	0.974866650743	0.967273397632	0.951879934104	0.901806809401	0.942414962295	0.978064040612	0.977759270602	0.875121756505	0.933580383702	0.942361269983	0.948478092856	0.963349956377	0.943858167854	0.926383033937	0.899393523539	0.956770461407	0.934151881219	0.958217789565	0.927883038079	0.948792551696	0.960572285979	0.973578684064	0.953063922414	0.909155340122	0.936398923789	0.930285775559	0.93313059893	0.97519766777	0.927901624981	0.915957717371	0.950971039422	0.918804610808	0.935104964592	0.9052119007	0.923969772203	0.916624285384	0.904794337401	0.932252029026	0.911970992535	0.895420434539	0.947514724467	0.925846298387	1.0	0.917069490229	0.988709036985	0.982737532944	0.963830401651	0.914830156259	0.937292186361	0.918338376779	0.939584980888	0.9218801398	0.925700851542	0.944356611866	0.907565831874	0.894063576759	0.92800456582	0.987087970719	0.979384978718	0.94550825077	0.981894341725	0.989033176291	0.931259424832	0.94455215283	0.901858303907	0.924189975652	0.952781692444	0.949827486787	0.955269266288	0.941166026184	0.963350334435	0.936202006778	0.957811852421	0.947336545804	0.951921901254	0.967987803213	0.938481779517	0.982919135498	0.904529936933	0.896091007282	0.920154767126	0.88772329593	0.902480708512	0.921004749707	0.903323848775	0.902718726512	0.98604725709	0.913223809404	0.96372262404	0.9707372752	0.901982296378	0.926751889758	1.0	1.0	0.886919418441	0.897153774827	0.902297456462	0.907909865315	0.992528253489	0.959396089585	0.94890988572	0.961419459942	0.944770162957	0.972017879021	1.0	0.927947871016	0.930074845005	0.968903354968	0.941604270327	0.948586229179	1.0	0.953375393205	0.954551091766	0.87954332753	0.960708792621	0.959140619208	0.976629285717	0.985716933547	0.956016756625	0.906376991135	0.975070495611	0.978543655385	0.956337126829	0.921783382762	0.949332195812	0.913837435759	0.922703327305	0.913425959669	0.976265188339	0.936480732141	0.885751929479	0.973001320997	0.906720055603	0.916014375863	0.989060479782	0.923455031086	0.961744664822	0.985739478018	0.923814947395	0.956344571222	0.931846627559	0.977612831253	0.970209433468	0.978972157669	0.979474690009	0.939769585775	0.975272809597	0.974766201129	0.911176209602	0.923715549127	0.974175114274	0.957803410626	0.945353426288	0.926132836747	0.92160671297	0.977277125505
DD110	0.617204501873	0.705636798981	0.685796169447	0.611429815214	0.645804159682	0.657922732165	0.0	0.700787219181	0.686628689528	0.610312347644	0.674798257224	0.687052751239	0.623549561377	0.60544836723	0.61949428238	0.59284604815	0.660282220709	0.672746565244	0.651380404886	0.65101826946	0.70574830436	0.663854922426	0.619684321444	0.603622481045	0.567935888272	0.650525324441	0.695857202639	0.603573957222	0.616136632255	0.630694716543	0.606189547519	0.634047567897	0.669599671159	0.728930400473	0.636938207513	0.620267760369	0.669263666572	0.693422124471	0.522424503524	0.672941705908	0.636842567892	0.49883197952	0.647942675216	0.657528444314	0.561265532705	0.565872031845	0.639810242297	0.629384786483	0.641952534557	0.60118922862	0.533213386942	0.605832990144	0.589893732841	0.657809009367	0.512186649789	0.629430760762	0.625887021403	0.60260187648	0.677769891923	0.584234315177	0.687122374234	0.657972460316	0.69055513377	0.654048980813	0.650696737672	0.604538750647	0.586247373277	0.508711369593	0.588520132937	0.678767385766	0.630702781514	0.526667354381	0.645766755482	0.651304088011	0.637094658139	0.664204854522	0.523803856249	0.646005463823	0.731639221013	0.513106421399	0.640921274869	0.709688122136	0.541292812057	0.60362589945	0.515763227316	0.611797635938	0.592977136728	0.596450753456	0.619031206442	0.659040805599	0.618868743277	0.647591740615	0.610071403066	0.5797281931	0.676683440132	0.547753480688	0.656130943629	0.583556872795	0.658489464884	0.73257785789	0.654415718912	0.60900770272	0.736854146441	0.702360747161	0.685391280446	0.6997242159	0.71355206896	0.711950687337	0.716073598104	0.68739138751	0.715891485773	0.717407223806	0.713998128951	0.740589542524	0.658889744171	0.610417538628	0.951102849157	0.971508043098	0.977235291451	0.966047604414	0.947754795945	0.952974117435	0.946763221771	0.947259670116	0.95312894465	0.962917902979	0.931226568508	0.968533109194	0.916650587377	0.935463493307	0.970642483696	0.93018302867	0.935209993695	0.926453673696	0.912949292108	0.936871396346	0.851797265749	0.96294346077	0.957575655954	0.953610828659	0.951367405137	0.92590773094	0.847164998843	0.834283290903	0.952673089084	0.940433726423	0.953246235337	0.850878238429	0.926860865222	0.96095002611	0.93559273519	0.958715157294	0.972560760467	0.954326772544	0.919976454753	0.965844570606	0.911180215221	0.964628557233	0.969914645944	0.962298032916	0.965233727426	0.9544901494	0.958736784773	0.97272330586	0.938394542654	0.962208907117	0.953526201614	0.947154802113	0.968091729901	0.957811244243	0.952643808331	0.945949770285	0.70290211613	0.695239275368	0.679322950895	0.654971830984	0.587819069977	0.605572600251	0.632147913616	0.626601126243	0.674657044532	0.649416118321	0.67568099547	0.658222984653	0.829823402469	0.66455046284	0.612969248153	0.612307009806	0.67043815345	0.623896069702	0.649840634852	0.647220144853	0.619533276788	0.658257580903	0.652618906578	0.515019865329	0.627418821875	0.619004422202	0.666190438431	0.649189181168	0.570191873523	0.655565565136	0.64145616213	0.570455884081	0.678825608664	0.59314634955	0.615715713734	0.57485619381	0.68743018609	0.708594489458	0.701204748722	0.602128882496	0.704661218631	0.599715890635	0.604433928972	0.665145918207	0.623028080779	0.649076133666	0.600698890128	0.641740412254	0.63043271888	0.506752414793	0.530905861997	0.610595825775	0.654220238151	0.667797323039	0.601820718649	0.617550385366	0.658186047457	0.540479850345	0.611105063287	0.584308359113	0.596941247037	0.536657473085	0.537830812815	0.673516359298	0.599551443516	0.640993942699	0.572143750695	0.597301063266	0.59488381565	0.569568789062	0.571027655617	0.563554289078	0.553296163192	0.565235617076	0.550072036363	0.571493504968	0.589553798661	0.56649744639	0.594374309085	0.599941540634	0.609627705253	0.615638379355	0.633829234985	0.654316605653	0.612789164364	0.592645835209	0.646928305357	0.686516035199	0.548390698563	0.613232716191	0.614801376997	0.611116568452	0.692573912525	0.669263606161	0.664604252769	0.676716502058	0.721630438663	0.671631613958	0.670450285333	0.636716357607	0.57539735899	0.660091814482	0.631315263504	0.652484354248	0.521732026651	0.52055426729	0.598726974646	0.594010551004	0.609357039927	0.679974933548	0.601949866917	0.588573564408	0.63921322065	0.604215834819	0.659840184786	0.634240116474	0.588260850106	0.665966910637	0.568980628072	0.602604643108	0.895857341072	0.848828071023	0.990834189694	0.882516659117	0.971394163631	0.892414451017	1.0	0.986703491474	0.974769639574	0.836105682827	0.84137402105	1.0	0.840732942663	0.947275183847	0.965139166517	0.983290681231	0.939487707905	0.909537949144	0.976984217901	0.961985069145	0.954175868384	0.894788549161	0.935161591149	0.980061666928	0.980292951543	0.857538382703	0.927761492353	0.940427622282	0.94755437277	0.965503920344	0.938784145993	0.920086073731	0.887320860384	0.959138351514	0.935389619944	0.952418681095	0.921754134521	0.953867238936	0.957220736149	0.967990902621	0.958490307052	0.903536851846	0.932068976561	0.919016320337	0.926699296467	0.979130071783	0.927170035182	0.893703932475	0.955757257662	0.908837884444	0.93233629236	0.877205458281	0.928584438416	0.909383770439	0.8876626827	0.913869917461	0.912243701884	0.886917682357	0.949293259366	0.920082314271	1.0	0.903856043308	0.991248249256	0.984118184653	0.968962355648	0.916260787487	0.933253208803	0.895308456367	0.938053602521	0.914032015945	0.924733301651	0.938279529288	0.894037396456	0.862871338887	0.928304794014	0.989994690264	0.981899422649	0.933926883633	0.985200761687	0.991357621334	0.923720060958	0.941958385894	0.903328025838	0.908274253588	0.950243072085	0.945535854325	0.95980154168	0.939594675641	0.962686573549	0.939451569742	0.952299644743	0.943970059284	0.950366521207	0.96878125362	0.931640993039	0.98742776839	0.894185547574	0.883372005488	0.921712846626	0.85682495743	0.895983072833	0.916570469723	0.894251528459	0.876940149999	0.991818058523	0.894429773152	0.962296898804	0.975269315509	0.886579934718	0.91398383791	1.0	1.0	0.86589022644	0.883007334808	0.893154567858	0.895316425613	0.988493377365	0.959054049549	0.942388216619	0.964579746219	0.942020003369	0.971393652961	1.0	0.917922793867	0.920718849134	0.975305393664	0.947661085043	0.945972385198	1.0	0.961579569273	0.954626164106	0.869065976532	0.96139901009	0.955877326195	0.98039483693	0.986545933165	0.961245919235	0.899116879716	0.975959114429	0.979848657848	0.955126878033	0.901736318746	0.943496109027	0.910362009436	0.917037996771	0.901123630832	0.980239377014	0.939951940507	0.864701088064	0.972386506378	0.898734307842	0.912955483228	0.991520747417	0.927304361358	0.958412442659	0.98635475182	0.916238873439	0.953395538933	0.931264791672	0.982652567419	0.973224205986	0.982057050404	0.981884555168	0.937586623169	0.978451143691	0.976696133417	0.904215466038	0.908398302647	0.97593760128	0.95054128008	0.943839494559	0.918825404292	0.911072169622	0.981989512467
DD111	0.686830923162	0.640173610135	0.662999576626	0.670300221031	0.659391306786	0.78619866625	0.700787219181	0.0	0.450544708259	0.712818575842	0.653903292138	0.713824242052	0.707311651044	0.66084522544	0.724294400243	0.675054250165	0.792167440628	0.697816652791	0.786228189244	0.655144206079	0.620649765458	0.797713677995	0.654893383374	0.675231448166	0.691613772045	0.669341718899	0.426967613809	0.678785099156	0.714899697335	0.665284671102	0.656474245109	0.727568558543	0.797411292708	0.812000666981	0.724111899264	0.718401252391	0.68017115515	0.649574134439	0.706516402586	0.800322637323	0.759680753003	0.755624128789	0.661930501097	0.665944300549	0.718091468474	0.689343097259	0.776469454789	0.687527654785	0.674363637878	0.727905900831	0.763692341073	0.727274910044	0.727397516899	0.688332999343	0.745648118088	0.735443509789	0.675815701991	0.699779161272	0.645444090417	0.668997540097	0.637243875886	0.787193890735	0.645287289702	0.646824763126	0.578955020463	0.686177307615	0.699854437302	0.714887200617	0.586053640789	0.690811261035	0.724830349399	0.731832649209	0.778185596009	0.64737296528	0.689474915919	0.633925714622	0.745261878144	0.791676168632	0.705067168062	0.738890202767	0.67849597339	0.668820925675	0.704488018626	0.721921638771	0.727667179105	0.554244019432	0.61592007049	0.595852774573	0.668178645686	0.7791141816	0.671909678134	0.722659260526	0.713486673471	0.71060231876	0.687708730795	0.738762173002	0.805349670794	0.61528232797	0.738855218497	0.746416280306	0.68194672528	0.70539824187	0.459081664046	0.700803170374	0.654672479607	0.677694080612	0.659627652315	0.636165449421	0.455303844815	0.659142964195	0.653879631134	0.653777336825	0.622780691821	0.681546801843	0.781086442074	0.664759016262	0.945786511158	0.956031626257	0.970295976732	0.95828393189	0.939562974331	0.938933817968	0.953146318545	0.952542238196	0.94573019186	0.961571978231	0.945881142168	0.967450383107	0.92152860938	0.921574897795	0.963912340224	0.936465368197	0.935907129288	0.930510151711	0.900449306885	0.936012151482	0.819397040497	0.958398529479	0.944347371014	0.936864725336	0.933083311899	0.889302517056	0.816403009483	0.786345537689	0.929332133325	0.920326640896	0.933544736727	0.80528626459	0.915801625173	0.956045436772	0.933984118383	0.944689498624	0.970646305148	0.937521022495	0.897995965002	0.966120827795	0.882722326182	0.957990601071	0.964162347041	0.952057594619	0.964237787081	0.933844038781	0.941453323515	0.959970057452	0.939903421174	0.96356581006	0.956728905364	0.937539534214	0.961092139631	0.957791683074	0.948558612926	0.947493641272	0.703041649283	0.467289204418	0.720705744685	0.668382095791	0.697378288221	0.765807334907	0.731759231711	0.689992699291	0.68767053771	0.744922854277	0.699495337413	0.666210388274	0.726578904166	0.783317047991	0.738616885594	0.727576742354	0.690048272486	0.712942274348	0.708761513087	0.754404299701	0.753778426424	0.800074717637	0.81595402705	0.755486428621	0.752355228491	0.64598028338	0.736674798645	0.8024055224	0.731746688435	0.709512095521	0.751667188223	0.742780631493	0.667786934434	0.710171703679	0.743328665728	0.75115663566	0.709970109925	0.711720393672	0.735177509913	0.719173287446	0.751521315011	0.68034704809	0.730003603803	0.695114952302	0.770999819736	0.673424919058	0.744081214714	0.694194027338	0.797697441757	0.747991708056	0.76647477206	0.613467877008	0.745179290231	0.581789736904	0.749171918959	0.75145963038	0.678791882788	0.768312968751	0.689355759512	0.70208532419	0.735522840085	0.751419798007	0.74072150553	0.544990212194	0.735672312105	0.668344557965	0.746027188455	0.745675868188	0.750726093457	0.720738567542	0.734731856365	0.724914181099	0.7631538565	0.622200116283	0.753835243042	0.740495186675	0.734217695876	0.716369677691	0.761662051272	0.781502016012	0.785989364609	0.688398528965	0.7151326641	0.723686012174	0.692680183817	0.745060186385	0.715895633871	0.712773352724	0.758954281631	0.751982475784	0.731161296748	0.724281033125	0.709669164546	0.720087632536	0.699155802255	0.715024987439	0.746915793736	0.521826015923	0.720024230333	0.776821835111	0.653047634727	0.507075241639	0.742438966416	0.72184715514	0.742419169677	0.756344181948	0.728313951377	0.614454355846	0.744194182594	0.524980715853	0.697641887837	0.725070374995	0.803036807248	0.712645865455	0.680940468613	0.706942466572	0.740126709026	0.770977498885	0.767476324899	0.730401714311	0.887792857684	0.864788470334	0.980447943715	0.870846963976	0.950123518646	0.863849309451	1.0	0.972018058254	0.948445521406	0.858955549536	0.866699508767	1.0	0.860901452412	0.908756155825	0.946976846533	0.972283198612	0.911594730703	0.875538666261	0.953317431562	0.92858423562	0.929923056224	0.86397085126	0.903336039946	0.956747001303	0.959516561478	0.854193886559	0.896871911519	0.905616462448	0.928507896604	0.950057799514	0.912953318793	0.889414565089	0.87562058699	0.916918986986	0.909385061754	0.921327634735	0.902394744214	0.927605466578	0.928248763682	0.943810564154	0.928877961836	0.878231368352	0.90827510877	0.88054315435	0.903939012103	0.954728164547	0.901680524224	0.878664206728	0.92182308515	0.876430262844	0.904190303481	0.860558269253	0.891286208164	0.879072053847	0.862307604828	0.90024582813	0.88439862968	0.855685197246	0.920684581571	0.883598267465	1.0	0.879963095022	0.988097600733	0.967598549098	0.944409781254	0.872990430292	0.918170354866	0.878803105619	0.911814842447	0.894026884594	0.893225073025	0.908007600875	0.858599214084	0.871876327043	0.898162727321	0.97806169382	0.964234015343	0.907936292082	0.967557803832	0.981999297002	0.897176636205	0.906805248495	0.87097545292	0.88515859033	0.91280325202	0.917110886673	0.935164276031	0.911007123318	0.937484326081	0.90972418286	0.928923641275	0.901867772438	0.932075824557	0.942522268155	0.887580435033	0.981731906824	0.866549060788	0.867556778043	0.891712329484	0.870345804874	0.876961343243	0.888547014474	0.868507939987	0.867431872753	0.98213628234	0.882017262051	0.937603993344	0.959818274254	0.868302573888	0.876064898322	1.0	1.0	0.862532006955	0.871660243192	0.859501192894	0.866688364484	0.974993707024	0.92674126121	0.911216033907	0.931314057828	0.916795396362	0.958479190712	1.0	0.885341933697	0.88523294609	0.952378911672	0.909672147633	0.930641472618	1.0	0.93525840497	0.926270342888	0.861229605861	0.944088659863	0.918987765064	0.960443779324	0.972949415162	0.937322926741	0.876641905281	0.955109197591	0.964469957414	0.926763588808	0.888529142091	0.911848739228	0.885245110463	0.881456442829	0.869196225329	0.956671546528	0.908083941127	0.852364886673	0.949890386763	0.878845158487	0.876909920289	0.981636557708	0.903176785426	0.929978023013	0.972118717193	0.899092928862	0.923245560464	0.895706136488	0.961962867975	0.945634804609	0.964874463948	0.962690335696	0.915308211069	0.957862026526	0.951599099099	0.870569648145	0.888488815925	0.953713609479	0.915203374945	0.912152071784	0.885698408876	0.883411841314	0.962354290142
DD112	0.665611242982	0.589559755385	0.61987911077	0.626781574279	0.634182351112	0.772470745032	0.686628689528	0.450544708259	0.0	0.680595588596	0.592790285762	0.695216997545	0.696244756576	0.630182911945	0.702349156516	0.624406683843	0.772902505388	0.66699441922	0.7624947721	0.642195358479	0.582387712844	0.771360557367	0.618193258147	0.648053860853	0.651480468961	0.625897720335	0.424627485747	0.640656958568	0.68847864689	0.631714847927	0.639425157418	0.723935763254	0.778880572011	0.786323914819	0.694338983119	0.693159666159	0.677731228994	0.652980020687	0.676833338234	0.78125443866	0.747091271954	0.7256599246	0.651691618126	0.641091339525	0.698259966368	0.666205776106	0.752043046217	0.647240063113	0.637403510409	0.695626808942	0.735012073831	0.693214986617	0.696451554471	0.672771051087	0.709297877614	0.712182731715	0.685161835672	0.664091725055	0.613477579115	0.66458032126	0.597888802987	0.765057703152	0.605728799712	0.625020546748	0.554715929755	0.640884219823	0.669782017094	0.694124055273	0.581751284238	0.68055596989	0.712175377516	0.70006316543	0.748755237061	0.624435222423	0.687765839076	0.608073853706	0.705234395349	0.764876844706	0.72009109347	0.706133206973	0.66448783367	0.640306968538	0.682749120931	0.690652756736	0.694747409621	0.552574140872	0.608597474338	0.590877303872	0.646963249443	0.746517529565	0.660434545179	0.698449391369	0.686346606391	0.70462347562	0.676517207809	0.711980936438	0.785356907696	0.603719377443	0.717182752031	0.758359380965	0.663008021194	0.681878661756	0.492173266634	0.65546663684	0.616590622578	0.634913676839	0.623134196704	0.595702583418	0.444920568313	0.624278342556	0.627427036791	0.61553701545	0.584429049396	0.631808300816	0.763156321705	0.627723130865	0.945305574364	0.962638457922	0.97426113552	0.952682593096	0.938726447043	0.938794261188	0.95433903476	0.951338305219	0.942886382708	0.959006468546	0.943166259686	0.965075701119	0.927859381665	0.918796476085	0.962459748572	0.933333772974	0.940414458965	0.930075485936	0.917160012115	0.935901171835	0.822057342738	0.9558673772	0.946307759776	0.934178752217	0.931183628215	0.893514463023	0.826729747838	0.79174009924	0.932677109791	0.924816292961	0.930258165904	0.802067914096	0.924462971184	0.955545920677	0.935221701626	0.938925148231	0.963210163504	0.932620382194	0.89543796533	0.959105339571	0.880737675549	0.954730421563	0.960368289326	0.951439041004	0.96403300295	0.933090875975	0.934687548952	0.956823422134	0.946196209587	0.960723659333	0.955247253599	0.940490485299	0.963278624954	0.961136263136	0.952714615655	0.950492469188	0.697085787721	0.468406526106	0.682491024304	0.632824959432	0.667944373943	0.749380518307	0.709188044782	0.673587298126	0.650202701792	0.734634088274	0.679536150248	0.641139597233	0.751791292848	0.760815098583	0.700713383404	0.698810263822	0.657436510846	0.677182159026	0.669252660365	0.733523924045	0.715401704167	0.774893108315	0.786976911146	0.738462806109	0.734528499741	0.636919752751	0.698636052136	0.774993280158	0.695305729379	0.680052625242	0.743150423979	0.726503933537	0.641557539107	0.66781326685	0.724424162828	0.730899677232	0.69003377755	0.674890772457	0.714190761419	0.69069361809	0.733065220513	0.652917901853	0.706697603584	0.667025029763	0.75044819367	0.639610534064	0.714509010226	0.663407549488	0.767482906757	0.720226020012	0.740295011134	0.603216631159	0.732602513626	0.591083552693	0.727205290705	0.723601017477	0.650493840382	0.739993799091	0.667056419269	0.688099179382	0.716825146265	0.734664588096	0.715511505655	0.563000521642	0.714094106437	0.623275024734	0.729370126438	0.72650841868	0.734257643935	0.710420508162	0.70773899873	0.690222495494	0.739823407927	0.61260440995	0.720980065165	0.715662998259	0.714723030897	0.700283676906	0.745868712259	0.756628118131	0.753842659393	0.652891918627	0.67694130387	0.682739806551	0.683797564073	0.730814700911	0.69022801886	0.673755858014	0.729800605917	0.737067389784	0.702610692517	0.689973153185	0.701607221252	0.677842410929	0.659883877964	0.687802126936	0.732004544689	0.56134975234	0.699136172059	0.74543996554	0.630786439313	0.491793553835	0.730452631117	0.6972331285	0.71058290471	0.729352588794	0.694915261191	0.601981265907	0.712234454982	0.504491819837	0.664521586726	0.702752793057	0.776861553778	0.679321154081	0.645883975715	0.681170388852	0.709055520256	0.746587135268	0.751737388348	0.707782446544	0.889110409065	0.867533224817	0.982264380353	0.873644374062	0.950257174252	0.869512441332	1.0	0.975289988529	0.951372136022	0.863603421788	0.874097015204	1.0	0.86449492475	0.918519775929	0.946467594618	0.975502435985	0.914148613068	0.881826690298	0.958206069607	0.934977279952	0.934863004599	0.869498203138	0.907243370985	0.960762072595	0.963252221433	0.860643795833	0.897448014009	0.905949102268	0.926628364728	0.950030040382	0.910151130696	0.893886923051	0.883643066596	0.931976760039	0.906909949517	0.923130329005	0.909242452446	0.935199378184	0.928366104596	0.948271953275	0.931252894789	0.87891552461	0.913858573911	0.887440669872	0.904372864735	0.959216322673	0.904991029011	0.888632859965	0.930898094676	0.887862406774	0.907371228764	0.881024833688	0.900896398699	0.889093556231	0.87427027554	0.904410027456	0.886322126063	0.86397279262	0.928890349332	0.897052495906	1.0	0.887087841661	0.984212852496	0.970647306735	0.954698088491	0.886230925943	0.924673375477	0.884317353346	0.918215218211	0.898710277956	0.901446079216	0.915083336958	0.8629727316	0.881369196325	0.911246347512	0.983360198628	0.967446159691	0.916922981633	0.970573080993	0.983542028778	0.907507743336	0.918174389944	0.880270481345	0.896205157552	0.921978329878	0.916994343042	0.93512302654	0.909798633892	0.93911492563	0.913422691111	0.93029036512	0.903448994529	0.930533219207	0.947632516427	0.894788365442	0.978414010991	0.87397474357	0.871555928855	0.892088438245	0.871495343172	0.885717781977	0.897034909166	0.87939209066	0.868346665842	0.983785412677	0.879858809245	0.946761929372	0.961059154125	0.882447726845	0.885106769158	1.0	1.0	0.872160459351	0.882889847212	0.875588634662	0.873271347404	0.977317196093	0.928350431753	0.914187092491	0.938550021693	0.92015956401	0.957057672408	1.0	0.894118379019	0.889718926936	0.9518814132	0.911725160088	0.931711594425	1.0	0.941196591321	0.927065075556	0.872468381961	0.942037434443	0.929017168395	0.964066138196	0.975456832337	0.937563083817	0.887098209128	0.956727590322	0.964068856528	0.930741397919	0.890870512092	0.916052183476	0.896874328401	0.886117551215	0.883605775483	0.96070019842	0.91482778299	0.852661073003	0.953178902822	0.889761515498	0.87922295935	0.983340349811	0.907981908782	0.936506296189	0.97537059861	0.904032925035	0.929400676152	0.905996932265	0.965499536183	0.953296605501	0.970696088269	0.965541330268	0.917185847527	0.961149623886	0.956077583552	0.879154159929	0.896786420988	0.957818254233	0.917638359901	0.913764335576	0.893446289377	0.884899013239	0.965844102769
DD113	0.49497902605	0.669532002199	0.637479821125	0.492138154748	0.62485400911	0.673103586795	0.610312347644	0.712818575842	0.680595588596	0.0	0.622452178658	0.576015704916	0.607165173399	0.5289573329	0.572149312701	0.529532817279	0.671495849369	0.637331261125	0.671077256289	0.550740035032	0.679791253028	0.677406451915	0.612991068849	0.536793478728	0.541206562207	0.622022850059	0.706957869674	0.488572414698	0.599899417207	0.626793333372	0.557405279562	0.679557088881	0.659725159969	0.731235924877	0.601759304084	0.598075880351	0.642609850071	0.676387605575	0.579223131223	0.67202866822	0.628413619116	0.583850278773	0.627089496979	0.633121488207	0.521035827268	0.57045505707	0.653874418662	0.608180705843	0.593479539294	0.547085274705	0.578231888626	0.477229285459	0.521135777827	0.64542648419	0.581659555476	0.599081152134	0.620280258262	0.53150924086	0.647672524672	0.633223189043	0.652809622119	0.684587651996	0.644165587818	0.642764352657	0.666257619685	0.470978934625	0.470814509706	0.593301854441	0.646430275921	0.688631054673	0.611977443094	0.577324528273	0.652186738562	0.632738970027	0.644701635039	0.655237426796	0.573382192874	0.656782664354	0.750153894963	0.592667639422	0.633387628901	0.650764170259	0.566467444375	0.561482644553	0.580128668401	0.596131852598	0.621936012273	0.641549006317	0.619827896266	0.667987625896	0.589584059568	0.633570981477	0.562471713953	0.576333113374	0.689551685379	0.581374533654	0.667926294475	0.623783796845	0.664046888717	0.750699215228	0.653538706433	0.429447942783	0.733284374359	0.662251267856	0.654883240258	0.645799847952	0.664312475857	0.669568686721	0.708424513884	0.635917460904	0.700458452722	0.683128284103	0.68059693684	0.705812845792	0.683414366987	0.558496089736	0.943223865806	0.97050699443	0.973618331234	0.9611233392	0.945736757079	0.951116913518	0.937051485846	0.933817764991	0.950134867604	0.960722478162	0.932253596151	0.964264181353	0.916774096032	0.920589355075	0.95832125968	0.930992309554	0.932986041951	0.926883011741	0.921672979296	0.939271142535	0.84886751312	0.952210374869	0.954194359137	0.942483073228	0.939873563427	0.909659238842	0.838475182136	0.824215723615	0.948504617315	0.937086514405	0.94317748039	0.851828695561	0.920740619983	0.957662312696	0.935950673981	0.948958934976	0.963702446171	0.938965381492	0.906571335117	0.952773145877	0.898487271716	0.956952471284	0.960471022637	0.952526607254	0.957800883811	0.947864251739	0.951524952787	0.963196042454	0.937551461105	0.954895753981	0.95466517658	0.941862213642	0.963052181967	0.945303157404	0.943912910975	0.945447183707	0.688439462243	0.680011106333	0.617948371275	0.602885646911	0.588692361113	0.573190234515	0.463650783339	0.605270091019	0.611722997641	0.539455056384	0.615904146644	0.639326025678	0.831664037252	0.65061179364	0.480770573161	0.576286453035	0.606111466546	0.616206505739	0.62096485597	0.62509605186	0.599584597063	0.650490265388	0.6396307053	0.596314657988	0.631877020171	0.648824223004	0.625280131205	0.638569539017	0.583065462632	0.616200928884	0.63444204315	0.576926954993	0.625797342015	0.434794884237	0.586456983747	0.584352512138	0.634663816182	0.643978725768	0.658755601388	0.531987892292	0.665662160028	0.552738886663	0.581624231546	0.650101938916	0.633537319416	0.639533706186	0.471549427072	0.602507504759	0.628070398969	0.569727209491	0.589383554878	0.639080641686	0.63662263393	0.674144875588	0.551150210443	0.568825772499	0.638116143196	0.582817466228	0.610645981868	0.596913109567	0.564505844824	0.596908228905	0.554416397006	0.684516639895	0.594935449197	0.590092701519	0.584491006916	0.590707797241	0.522745277533	0.558381366586	0.566968669493	0.593081438921	0.589203912096	0.602955493372	0.575370755406	0.566647619571	0.60363782559	0.57083083874	0.6126430136	0.598395505813	0.618509505223	0.627993210109	0.594487134854	0.600775673708	0.592842965758	0.580436758473	0.612562086443	0.620167868859	0.577503561559	0.609977717106	0.483207405321	0.459374072438	0.672333299347	0.633906483322	0.599940987193	0.612322919471	0.676090603291	0.689431363876	0.620783617226	0.538814280371	0.595616915758	0.66833265976	0.625458451183	0.621672632318	0.567890009894	0.570302057953	0.606079358502	0.616022188187	0.575278496675	0.665986314542	0.525288370344	0.571556503402	0.631405721633	0.546767295792	0.635026704225	0.607774550145	0.565617475343	0.624314684155	0.581533394996	0.450287086358	0.912541173923	0.871192747314	0.990275844599	0.902299544814	0.970838106125	0.906480406103	1.0	0.986444087012	0.973812467994	0.856761713223	0.864421618639	1.0	0.863059483078	0.946028369803	0.968714822662	0.986508274732	0.945031656589	0.919358253274	0.977134113864	0.963415066151	0.960220944727	0.903357428983	0.943189199888	0.978749329885	0.979790236203	0.877444482452	0.940967596043	0.943648296481	0.957078118418	0.971175667977	0.945287815999	0.932598997429	0.904658528684	0.95651530724	0.942125065048	0.956095154614	0.933985155813	0.958986375471	0.958768899928	0.970258348469	0.958179487565	0.904004578623	0.941862051559	0.925311686804	0.937836398114	0.977443543343	0.93424028608	0.912483305525	0.955917154772	0.91629252592	0.936531137146	0.900484144038	0.931684481815	0.918442669528	0.896346895522	0.927420700411	0.911620610209	0.895091716366	0.955494671329	0.92455462145	1.0	0.912474582153	0.990461315935	0.98374594917	0.971270554879	0.917675672294	0.945379405646	0.907063457626	0.937119166982	0.923256783782	0.924409400433	0.940999156507	0.899066135926	0.887074124769	0.929161313893	0.989094044984	0.982109374452	0.941605504772	0.98386886769	0.991034119778	0.929662652828	0.942880620674	0.902065736723	0.925037593844	0.951544391895	0.951728310344	0.960819587382	0.945234352159	0.965537980904	0.9455757628	0.95579311755	0.945510442567	0.956624626242	0.971919865584	0.936653345345	0.987310935338	0.909501747937	0.90217440329	0.931142473317	0.876692638729	0.915027264359	0.920160131615	0.897916130986	0.893597738843	0.987670883979	0.909698232224	0.968139823118	0.976081979767	0.896201182276	0.926765284516	1.0	1.0	0.884558785612	0.896654112796	0.909947090038	0.903310864184	0.987186855196	0.958963517765	0.951375764039	0.965576921238	0.951917850244	0.97510355842	1.0	0.928413221465	0.93128841801	0.974044198842	0.948450372538	0.958089891111	1.0	0.959640215711	0.95504944287	0.884960113549	0.967959824385	0.95850355679	0.97989357878	0.986529690058	0.961277173495	0.913103437173	0.977676782585	0.979805238172	0.95911661748	0.921484135905	0.943765334905	0.919627533662	0.917805409077	0.905633696947	0.978794588784	0.941125768619	0.879707622621	0.975082361676	0.910046350501	0.920784176942	0.99075828566	0.935043993171	0.960289938571	0.986468383361	0.926335513575	0.959493538232	0.935892820022	0.981091008239	0.972778227192	0.981427309123	0.98130118633	0.949963321003	0.97729678781	0.975874214358	0.915252347168	0.928933930259	0.976570272452	0.954064071331	0.94442719422	0.931887801838	0.925058144506	0.980803229984
DD114	0.593391391518	0.447372611257	0.534958251148	0.548598040227	0.61683497736	0.703855128421	0.674798257224	0.653903292138	0.592790285762	0.622452178658	0.0	0.667133585406	0.640773712152	0.569585268132	0.62668517474	0.555161294231	0.708268630406	0.663104634165	0.69080294872	0.589396660212	0.480954546837	0.710807196763	0.627104559285	0.583535501905	0.591487533474	0.604095932607	0.6370472644	0.569898027119	0.628879210556	0.592436628237	0.609106344223	0.709631356765	0.716466768938	0.751681475115	0.6483679721	0.631248400616	0.657832825128	0.655461468446	0.624674454047	0.719904354906	0.689251897074	0.673535000522	0.636538423195	0.628597106755	0.640373339817	0.551530518575	0.705069402646	0.544740454891	0.477805299667	0.638270910268	0.649933414549	0.610171168668	0.630189821558	0.658186858505	0.631109372369	0.640226258256	0.679127559354	0.596463586913	0.481346247004	0.6390710786	0.453255597378	0.714782168932	0.472167669334	0.621975692619	0.631150823928	0.571954524765	0.58411088933	0.64854633306	0.648440561272	0.678611649298	0.67579904663	0.638631920744	0.688837768391	0.638109228397	0.656140383688	0.499393424118	0.645169066883	0.697178784521	0.736799701132	0.661331328782	0.664683674202	0.591075244588	0.589765058673	0.64903956549	0.628544628551	0.600168837674	0.55835690567	0.656162458879	0.511998008338	0.689674673962	0.626116129877	0.659232534599	0.634761931336	0.656815583073	0.668535263063	0.644420513174	0.726286346599	0.632415381004	0.656819592085	0.77541478154	0.622408519468	0.627543256449	0.668507342671	0.601464329473	0.540782441482	0.584874285313	0.587443275338	0.569532719655	0.629249366111	0.579535515444	0.634896577981	0.613112278283	0.48581260084	0.588801573828	0.730375037393	0.587780651298	0.955505561116	0.962091475542	0.971286766477	0.951893770424	0.951442727951	0.941667600697	0.959066128565	0.951303279484	0.940903284292	0.958298789108	0.945657305198	0.961083056535	0.940128790513	0.924286238356	0.96217031205	0.94334946132	0.941053085498	0.939456222125	0.931548221499	0.938422848809	0.838660052886	0.954666331707	0.947461397699	0.937142926832	0.936646075962	0.903368619843	0.831153935118	0.823972466307	0.943957874325	0.93130240772	0.936930946528	0.834601743643	0.926291363651	0.95370205783	0.937890725316	0.950406272447	0.969925023595	0.937381175596	0.899572909319	0.956173244314	0.901500037622	0.955830843664	0.960411437702	0.953150421502	0.961947401875	0.944634724385	0.948918802558	0.966196366951	0.947057151499	0.958941261245	0.954829801557	0.941624680974	0.963080635838	0.960541232827	0.955053275846	0.950801584692	0.719300258292	0.610217245354	0.560826988844	0.534575614082	0.591190385773	0.705823587912	0.666952069539	0.616854573646	0.558291769364	0.709362260029	0.607199771486	0.59320513921	0.807837072525	0.68831305191	0.613937966635	0.630855428079	0.489176941279	0.595997159794	0.578379880011	0.63325813065	0.590844256629	0.688554213158	0.698676802663	0.69821130559	0.672693485684	0.691943272295	0.579618571575	0.696061245372	0.606972303677	0.503806887005	0.681455927755	0.669482535049	0.468063588471	0.589936918806	0.668961705359	0.683877213019	0.58669016438	0.514742317615	0.677668603294	0.59062917392	0.702447424118	0.588969122665	0.642941902338	0.632757911948	0.686037286664	0.586441924996	0.634164989173	0.64644580672	0.704763442643	0.655310338395	0.671207090287	0.623440547201	0.710466678849	0.680554615234	0.67484315472	0.620439638537	0.596764421977	0.686588145912	0.623232752136	0.632600887738	0.645706218454	0.694025018963	0.631699948753	0.670662670472	0.655376592584	0.487738744156	0.671919837588	0.669760710758	0.669115922295	0.680619838981	0.586325120064	0.630117958114	0.679632919016	0.635692994468	0.640050165721	0.637634128185	0.677310405798	0.655569440946	0.703593856053	0.693152073669	0.690560068688	0.613049096172	0.53909662619	0.576683953415	0.603955169597	0.661235823686	0.639854693957	0.562772673282	0.643156988002	0.696171391439	0.612355604121	0.617663427591	0.69343695916	0.601359698696	0.563344332829	0.595149844077	0.691640992754	0.676596502803	0.668173974945	0.659314241031	0.648420154977	0.612822399013	0.679307207987	0.656604977052	0.626879301196	0.659632018035	0.61813009648	0.645682368333	0.633722229136	0.624054762271	0.583913226756	0.641380606407	0.698558971528	0.566291160305	0.600470710048	0.646999053678	0.640007003663	0.662009035779	0.695762435615	0.630300667901	0.902356233981	0.878063514851	0.98575290153	0.897837315412	0.973608854366	0.896560725671	1.0	0.983119053764	0.975950005226	0.86752271522	0.877977894888	1.0	0.871214877833	0.949179590365	0.960978511993	0.983230415383	0.938055487838	0.912353669884	0.970765705474	0.961269674138	0.950549232909	0.893872227424	0.934456560439	0.972636390935	0.97374467287	0.877906872527	0.935490837124	0.94004077162	0.942677434787	0.963950137439	0.938651221213	0.921066542167	0.905281220184	0.959233837405	0.924443035278	0.951115142759	0.926702149949	0.949076073237	0.956383523423	0.970206798459	0.944438585185	0.899607225508	0.928188311261	0.919614612727	0.936520128065	0.970944208259	0.916052844148	0.900022884102	0.947759792874	0.911173980501	0.934701749109	0.892651777759	0.914714785444	0.910256344977	0.893423437165	0.921746749841	0.901964717164	0.883941289381	0.94606092607	0.92200906827	1.0	0.902874673684	0.987882143681	0.979611379837	0.966016537213	0.903582469969	0.936752349423	0.899522614816	0.931031648452	0.917335326286	0.912762624684	0.938647153674	0.888512192436	0.887146602271	0.916532531465	0.987228827265	0.977213278826	0.934933255718	0.977526880991	0.987218019515	0.926575120131	0.94320476317	0.895520648117	0.921507744569	0.950981893943	0.944867300211	0.9516958529	0.941305510243	0.956775954483	0.931102350406	0.953104456845	0.939011456634	0.943514834897	0.962269871579	0.929808804984	0.982191736624	0.901394095085	0.894270999786	0.91815187215	0.878214163199	0.902391889344	0.916085024669	0.8927666357	0.887015102352	0.986438739092	0.903094239123	0.96106210162	0.97198695929	0.891205341021	0.91967834101	1.0	1.0	0.887445116789	0.892598580103	0.899796592084	0.892883865822	0.992362691073	0.956596687189	0.944737106837	0.954349540985	0.939207700046	0.968881380183	1.0	0.923534484734	0.920920911176	0.963028437604	0.93365192752	0.944621132175	1.0	0.954474329184	0.950812327129	0.889434945871	0.958688904037	0.953648054203	0.973921568458	0.983129813262	0.952852763958	0.912034777096	0.970676177631	0.974624300991	0.94752485432	0.913196723326	0.938815789474	0.918093088908	0.912033756659	0.907494186986	0.96985956794	0.92623401039	0.870010500251	0.967826043161	0.910071928545	0.912222366212	0.987073421941	0.920152179871	0.964018215415	0.98316125545	0.909366565284	0.947557179606	0.934622239791	0.973540352778	0.965898877452	0.978986061859	0.975182515183	0.935190382395	0.972375266261	0.9682686018	0.910148285432	0.922073415788	0.969696963167	0.949708964637	0.938300255834	0.926535465056	0.916114415749	0.973534080616
DD115	0.598863612473	0.711755199482	0.702532087574	0.567094022788	0.63380175678	0.681045223259	0.687052751239	0.713824242052	0.695216997545	0.576015704916	0.667133585406	0.0	0.641995510086	0.614026987107	0.664630346203	0.602711217716	0.678327322115	0.701688691492	0.672603250062	0.530814936772	0.688515193046	0.668414227213	0.648746733349	0.607674493756	0.634730605773	0.662287121213	0.715109810969	0.5774785621	0.654752494665	0.676993470512	0.5960314424	0.611406499005	0.692357748719	0.691873008774	0.650664441947	0.645838936879	0.616535619637	0.671043349506	0.649909088971	0.678995005536	0.670876339101	0.687072267868	0.687926009702	0.683453691124	0.66905885687	0.663215597667	0.679088910293	0.685593511797	0.696920636675	0.679517588288	0.725914485355	0.658469847401	0.685431825649	0.714435045738	0.703735548702	0.695842256615	0.642855995954	0.650238021326	0.692847822484	0.687118382662	0.68714063974	0.676570876155	0.685577179448	0.672054625802	0.709171266012	0.598426514492	0.576987377742	0.637973741055	0.687225627918	0.657243261976	0.628018755449	0.654185504029	0.656896565793	0.662172297747	0.633096150571	0.642969862892	0.6808484478	0.665124077629	0.673086903491	0.658564919012	0.602474749364	0.662205344718	0.66758029973	0.673560283005	0.675062948248	0.592365293312	0.663932521785	0.636489002251	0.663821429665	0.648625847773	0.576634549278	0.630929044782	0.644177428227	0.641891464827	0.648276436594	0.66010955963	0.695950339248	0.645133710024	0.690326758326	0.718135385349	0.620352606337	0.582837807147	0.678271511237	0.677354559288	0.678625762432	0.685135742898	0.654962754587	0.669023889288	0.686913094116	0.631328197847	0.652344512574	0.640036941774	0.672031994965	0.67794113835	0.670941182458	0.591616086125	0.917889910264	0.944791848903	0.959819353181	0.935440929046	0.91412040846	0.913585935976	0.92631289298	0.923267953229	0.917707576501	0.93414021361	0.919737644041	0.93863002848	0.903871081351	0.891980996626	0.941010307196	0.908697756594	0.914815258691	0.897856992054	0.883879030818	0.912250243135	0.785184215814	0.929811664742	0.917601488183	0.913711108029	0.909118621084	0.856858829043	0.788591080001	0.765567430083	0.913639707249	0.898319040824	0.90789154125	0.763066798343	0.868069998745	0.92793086068	0.895164076222	0.928552021713	0.954378733048	0.91215630983	0.863290313516	0.937450167034	0.844687508556	0.933496192295	0.938978463134	0.928227865315	0.940065615708	0.912735027199	0.919259993356	0.939732411602	0.918128570429	0.933723734645	0.928073510857	0.91031284634	0.942451017054	0.932447059703	0.922797670689	0.920611345529	0.72537744178	0.700997158512	0.739325152648	0.696786829385	0.662627963098	0.713110326305	0.642909011668	0.670138596526	0.715441281233	0.653463876597	0.701059717356	0.690563800075	0.738280743668	0.704623117964	0.683668508586	0.694728122165	0.714648497412	0.727695508626	0.719813919196	0.739861641837	0.723519279701	0.723681968165	0.760205710499	0.719494121379	0.703685222321	0.713445924306	0.742520249796	0.733448898371	0.689269050413	0.742349108304	0.69729679517	0.717682680564	0.690946079742	0.61225218003	0.693741799253	0.714866063445	0.7400162889	0.748799424389	0.736747766585	0.689499312688	0.735297342229	0.63577678412	0.701908358399	0.740379083615	0.707362148716	0.713143088188	0.679780512099	0.703215268746	0.717303228429	0.70444815944	0.725616980253	0.718440008997	0.690647442219	0.711328880855	0.716352708831	0.713170594089	0.725752695568	0.706222779825	0.686037278776	0.706189204975	0.67921880762	0.732828632339	0.690411359659	0.709931500554	0.749315816098	0.681079875307	0.726341958764	0.694745135981	0.708186303224	0.68394826587	0.711546229764	0.724020573893	0.737399907755	0.694961871817	0.718521837798	0.718538332425	0.722102948053	0.697521352408	0.762870960561	0.765726167226	0.715226397962	0.707101584245	0.713764938398	0.705869013342	0.694405228183	0.714683478444	0.714419676037	0.716688675229	0.721744274363	0.737487778257	0.675143525804	0.651598929683	0.739582411193	0.748087980014	0.723112803964	0.739442405873	0.752467576345	0.711413819696	0.727299506207	0.735725514426	0.705046020967	0.729391344118	0.716556272583	0.737390698604	0.685584668603	0.710557684905	0.73793053225	0.703587409953	0.692232371651	0.704979677084	0.652913190341	0.673192993817	0.71786287134	0.684384252203	0.708645769487	0.719420792469	0.683938754908	0.697465271801	0.727923232667	0.670062882462	0.863560550139	0.849762841635	0.981028984098	0.858378206578	0.944005171559	0.845525468772	1.0	0.973571130643	0.94905678619	0.853052513342	0.858233269145	1.0	0.850089629381	0.899395799479	0.940402793697	0.973814017018	0.900614456232	0.872452001875	0.9559667886	0.930823950609	0.92803670521	0.844425610933	0.902635626362	0.959013609686	0.960710960664	0.841512394716	0.895780032528	0.900962887868	0.925065391228	0.940202188887	0.899291543129	0.883205526555	0.859252857734	0.925894465626	0.89657895826	0.918559506247	0.891909516277	0.920236292785	0.92050903539	0.945137539641	0.926602604111	0.84825439763	0.90072558643	0.87718297512	0.891481455188	0.956933334305	0.888647000611	0.862487776747	0.920739056405	0.857338937754	0.896493078633	0.842409230185	0.887698522461	0.866676555974	0.847744965457	0.879988590286	0.850047692226	0.834884219682	0.918981064411	0.876313583539	1.0	0.865392087558	0.981402367453	0.968323480748	0.94536552467	0.844449247449	0.905144032479	0.855225297334	0.88209373292	0.875781157736	0.881383147181	0.894048718979	0.84258597966	0.847590758711	0.879593152472	0.978714224164	0.965290903728	0.893186606725	0.968759834308	0.982532704629	0.885014257747	0.897323272327	0.836139141332	0.87235996136	0.911219770108	0.915123264382	0.93176558983	0.897120033767	0.935697251519	0.903585538424	0.917404937904	0.903843206963	0.922386248551	0.946559232996	0.889592693776	0.975497157151	0.865691930697	0.841064726754	0.883530463522	0.845209410594	0.861032650082	0.86261400608	0.835478305146	0.84136334265	0.981117518292	0.8599932686	0.937120689147	0.949129451472	0.845267433294	0.873867748727	1.0	1.0	0.83029279366	0.851802205429	0.850241358824	0.843805543516	0.975582644273	0.921424378172	0.908952049156	0.930373290454	0.923025624118	0.953253770345	1.0	0.881298309608	0.878206892326	0.949542879504	0.902783395748	0.926443452112	1.0	0.93255233247	0.912992235933	0.843828927549	0.940852057193	0.921139091888	0.961601344471	0.973751360242	0.936564720727	0.875115974598	0.956858352838	0.960752506525	0.927282991282	0.868912493403	0.894922369679	0.870774493575	0.863337489702	0.848047880305	0.959980545612	0.894983560616	0.824950367696	0.953147542611	0.859937615524	0.865377700293	0.981980681668	0.880284830071	0.92315024774	0.973663324523	0.881647345863	0.927193925062	0.889760886719	0.96309423986	0.950878015746	0.968681353733	0.964513006455	0.911476857565	0.957056671749	0.953525875393	0.853880894699	0.882173500204	0.954723857163	0.918411677218	0.897077398605	0.888092106825	0.876233029844	0.962028585927
DD116	0.592492499379	0.677704757075	0.658043583188	0.585280163	0.597727715849	0.661959191213	0.623549561377	0.707311651044	0.696244756576	0.607165173399	0.640773712152	0.641995510086	0.0	0.606865977304	0.421963444091	0.591823553842	0.653283144231	0.664171045878	0.640254868163	0.614298163865	0.672641567016	0.660107117744	0.614883101043	0.598148411837	0.588536708749	0.638709808784	0.711798243709	0.580336487462	0.428109330672	0.62159629228	0.583418812127	0.603711045312	0.670172399566	0.710047941493	0.446949094036	0.407880663057	0.600737578691	0.662898394124	0.577726370522	0.659321955075	0.643579947206	0.586886657642	0.651404772714	0.643245869179	0.608451471913	0.605897723066	0.627261183614	0.62088731578	0.643945362669	0.476506784584	0.619807772738	0.620938120353	0.624491845066	0.655801764762	0.577133931955	0.447673830505	0.610922603631	0.61435643104	0.675153877864	0.660460397665	0.663516390845	0.649822719473	0.65977452609	0.628377832387	0.679503114985	0.583901310682	0.585357086365	0.569880862108	0.619585511356	0.62794109554	0.428285396402	0.574225422942	0.63915692321	0.645143870885	0.599824559322	0.653277823632	0.574539517214	0.648311502986	0.681984394484	0.582353991327	0.602188850171	0.665642230493	0.537105740981	0.449931919705	0.574164007068	0.609608761714	0.636175643962	0.633806991973	0.632063182804	0.647874026981	0.614783181351	0.466969588361	0.42459012167	0.497943293999	0.628885112491	0.534498763828	0.674479614126	0.517663227204	0.653790555211	0.726069521242	0.600219369599	0.594904861994	0.728964535212	0.660923433851	0.662500385685	0.670642782624	0.658646019348	0.662344097499	0.697658645252	0.642750218959	0.703437838423	0.679271584342	0.680283612006	0.700878536465	0.651292777729	0.601134395504	0.956121529486	0.968779125054	0.978039242455	0.963307861029	0.9510338054	0.952204117176	0.957433231122	0.957718104591	0.95211648833	0.961407944816	0.952013363239	0.969549291473	0.938495195905	0.9372267655	0.966779068684	0.946376662354	0.948225664449	0.933993886793	0.92779575983	0.946800115521	0.855273383628	0.960015882888	0.957339373944	0.951264413982	0.949929278972	0.91265699922	0.84314828598	0.820772817857	0.948846514321	0.936575860424	0.949041705405	0.841698864164	0.92662852362	0.962422352323	0.938139902978	0.957792711876	0.974622650235	0.952486854735	0.921019005372	0.967748599191	0.908074517316	0.964105555992	0.968346399771	0.960982227979	0.969183715838	0.947584895569	0.954728337484	0.969605415106	0.955343073974	0.967240890135	0.963049224194	0.952714100453	0.968724095293	0.967097161257	0.961129559997	0.959080668561	0.699360583996	0.688871211698	0.680262585526	0.641759048204	0.591217458605	0.675681742527	0.647351721299	0.522710292185	0.66465482084	0.689864567017	0.666219153959	0.65618065125	0.800845089026	0.647613494756	0.620790288692	0.504441334997	0.67067930927	0.65557910622	0.667575824069	0.676885873357	0.637693915428	0.65599291687	0.663056939579	0.62417858591	0.635531724994	0.662716742946	0.685222288456	0.648514001651	0.611939070764	0.67078701732	0.644187197788	0.633840052689	0.665158108029	0.595214444019	0.520518651521	0.57365627762	0.693782425769	0.700922444775	0.713115560118	0.625935394674	0.72285976978	0.619404203087	0.526381394169	0.663028601243	0.642074154486	0.655901032248	0.640917435842	0.638303252427	0.645162205979	0.596283757656	0.623965942331	0.675315900092	0.670984154312	0.697540391741	0.646442729622	0.490795381538	0.674213752473	0.618430767827	0.626625280137	0.619797028147	0.488476042215	0.632391125754	0.602669138005	0.697975009871	0.657093459856	0.642919438888	0.6390496423	0.62435970863	0.638940570395	0.634709747337	0.619843808512	0.625483882065	0.640030489774	0.623704202947	0.623318389858	0.63543427936	0.639359691452	0.608883715003	0.664197464636	0.657445830942	0.618539333201	0.635022543366	0.650684071835	0.656810845113	0.63738621201	0.539474882866	0.662906382273	0.676392430664	0.619761494364	0.667518913504	0.628619652915	0.618478625256	0.688413806388	0.675824599927	0.663492770588	0.692529323834	0.733705995781	0.705190566001	0.682911107495	0.670767669935	0.628939146249	0.689210556654	0.561581481419	0.670213326364	0.597004777167	0.59624943509	0.645533332815	0.65346077264	0.480140061127	0.681996889268	0.618144667976	0.463893119277	0.646960763601	0.619857004925	0.653125689849	0.660588127643	0.473613686954	0.650391866698	0.639011068031	0.636904643405	0.898478305477	0.852908857356	0.987819087647	0.882505008015	0.965442306072	0.881301374364	1.0	0.98232980402	0.968124166504	0.842958491211	0.851015929173	1.0	0.847144422398	0.940122308476	0.961352556271	0.982776405023	0.935295665371	0.904039556998	0.97085434111	0.95538561537	0.948115058783	0.888673026744	0.929153259896	0.97409624576	0.975381254113	0.853304864865	0.923765068016	0.933437247525	0.944769083713	0.960012997462	0.932205699391	0.917762398594	0.876877620861	0.947929649085	0.928439301093	0.946733461402	0.914741348135	0.946726335471	0.951250441246	0.964550015507	0.947586855971	0.904182537704	0.934191892627	0.9109374922	0.931728346267	0.972306490631	0.928307320869	0.901731168718	0.947450588293	0.910383491137	0.921765358349	0.883518408302	0.919999884299	0.902449722208	0.890253551605	0.908720578188	0.897158766323	0.880537463046	0.947284943185	0.906906100707	1.0	0.905512567822	0.989437555136	0.980188729322	0.962562025336	0.90378364933	0.936675168735	0.901955844762	0.933148243599	0.913294553192	0.921600880474	0.933835051648	0.888352158745	0.870071365646	0.922116732587	0.988144074102	0.978263919435	0.93340612805	0.981116550482	0.988706574302	0.91755874192	0.933625505781	0.890140718614	0.909834735354	0.942717617882	0.940222618122	0.953027021055	0.930056487036	0.955888811407	0.933678313485	0.946243631555	0.933686682003	0.945598827497	0.963768994743	0.923660743908	0.98554563793	0.890239216283	0.883568482496	0.910366159897	0.866706514842	0.894319526587	0.91303477507	0.894537147983	0.882952200476	0.988176936919	0.891662075844	0.95810463295	0.970622754654	0.888102635574	0.911120250357	1.0	1.0	0.867301803334	0.881324072616	0.889136930775	0.895229885679	0.984838623261	0.951847665038	0.939766280763	0.959265223288	0.938306045492	0.968543227406	1.0	0.911785207882	0.915718097654	0.967597703656	0.938073230058	0.947268082601	1.0	0.95063808797	0.946207646624	0.86701460328	0.960672490682	0.950226724268	0.975528092119	0.983582102045	0.951761835027	0.898844887562	0.972319824655	0.975667169423	0.949687657496	0.906675813399	0.935888186715	0.901981715792	0.911288901026	0.895750346395	0.973737604408	0.934983482967	0.871049923726	0.966835562521	0.898067603643	0.901790287166	0.988734468631	0.92331124727	0.951311604275	0.982714304343	0.911390269837	0.948781625191	0.923328050152	0.976944798893	0.966836875062	0.97815062397	0.97678459613	0.935942064625	0.97198264821	0.970601261656	0.894524919711	0.907342379613	0.971615716409	0.943628029896	0.934172656207	0.918815889008	0.911099588649	0.977152405
DD118	0.516978003059	0.605237633366	0.593823833053	0.522746967684	0.591793005911	0.674970703704	0.60544836723	0.66084522544	0.630182911945	0.5289573329	0.569585268132	0.614026987107	0.606865977304	0.0	0.59257964186	0.425178457868	0.681519792033	0.6261785936	0.67809892208	0.558631653278	0.605027049782	0.676548423101	0.574869569479	0.444098705056	0.467710595226	0.577005029769	0.661381610734	0.531254893945	0.594601710367	0.579489177046	0.454885844949	0.670229310796	0.697171391567	0.74801030105	0.616186886916	0.589346192132	0.629428397617	0.637438716002	0.572809954028	0.693436898686	0.66927220551	0.616221932641	0.611033108919	0.598779621831	0.520797396941	0.575984489966	0.673098175376	0.582593714872	0.565911504539	0.582802035414	0.624087316142	0.53781058158	0.515537703227	0.636671864987	0.60638431956	0.600599533745	0.635158479912	0.470851805898	0.603279881559	0.613348759943	0.615526548072	0.685847847895	0.602749041565	0.596132070395	0.65841484726	0.51605496947	0.534440774768	0.59791985766	0.638272282574	0.6608980736	0.622382168454	0.599950058241	0.669590889068	0.609703542794	0.613657602186	0.595002357676	0.591614226583	0.670601194222	0.719977657635	0.607612135472	0.632675077388	0.622373571352	0.571356564094	0.585347316632	0.591429444925	0.519224369018	0.596446369585	0.628833656303	0.589494125357	0.651271365963	0.506943840298	0.621605695481	0.583193997726	0.598455145804	0.651396078395	0.612414489924	0.69310714127	0.608798962107	0.636143299241	0.750468492846	0.613372039171	0.531764668738	0.690370464656	0.624507767463	0.603868281512	0.619504413005	0.610720876003	0.624391907828	0.669486005621	0.589993712198	0.643259292719	0.62153555069	0.624347766179	0.653262259531	0.690566777533	0.458916107706	0.957308675745	0.969452744099	0.977955856999	0.963119462713	0.958487798636	0.950610325906	0.954385099651	0.946033769382	0.950449434793	0.96483115879	0.942166335489	0.963100478938	0.936407495807	0.931331675678	0.967747345119	0.945369780874	0.944074433285	0.938165351685	0.930598318982	0.942912827884	0.847795454578	0.96040094743	0.953438869026	0.949365353091	0.946693629963	0.905630326674	0.835295373933	0.820756586281	0.947858362333	0.933005280913	0.948921684016	0.844734296024	0.928504568517	0.956285647988	0.944114049044	0.952203303021	0.970465567035	0.94769524104	0.915483798161	0.964881062424	0.908674909792	0.961040223114	0.967318302823	0.958055472826	0.962545200153	0.944031266391	0.948307334746	0.963651176939	0.948588511801	0.961548084598	0.955230327015	0.944310852767	0.967758173906	0.959845859275	0.954867255165	0.950089690622	0.679466565241	0.636854849302	0.604972423651	0.57441115559	0.577713720432	0.605735489594	0.57693414367	0.595291448305	0.585974021667	0.625752984303	0.611452686225	0.604805867411	0.810382841998	0.681354015661	0.548013454467	0.603360770438	0.58452463777	0.607716315683	0.597950756961	0.646101609807	0.602446818299	0.679414598239	0.677954848089	0.635444135531	0.662439286192	0.657486228342	0.607688755617	0.672402547761	0.592214352386	0.605371437138	0.653386390173	0.619474429922	0.591368944612	0.504674884169	0.618801770864	0.63321451384	0.63977945799	0.635574246561	0.666940264027	0.484019846116	0.680761415619	0.50992084222	0.607483226882	0.635578104224	0.660244153796	0.607008417364	0.549613074115	0.599551158715	0.670563501748	0.605594118767	0.622861455116	0.630575495565	0.680425035026	0.667083659351	0.580092557307	0.588852343453	0.615981542889	0.631416164972	0.599865385678	0.613389473693	0.596872600523	0.640103387465	0.587175889802	0.673929948739	0.626143083409	0.577082682016	0.642400466998	0.638202767713	0.593508251716	0.582788000015	0.588996265953	0.594018527025	0.634773159986	0.59833908986	0.60987223771	0.616986394518	0.628440407369	0.610965667711	0.658651593232	0.64832960374	0.650218238454	0.613097423547	0.586538836199	0.590960587407	0.610470143273	0.616259652313	0.602774646868	0.597513253419	0.61467225099	0.647953158637	0.554953643437	0.533374827934	0.67265874706	0.619661223258	0.584015175007	0.601507198626	0.677473192725	0.669897187022	0.634318824715	0.611083511587	0.611558248768	0.625630132671	0.645701729437	0.618654725863	0.594625366334	0.611075060848	0.609343063894	0.619071471061	0.600102765921	0.627558259695	0.473173253181	0.587826271207	0.670256547379	0.503706569404	0.584066949925	0.614827069238	0.599861253715	0.669064785562	0.643889729939	0.553094574244	0.912419188212	0.873240497068	0.987759558321	0.896693741011	0.972852283915	0.89837716669	1.0	0.983395171692	0.97714146259	0.859783384273	0.870881046711	1.0	0.864156260386	0.945428000739	0.958810746963	0.982326877654	0.941104850361	0.914106582964	0.972017395852	0.962366242229	0.949569143094	0.897173530276	0.937915882982	0.973710870662	0.974306047147	0.873809978812	0.933196445576	0.94065101964	0.941527856607	0.963860112929	0.939114767803	0.926374688119	0.897052626075	0.958926166193	0.927098812974	0.953432648145	0.927542973627	0.951249630493	0.955229822134	0.970360640546	0.950472500959	0.906407244679	0.929620541987	0.919891990158	0.940997224132	0.972275534787	0.927421527232	0.912532391044	0.946945358965	0.914091664224	0.931282456524	0.894575481661	0.918837768595	0.919582543498	0.891593059754	0.926582991812	0.909033988562	0.89557499299	0.944740783171	0.924140753286	1.0	0.908673224209	0.988315808321	0.978792961462	0.967489669472	0.914020843595	0.934515868702	0.907465146224	0.93828598487	0.922340974274	0.914928989293	0.936339926852	0.897136610534	0.884558472157	0.924475558825	0.986637675824	0.978096111317	0.94478844639	0.980236574345	0.989019466802	0.930101470483	0.939875257437	0.900989800986	0.918256333009	0.950964762622	0.947653736636	0.948895069146	0.940618400777	0.955689404394	0.932923795813	0.953680519995	0.941835940484	0.945360393026	0.963937842545	0.933211527883	0.983902890017	0.898635817629	0.895429958286	0.913387004817	0.878260290695	0.900430586249	0.919126952581	0.894403525897	0.895704336703	0.988119365061	0.917039920233	0.958630268268	0.970731968076	0.896458184591	0.922025874224	1.0	1.0	0.887971751371	0.895114296897	0.899456069656	0.901565531135	0.993304398228	0.956299558611	0.944322966217	0.954832008592	0.939707032998	0.966777443637	1.0	0.921205151369	0.925045216476	0.968662025824	0.933907015837	0.945383959198	1.0	0.949454862805	0.952582797555	0.881401047648	0.955370622172	0.957690092716	0.975296926081	0.982331500197	0.949517525502	0.90900619652	0.971656740661	0.97545934798	0.948315603003	0.918212671276	0.946635957822	0.916750341175	0.920680831992	0.902132133035	0.973609227777	0.9361056599	0.875370955911	0.968960690699	0.903757568237	0.913792364129	0.988804823903	0.917795924629	0.960706220504	0.983319064785	0.922546562372	0.949209907323	0.934775324874	0.976832099767	0.96784309334	0.978552217632	0.977018665115	0.936847416034	0.974002003273	0.969496295968	0.905996085221	0.919585441707	0.969810102353	0.948988835709	0.941352999522	0.923402180056	0.91952034977	0.976989706631
