	DD10	DD102	DD104	DD106	DD107	DD108	DD110	DD111	DD112	DD113	DD114	DD115	DD116	DD118	DD119	DD12	DD120	DD121	DD122	DD123	DD125	DD128	DD129	DD13	DD130	DD132	DD133	DD134	DD135	DD136	DD137	DD138	DD139	DD14	DD140	DD141	DD144	DD145	DD146	DD147	DD148	DD149	DD15	DD150	DD151	DD152	DD153	DD154	DD155	DD157	DD160	DD161	DD162	DD164	DD167	DD168	DD169	DD17	DD18	DD2	DD20	DD21	DD22	DD23	DD24	DD25	DD27	DD28	DD29	DD3	DD30	DD31	DD32	DD33	DD34	DD36	DD38	DD39	DD4	DD42	DD43	DD44	DD47	DD48	DD5	DD53	DD58	DD59	DD6	DD60	DD61	DD63	DD64	DD65	DD67	DD68	DD7	DD70	DD71	DD72	DD79	DD8	DD80	DD81	DD82	DD83	DD84	DD85	DD86	DD87	DD89	DD90	DD93	DD96	DD97	DD98	DIET1	DIET10	DIET11	DIET12	DIET13	DIET14	DIET15	DIET16	DIET17	DIET18	DIET19	DIET2	DIET20	DIET21	DIET22	DIET23	DIET24	DIET25	DIET26	DIET27	DIET28	DIET29	DIET3	DIET30	DIET31	DIET32	DIET33	DIET34	DIET35	DIET36	DIET37	DIET38	DIET39	DIET4	DIET40	DIET41	DIET42	DIET43	DIET44	DIET45	DIET46	DIET47	DIET48	DIET49	DIET5	DIET50	DIET51	DIET52	DIET53	DIET54	DIET55	DIET56	DIET6	DIET7	DIET8	DIET9	ID100	ID103	ID104	ID106	ID109	ID110	ID112	ID113	ID115	ID117	ID120	ID123	ID124	ID125	ID127	ID128	ID129	ID131	ID132	ID133	ID134	ID135	ID136	ID138	ID140	ID153	ID155	ID156	ID16	ID167	ID17	ID18	ID188	ID205	ID209	ID21	ID210	ID211	ID214	ID216	ID217	ID220	ID221	ID225	ID230	ID231	ID235	ID237	ID238	ID239	ID240	ID241	ID25	ID254	ID255	ID256	ID257	ID258	ID259	ID260	ID261	ID262	ID263	ID264	ID265	ID266	ID27	ID28	ID29	ID3	ID30	ID31	ID32	ID33	ID34	ID35	ID36	ID37	ID38	ID39	ID4	ID40	ID42	ID43	ID44	ID45	ID46	ID47	ID49	ID5	ID50	ID51	ID52	ID53	ID54	ID55	ID56	ID57	ID58	ID59	ID6	ID60	ID61	ID63	ID64	ID7	ID8	ID83	ID85	ID86	ID87	ID89	ID9	ID90	ID91	ID92	ID95	ID97	ID98	ID99	ITS3.DD10	ITS3.DD102	ITS3.DD105	ITS3.DD107	ITS3.DD108	ITS3.DD110	ITS3.DD111	ITS3.DD112	ITS3.DD113	ITS3.DD115	ITS3.DD116	ITS3.DD118	ITS3.DD119	ITS3.DD12	ITS3.DD120	ITS3.DD121	ITS3.DD122	ITS3.DD123	ITS3.DD124	ITS3.DD125	ITS3.DD129	ITS3.DD13	ITS3.DD130	ITS3.DD132	ITS3.DD134	ITS3.DD136	ITS3.DD137	ITS3.DD138	ITS3.DD139	ITS3.DD14	ITS3.DD140	ITS3.DD141	ITS3.DD143	ITS3.DD144	ITS3.DD146	ITS3.DD148	ITS3.DD149	ITS3.DD15	ITS3.DD151	ITS3.DD153	ITS3.DD155	ITS3.DD17	ITS3.DD18	ITS3.DD20	ITS3.DD21	ITS3.DD22	ITS3.DD23	ITS3.DD24	ITS3.DD25	ITS3.DD27	ITS3.DD28	ITS3.DD29	ITS3.DD3	ITS3.DD30	ITS3.DD31	ITS3.DD32	ITS3.DD33	ITS3.DD34	ITS3.DD36	ITS3.DD38	ITS3.DD39	ITS3.DD4	ITS3.DD41	ITS3.DD42	ITS3.DD43	ITS3.DD44	ITS3.DD45	ITS3.DD46	ITS3.DD47	ITS3.DD48	ITS3.DD5	ITS3.DD51	ITS3.DD53	ITS3.DD58	ITS3.DD59	ITS3.DD6	ITS3.DD60	ITS3.DD61	ITS3.DD63	ITS3.DD64	ITS3.DD65	ITS3.DD67	ITS3.DD68	ITS3.DD7	ITS3.DD70	ITS3.DD75	ITS3.DD77	ITS3.DD79	ITS3.DD80	ITS3.DD84	ITS3.DD85	ITS3.DD86	ITS3.DD87	ITS3.DD89	ITS3.DD90	ITS3.DD92	ITS3.DD96	ITS3.DD98	ITS3.DD99	ITS3.DIET14	ITS3.DIET16	ITS3.DIET18	ITS3.DIET20	ITS3.DIET22	ITS3.DIET25	ITS3.DIET31	ITS3.DIET34	ITS3.DIET37	ITS3.DIET4	ITS3.DIET43	ITS3.DIET49	ITS3.DIET52	ITS3.DIET54	ITS3.DIET56	ITS3.DIET6	ITS3.DIET8	ITS3.ID100	ITS3.ID103	ITS3.ID104	ITS3.ID106	ITS3.ID109	ITS3.ID110	ITS3.ID112	ITS3.ID113	ITS3.ID115	ITS3.ID117	ITS3.ID119	ITS3.ID124	ITS3.ID125	ITS3.ID126	ITS3.ID127	ITS3.ID128	ITS3.ID129	ITS3.ID131	ITS3.ID132	ITS3.ID133	ITS3.ID134	ITS3.ID135	ITS3.ID136	ITS3.ID138	ITS3.ID140	ITS3.ID145	ITS3.ID162	ITS3.ID170	ITS3.ID177	ITS3.ID191	ITS3.ID199	ITS3.ID201	ITS3.ID207	ITS3.ID209	ITS3.ID214	ITS3.ID217	ITS3.ID220	ITS3.ID221	ITS3.ID223	ITS3.ID231	ITS3.ID246	ITS3.ID256	ITS3.ID43	ITS3.ID47	ITS3.ID55	ITS3.ID56	ITS3.ID8	ITS3.ID83	ITS3.ID85	ITS3.ID86	ITS3.ID87	ITS3.ID89	ITS3.ID90	ITS3.ID92	ITS3.ID95	ITS3.ID97	ITS3.ID98	ITS3.ID99
DD10	0.0	0.173344733681	0.196069114551	0.166386431851	0.306538324402	0.460933855013	0.221261442685	0.320177589034	0.279189574828	0.24346663123	0.143632226607	0.175903286145	0.267347032968	0.128850172352	0.237611330728	0.198731440471	0.452916518959	0.545085576603	0.442527009477	0.211677703386	0.226144482142	0.433454037328	0.232778383114	0.140233639256	0.192470277501	0.231213899937	0.280934751443	0.216242245021	0.334220844048	0.282489098999	0.254641170172	0.201828709991	0.421006720372	0.645045157733	0.198769498897	0.387848351848	0.3954798104	0.26663394991	0.193879960855	0.499896898653	0.687145969424	0.399164350167	0.23644039297	0.302723976515	0.148608041834	0.351414977947	0.654286553831	0.182891996529	0.197610692904	0.239958819494	0.370548668211	0.27904294804	0.186504649507	0.383808339838	0.327351697654	0.320453844014	0.30130650332	0.262785872349	0.207262889585	0.200791341592	0.233494717816	0.5619341245	0.152929233081	0.271706268318	0.618300005843	0.246838452029	0.206128335852	0.251905264295	0.32078478602	0.413809490405	0.250685929813	0.276332605559	0.452412075162	0.307216294344	0.320009447384	0.343542761856	0.257293109442	0.487564186786	0.502848181787	0.277257009889	0.422526938088	0.217503254496	0.243956631231	0.188039365436	0.309267390227	0.334794366268	0.322783728036	0.441532819344	0.185957702926	0.621929113137	0.258280512217	0.268451419421	0.153115864917	0.243216910347	0.321168125624	0.398421816172	0.468361033987	0.197163635243	0.18384917105	0.255601095348	0.269107600313	0.146709319767	0.261638083617	0.373490761828	0.222103487827	0.142867492086	0.20785920308	0.256656227724	0.390832114084	0.264599310163	0.227539548132	0.305706595729	0.157895630246	0.151364997099	0.541114723584	0.193968107193	1.13805672502	1.19355857166	1.13530904124	1.14004659424	1.1797724085	1.18553899617	1.04188904261	1.0305848639	1.11258842892	1.11293183191	1.06507850556	1.13853649474	1.00646998181	1.00332977366	1.00774245124	0.928851599712	0.927161795953	0.923539504719	0.959853101795	0.959102925503	0.954905013274	0.998966230417	1.11085100125	0.990190475586	0.975714042407	0.976089217025	0.95716513834	0.959680369905	0.984926388464	0.989693882881	0.979498203821	1.05179884375	1.05340895275	1.10854155423	1.05267546083	0.993200108422	0.99924591257	0.976273985647	1.04450058237	1.04003174733	1.04062227344	0.944102900942	0.943094451777	0.943020214901	1.12462787278	1.03641782732	1.04962367336	1.03692921377	1.11423784506	1.11266876332	1.14069240331	1.14247147804	1.12997080761	0.985573972858	0.994315506258	1.2012557838	0.279585644328	0.454377540123	0.176885613257	0.303926927799	0.424016476028	0.216580185566	0.207073290679	0.286553111035	0.235877241203	0.302478485681	0.179559799556	0.297213403646	0.543044843127	0.61866760119	0.177307537602	0.243385680723	0.216153493054	0.234486272548	0.516617103952	0.311821878484	0.38249789357	0.439719633832	0.452129828434	0.382525534484	0.689312569285	0.195961629653	0.271289816647	0.628535304087	0.182659067226	0.163408251576	0.403108227493	0.22589688636	0.241853125551	0.152098241911	0.235696617666	0.291143939077	0.158245717746	0.212893028246	0.16257732148	0.202260986348	0.247908686379	0.235274440374	0.211083590861	0.303345312624	0.560836462119	0.373158713816	0.183312483781	0.265382944408	0.551195372714	0.27450099298	0.289467170616	0.260505716557	0.333149329417	0.260437944814	0.194700846772	0.260547307304	0.369349360108	0.475188059678	0.259399922617	0.291514805821	0.256597841648	0.197583257012	0.270312704302	0.252603693287	0.369190359768	0.142753619638	0.22961856945	0.491903963277	0.18060650778	0.318753319423	0.274111118302	0.215171067098	0.231733792246	0.293116272427	0.180469953484	0.202180617911	0.287829367805	0.263470041502	0.211446983688	0.225233492256	0.502975241683	0.314117196831	0.17958788698	0.435622976452	0.268910151571	0.202315760682	0.20977126041	0.191160794797	0.255942252199	0.251278247484	0.10563566422	0.182764402772	0.225409141288	0.216912547715	0.21241001085	0.16504249984	0.310292594376	0.288407716328	0.318833345229	0.193032220776	0.221349311251	0.247694107364	0.44712162211	0.279935278523	0.290738767191	0.304441517588	0.196689484651	0.18173873666	0.186796873567	0.277420153044	0.215097556056	0.295978853402	0.442131461311	0.161786639281	0.256221579017	0.306659822282	0.23065343561	0.624265150528	0.210960474446	0.119027544732	0.445659835712	0.42266815908	0.832418280216	0.43446819831	0.709641399333	0.437517729069	1.0	0.789677617859	0.708693537106	0.423005490933	0.42999146752	1.0	0.422941355545	0.464238104852	0.526241435603	0.837815117859	0.50855140403	0.440583583288	0.490362682696	0.426965164673	0.497202727051	0.468188520337	0.475039210825	0.629899452951	0.632582344335	0.437954657045	0.454855036567	0.538022206648	0.486227972477	0.533132306718	0.405142566527	0.472567153005	0.43160178466	0.602617448112	0.415509939057	0.480312090091	0.449286607093	0.445874676631	0.396557677545	0.589840087366	0.536977267641	0.499879682361	0.525478275127	0.468911349778	0.559626140789	0.660134630449	0.452203482558	0.427966543827	0.440446792918	0.471825315902	0.479075502966	0.462435670041	0.376235241276	0.436621000348	0.446125369207	0.477928038118	0.465217805727	0.475206226346	0.493005227354	0.473808204628	1.0	0.433706344794	0.982407933916	0.771991964198	0.495210768213	0.481392741517	0.486503157953	0.455672340936	0.421848455372	0.440477493328	0.43917840835	0.50455753497	0.432141926945	0.445630088772	0.441138293887	1.03962560546	0.609752109183	0.533971626665	0.700102901214	0.881737221655	0.462798565386	0.551408942298	0.418615433326	0.468956651873	0.493560581245	0.494504532745	0.470171470374	0.475267281955	0.538327280443	0.436986698595	0.541191733526	0.425798377038	0.506695778779	0.555089042878	0.436969410797	0.855805631167	0.405013188917	0.45886097282	0.401301943074	0.44073364227	0.429649918463	0.472152121452	0.443766007989	0.44168287356	1.00288880458	0.458649915186	0.474612993547	0.700413984821	0.446870534429	0.432524295412	1.0	1.0	0.434982013661	0.469405916201	0.477292032997	0.453780662893	1.16987135609	0.636266030018	0.4941316269	0.524674689804	0.471320931156	0.569447712641	1.0	0.465598098929	0.52651755641	0.493846342293	0.479206184249	0.446390598281	1.0	0.474091112393	0.569444844773	0.444362134432	0.629715696504	0.431440860081	0.559364330649	0.818946648898	0.436338198556	0.439968421294	0.667024741328	0.625000998828	0.586097450174	0.447079305515	0.517389108257	0.447638728131	0.448497390855	0.461666652771	0.672293935957	0.450600407773	0.452373743629	0.520556681222	0.451979635865	0.458536010062	0.841770109259	0.435931508809	0.729559249352	0.807767617859	0.461948688508	0.392069374801	0.424849744386	0.701004184719	0.459326730936	0.633355317663	0.60511638974	0.479011819853	0.543476648709	0.630573151866	0.402110879183	0.444901848436	0.654951802578	0.532030744361	0.593464813061	0.485891655784	0.441652832712	0.964025609807
DD102	0.173344733681	0.0	0.219243058563	0.241474222006	0.252818701533	0.479455664128	0.271811900116	0.248197130283	0.245026465081	0.305812545354	0.0867993527526	0.251896282232	0.327923608347	0.152782523129	0.298917638838	0.161377404776	0.476630098994	0.594361494852	0.404358201881	0.259916038192	0.119058171862	0.411397672169	0.226985585178	0.152545198746	0.166137309612	0.278729243524	0.216038576072	0.284782180166	0.39895877996	0.322334869504	0.231419878256	0.199083852731	0.474393718757	0.667757582452	0.263645040432	0.456557201571	0.338759834686	0.216408456902	0.23720623592	0.50918838256	0.65878042675	0.451340450547	0.275829142174	0.254906658895	0.194531926227	0.25444911001	0.627004759588	0.131319252036	0.101207498534	0.300455240466	0.43056518377	0.314277753025	0.222274174947	0.308290880334	0.380538547064	0.388852715773	0.273961736461	0.326471856644	0.0941370446613	0.250810451213	0.113848924475	0.528396712009	0.119777685181	0.21559849849	0.648713257508	0.313498294955	0.317210123539	0.272539589336	0.283134478701	0.36659197947	0.312120570094	0.30209970796	0.422414687025	0.25960408661	0.295414148783	0.241898710363	0.31338314722	0.464100062232	0.429891925977	0.318426274077	0.390683955252	0.157531452351	0.153844664253	0.240675578383	0.362132777761	0.246036427025	0.228052414809	0.366901212656	0.10192853071	0.573503336103	0.206782139809	0.210304065183	0.21784385343	0.233948174955	0.291503512272	0.452573342387	0.447020802975	0.226970042008	0.236186281939	0.244815969005	0.233323268218	0.217399776662	0.227821939087	0.405958849788	0.138749304712	0.21127757831	0.141815271554	0.163166239148	0.294643764843	0.188812440624	0.151733367304	0.221592799331	0.0857688471888	0.143608270682	0.520342585459	0.168044220744	1.16034832673	1.21603547382	1.15750975489	1.1622488297	1.20215671073	1.20777794737	1.09597762026	1.09952286498	1.13243684624	1.13349247779	1.09491665823	1.16092794036	1.01710350361	1.02472004296	1.03084499542	0.952547771046	0.950957726629	0.94702151013	0.982370190147	0.980173069339	0.976844631208	1.04803303785	1.13332171496	1.03867322062	1.02797843912	1.02637666319	1.02196304882	1.02296288559	0.991038998991	0.995843823018	0.985608378111	1.07519805225	1.07677541093	1.13093176933	1.07607411211	0.994746767439	1.0007289017	0.980359380696	1.06819503309	1.06221128683	1.06229604226	0.950716620732	0.949705255644	0.949988695483	1.14823443752	1.06022188649	1.07343771214	1.06070785879	1.13687322717	1.13263381339	1.16312129707	1.16500744386	1.15333124323	1.05359565116	1.06248118647	1.22440656331	0.288348326299	0.37571649972	0.176708887259	0.206505051837	0.360720300417	0.239283761105	0.248153129363	0.284932588327	0.162763023767	0.358097377649	0.126559349197	0.213217033226	0.473100141316	0.582017125702	0.255578434087	0.300426118055	0.211264865827	0.27545479713	0.521575172685	0.349578824422	0.391212009511	0.465203002764	0.488226102801	0.437323686353	0.661454903948	0.209626315245	0.297197899303	0.601887621043	0.161019325542	0.0795130631934	0.400441126982	0.224384802767	0.148096060278	0.225489069659	0.257432049871	0.330482178607	0.177933453847	0.121090043326	0.19403075329	0.144762819512	0.316496156324	0.201125550257	0.218555088019	0.273656398392	0.53533493037	0.331557945071	0.236431324996	0.301063711583	0.5958440442	0.340543539632	0.358542675727	0.191224959559	0.350932898681	0.205102274308	0.204459471082	0.327991752663	0.325787373851	0.522595597782	0.288471803573	0.267484992762	0.319093729821	0.295801321517	0.349910318747	0.224730672772	0.415923763375	0.12334540865	0.218805132979	0.484310803115	0.222061655334	0.278703794413	0.298932697603	0.18836854142	0.206025978371	0.244205921798	0.212451884803	0.177599656671	0.273633918202	0.237771133346	0.208617614619	0.227243105435	0.482460905381	0.248605475757	0.162169659921	0.461325391523	0.213940549361	0.211474270108	0.20236841358	0.188984505926	0.32649630665	0.311423571737	0.153289049673	0.208247556267	0.204168931161	0.193644842554	0.129450874628	0.110187170914	0.394659616464	0.252773808813	0.351075012433	0.301741133893	0.246966688201	0.165587575646	0.481219747796	0.315747090829	0.35077674083	0.364861755656	0.170135518361	0.211434895979	0.154657941627	0.186789189157	0.178518343592	0.243751422536	0.429531961468	0.146964488802	0.185546742689	0.285611663259	0.289371752658	0.596478200188	0.245589079258	0.135410120968	0.456984518521	0.455054227388	0.8652831229	0.464636722654	0.697262073745	0.473722092545	1.0	0.769667226352	0.735500969691	0.450241980647	0.460485573341	1.0	0.455628628567	0.532252155246	0.510307019843	0.817804726352	0.532225084886	0.425531307389	0.4768703557	0.447666980176	0.523899484014	0.501485735985	0.460674884629	0.550676893392	0.611252765163	0.472563211072	0.445340841318	0.571258520008	0.478552930003	0.517800907749	0.443515983926	0.476040806833	0.461509135978	0.67478999027	0.388548547534	0.471988375081	0.485062486422	0.500159163447	0.422121160778	0.624418308726	0.574856976146	0.529904408347	0.595635059618	0.523402552138	0.599744822891	0.700350106235	0.495017082895	0.488010499141	0.49094897277	0.526364679109	0.497264018167	0.512202081105	0.385133019686	0.498306088944	0.504604673607	0.52488225581	0.516703197287	0.531297039324	0.567868195109	0.538332311217	1.0	0.503824111543	1.00583431321	0.761327282863	0.567165438686	0.527791346604	0.534872856308	0.527789667447	0.482605562898	0.500837805932	0.479168245269	0.539537984393	0.505457963649	0.498755738047	0.437947310766	1.09591081458	0.643052280487	0.588860813511	0.65466309439	0.914861274819	0.533513011531	0.583684006905	0.49458350496	0.494318149075	0.536955644283	0.477411552944	0.451595898585	0.50945996374	0.518499194413	0.454386443197	0.578269985185	0.459132422922	0.534484713264	0.536234045681	0.437515902792	0.887086901198	0.438706636119	0.484795018474	0.42889771189	0.504868242713	0.49098859332	0.549632687603	0.517607197454	0.499399208613	1.03680838917	0.534545517986	0.539912408967	0.734628913298	0.499953352861	0.456222359485	1.0	1.0	0.491925725753	0.542772803456	0.51843936266	0.525261735539	1.1859593463	0.66270980484	0.478876454918	0.5076931615	0.513461093236	0.556146009392	1.0	0.4753104482	0.547429213199	0.525975229271	0.464754252113	0.482507601705	1.0	0.50743911618	0.599947052142	0.472320101265	0.668127932821	0.458520314632	0.583117838306	0.798927226352	0.423323410938	0.467222216031	0.707652080236	0.656082666735	0.5723341427	0.496926865821	0.538817564601	0.515339496614	0.481967039707	0.506956032991	0.592758021586	0.523442948489	0.509059253738	0.555422599226	0.498013125203	0.476129438303	0.875042488545	0.455474547746	0.805999656779	0.787757226352	0.506344612647	0.413148716526	0.439739626863	0.619870068221	0.401714790755	0.613359726352	0.637638369311	0.511114711764	0.574900558837	0.61181684282	0.396924676552	0.468459547908	0.634928784917	0.515296554168	0.618162306915	0.471927197987	0.467569922158	0.977716425517
DD104	0.196069114551	0.219243058563	0.0	0.19645062657	0.376242488739	0.391233405158	0.299506248682	0.382712787913	0.333376884252	0.278311114511	0.151937405077	0.208631306682	0.271010536108	0.218590408814	0.251398700225	0.266106304427	0.552808167462	0.495659449282	0.479446874875	0.2361003222	0.265528199324	0.461241632742	0.321354794174	0.204352930593	0.277796172163	0.277554347758	0.351582784009	0.212217909362	0.322164443623	0.343128319659	0.339224268692	0.273687151114	0.481670415587	0.743082692014	0.186570945926	0.353853530232	0.46507671908	0.327291079726	0.279462247809	0.59303611558	0.737313838714	0.425096389121	0.330249453971	0.364354369785	0.204967142962	0.419308972406	0.707485953201	0.182446693784	0.249993670312	0.260528523679	0.326074265081	0.318769022573	0.265291103483	0.422449390488	0.280907613061	0.295888334184	0.379114889718	0.22412564935	0.275516637232	0.21665139857	0.268774070741	0.607804184122	0.209464889018	0.338009708479	0.524115050794	0.241687689244	0.268834466748	0.327572979035	0.379591497797	0.470282233164	0.261960362247	0.354956216685	0.470772857597	0.37393193086	0.404720153439	0.422631985589	0.261654512516	0.532679923491	0.551838148433	0.352401842923	0.501313897894	0.237094268171	0.320062096265	0.291157365648	0.261405449815	0.403711052615	0.386463447854	0.49217664463	0.24526658388	0.663566286807	0.322239324464	0.33753316171	0.216409111584	0.336411989709	0.403900858313	0.351718779634	0.533643241074	0.254813994817	0.218184466428	0.334594067834	0.334467192891	0.278645873614	0.311341458597	0.24350480004	0.219775977704	0.144967054444	0.199377510777	0.273155559613	0.450849363669	0.268093418355	0.263059737015	0.333094266943	0.213534222583	0.161904741828	0.603439406741	0.273739905408	1.14691866728	1.20272579544	1.14426212004	1.14900306027	1.18781548473	1.19451751865	1.07825075523	1.08180784978	1.11912069033	1.11972428848	1.08964206506	1.14732601646	1.02879787176	0.983372858501	0.989483874385	0.911163550752	0.909382361691	0.906003678245	0.9414670378	0.939305752788	0.935907129179	1.03077230083	1.1200328738	1.02155605033	1.01031122639	0.983257103604	0.979694537327	0.980725045583	0.964327238102	0.969128188609	0.958898914304	1.0340259053	1.03561259602	1.11766867494	1.03488490311	0.989195300045	0.99517979085	0.975633218622	1.02680959215	1.02085046588	1.0209332302	0.924010711409	0.922999677201	0.923037762556	1.13607523753	1.01905201065	1.03227694813	1.01954269817	1.12255328925	1.11932779622	1.14986722355	1.15169325462	1.14092161912	1.03562965776	1.04451518321	1.21108420128	0.390416493253	0.508704527329	0.0998806569894	0.32330072541	0.481781291648	0.306646079439	0.329747774393	0.399769963901	0.265776636717	0.40219016134	0.195231515199	0.32910887676	0.589410474283	0.655124914688	0.198044356723	0.258603327282	0.161354251157	0.148540886113	0.368213873377	0.252033012448	0.298524484991	0.401711032774	0.377555034086	0.440887828526	0.735879520906	0.252527540793	0.14136567263	0.677997808851	0.239423176091	0.211302892445	0.473530357886	0.347384668967	0.282348406079	0.217939726886	0.338000463548	0.38614715051	0.238756858986	0.236526487271	0.227779963666	0.277162780938	0.311403224317	0.327532314675	0.299147211456	0.380596974623	0.607486674935	0.418198377527	0.291675839784	0.318155011037	0.475012773966	0.297463986659	0.315882840593	0.293475106659	0.442344500781	0.344234700282	0.295982707852	0.226406875828	0.41367254841	0.445104514268	0.346884978644	0.377755587436	0.228130165148	0.272212334288	0.22474116748	0.318352411507	0.396611517222	0.174146443246	0.325348415505	0.568342918191	0.297255064214	0.414558846468	0.207485741517	0.245902871301	0.306174784816	0.371676542445	0.252834565576	0.268129524279	0.362948472887	0.342221512135	0.26532258935	0.295026228041	0.554639174641	0.339792149395	0.157280638052	0.291423920841	0.365790144626	0.304492397266	0.279043433122	0.0745069115527	0.277005021128	0.28808020015	0.22169875682	0.299986339171	0.294984410767	0.23530538087	0.230457843301	0.195236204638	0.272360991869	0.360045266292	0.390862656742	0.236871518391	0.243026179808	0.303342409951	0.501131392183	0.312926018278	0.272952882624	0.26950815307	0.215862178755	0.248665187847	0.254810624447	0.334476270202	0.291435485784	0.380447372849	0.49434114176	0.213717224454	0.287430713973	0.376446825433	0.232877215028	0.667170335881	0.270691930799	0.250996573217	0.529383176455	0.468826189812	0.773960371901	0.492198466728	0.764507178419	0.466952645295	1.0	0.838313336444	0.705425390785	0.473020129151	0.471560163304	1.0	0.462714575818	0.544353945202	0.579703330612	0.886450836444	0.495660082956	0.501814407936	0.540502637741	0.470983699424	0.488779300472	0.481653759278	0.535287266033	0.662679235759	0.685674947792	0.461393458166	0.509672970587	0.517487672128	0.525480105453	0.587636681552	0.433070875937	0.529263454233	0.487827885897	0.607719664756	0.464664935662	0.542812287316	0.436418052125	0.496356958706	0.386678901959	0.577962528659	0.486829178219	0.507288315116	0.546104887688	0.516654783582	0.513813268696	0.594033542833	0.450961247667	0.533079088376	0.510511589787	0.504414912287	0.565637458471	0.482406233562	0.45512524589	0.492050296737	0.484280432768	0.493339772986	0.49362105721	0.494811305156	0.493737349374	0.511168620932	1.0	0.481735770994	0.964982386697	0.827060012663	0.524391797447	0.525705960295	0.496204803655	0.504496317539	0.471446099842	0.510440882118	0.48962188189	0.612569495616	0.496393982638	0.49477753625	0.514609372167	1.07888690816	0.553072708833	0.554193606218	0.750984192215	0.824897534657	0.51661933432	0.657729788723	0.462092874343	0.557571299348	0.542759894028	0.552620898705	0.493551173782	0.446341087636	0.590516775304	0.502189950013	0.532919021994	0.388099335786	0.551636669118	0.607034533142	0.493445504532	0.834701386297	0.456026813501	0.504126368746	0.422213111652	0.502065424221	0.501314161769	0.517105598063	0.493493006503	0.487448753402	0.943508731672	0.513484990861	0.521499016826	0.660358744335	0.483143146397	0.532767641238	1.0	1.0	0.470153535356	0.504715777771	0.503906994747	0.499354990003	1.1691793635	0.621299006709	0.539209819381	0.580548896961	0.497073602436	0.624353990897	1.0	0.525892211161	0.516576544765	0.449695938639	0.535771889728	0.463994199531	1.0	0.420106287164	0.544817947881	0.471368234049	0.579347652469	0.407669718075	0.568452703279	0.867573336444	0.468745501788	0.485999768583	0.607594339795	0.604938095397	0.65377865658	0.46024603684	0.606446353343	0.48464882874	0.511203162101	0.526959160845	0.714094779392	0.522626703975	0.489434692417	0.475146653026	0.485215303748	0.500864194215	0.78405216409	0.530947330614	0.752739454658	0.856403336444	0.446946965668	0.473505956888	0.487098761552	0.742894996001	0.497873373577	0.681993954279	0.547221172576	0.475422564393	0.516203155381	0.687595048654	0.464473230432	0.474870012092	0.706948084733	0.588825958855	0.590129406447	0.540294243567	0.481632937644	0.894052022127
DD106	0.166386431851	0.241474222006	0.19645062657	0.0	0.380094375404	0.37672598795	0.183594988776	0.393831105016	0.347508235871	0.165284075243	0.182457048385	0.119491175051	0.215472482948	0.180927720197	0.200267363781	0.260049060676	0.530354692894	0.476197110277	0.445075491961	0.103117147975	0.296534930669	0.41990240926	0.308304373462	0.191449501402	0.227013859319	0.203988183153	0.36262230812	0.0882195894049	0.261114032162	0.275597110178	0.309531286758	0.254390693755	0.464476110466	0.728998481371	0.15353852472	0.316527611025	0.47512187496	0.344344444359	0.197629416638	0.573257370017	0.708005028359	0.359121436176	0.295947267988	0.376962817883	0.170976316286	0.422638070507	0.672265996986	0.25556727199	0.259297567927	0.191215812337	0.264659451026	0.241581227486	0.171176334194	0.455233800671	0.223551427017	0.249003268341	0.343354405541	0.181142640604	0.269273074448	0.156019493482	0.29698835142	0.574201856454	0.23074372461	0.34395182461	0.545218286078	0.113967490509	0.179876208522	0.212619216069	0.374232108218	0.486518296176	0.205150946023	0.237384471715	0.442145599837	0.381903989107	0.355934748005	0.422444134053	0.167287548518	0.504698889205	0.577253017401	0.236401138768	0.489590832643	0.278632221819	0.31456881474	0.195441922455	0.208628890421	0.414632337024	0.388392372947	0.504857926625	0.259283141897	0.623854659602	0.331580407871	0.345797549719	0.173651788688	0.29622206369	0.384313381966	0.301788647739	0.507667568357	0.234398656291	0.166435057178	0.290139080668	0.325597621123	0.18726552711	0.314784747467	0.319336909801	0.297402714382	0.243336931803	0.292963198074	0.32254964451	0.458531521055	0.334939839978	0.306237983873	0.375242972867	0.219735149926	0.265893233225	0.560631493752	0.247048591439	1.12384449464	1.17977454261	1.12117339472	1.1259166402	1.16501370205	1.17143268729	1.06746332691	1.07102641035	1.09603507737	1.0966666124	1.07087839064	1.1242449798	0.998688686665	0.965846273458	0.971938305863	0.893959883506	0.892742309307	0.888246733764	0.923716193446	0.92158362562	0.918176208897	1.01925127203	1.09697181566	1.0099019714	0.996682767825	0.978364076517	0.974805779333	0.975838517703	0.94042515697	0.945235743452	0.935010017551	1.01638253183	1.01798366295	1.09458720484	1.01726739729	0.960609581541	0.966330358546	0.950393506631	1.00927623193	1.00330810583	1.00336182108	0.900398327981	0.89923219461	0.900137623092	1.11263864805	1.00142877822	1.014654295	1.00192444164	1.09986500118	1.09624809402	1.1267806242	1.1287729906	1.11771257993	1.02490388736	1.03378780486	1.18853347031	0.409594673942	0.528229339172	0.179690803331	0.365205012443	0.498733447616	0.279615802547	0.236754691185	0.3724413072	0.333634987258	0.323975729272	0.250498655218	0.375142219971	0.61300932677	0.632908052152	0.0785059852108	0.214856840997	0.153412068898	0.184449610799	0.424659441751	0.237853076777	0.28464636957	0.399927567341	0.394991884608	0.370216780908	0.716509637433	0.249880397333	0.235536227296	0.648922856174	0.242908382749	0.22517859068	0.451607511551	0.358255339181	0.305384796528	0.0940493574868	0.259188254111	0.29373556514	0.211849284402	0.274986658727	0.281824662862	0.256587782974	0.289427642688	0.309031284246	0.226331197313	0.358571922407	0.579707321647	0.42708002938	0.170430720583	0.270674873358	0.473104775137	0.201141640555	0.212994472772	0.32342703928	0.40911581845	0.337455069303	0.269891794813	0.204812121305	0.433943971006	0.365415140517	0.281533564621	0.339242595225	0.19145867152	0.204631685388	0.184554597217	0.316447547968	0.34290427903	0.205246707012	0.306483662103	0.542269188321	0.209516121493	0.436970200607	0.215863930898	0.249303455391	0.301627458481	0.350839454948	0.195296313556	0.274547019577	0.400109610444	0.320451866813	0.212492790654	0.228095058299	0.524684850189	0.374814698232	0.180197645871	0.353780304719	0.385593152288	0.271961812055	0.227705301263	0.199842735021	0.179733508188	0.2632440784	0.167820112954	0.234502638561	0.31145506255	0.249367808275	0.277890662788	0.25063370333	0.321143719306	0.358202206179	0.313275604489	0.15287429221	0.217139308595	0.316941241153	0.437778536955	0.253279224592	0.191898696086	0.204437668709	0.239182178389	0.243085281158	0.251614852103	0.356974389002	0.275030077122	0.375880465011	0.461608548791	0.225444965924	0.322390079415	0.327521266085	0.179781085921	0.643173467596	0.203667821056	0.232851967185	0.488872944391	0.412678384418	0.767663915917	0.432763421644	0.717725521814	0.413070413095	1.0	0.799978760601	0.679825555613	0.418221024134	0.413564850609	1.0	0.404236724913	0.507811691431	0.529361549151	0.848116260601	0.476922689734	0.448665657703	0.500756727024	0.421936636622	0.463341698487	0.44735411355	0.482882735073	0.701885757497	0.674838241671	0.407748944378	0.45946044908	0.495295126686	0.490001182703	0.55058794084	0.385679306258	0.475659339822	0.434000811052	0.601889289245	0.408283845778	0.484363953755	0.413200536991	0.459135146607	0.365765905679	0.547640256139	0.46901000946	0.478120633022	0.522973749495	0.479702802807	0.501054066307	0.590191111227	0.425100184218	0.484870030692	0.483455304318	0.47513644936	0.524166368626	0.452842534547	0.412615733424	0.46146497149	0.455739745707	0.477119669619	0.454198037429	0.468050353356	0.479022759726	0.483636435082	1.0	0.460585569165	0.947257237629	0.782169838961	0.518207277983	0.467460817771	0.478041442551	0.473636961205	0.444264503012	0.47052907264	0.444815149109	0.569925983416	0.457790375891	0.452232162535	0.462379413651	1.06780669234	0.546139375791	0.525810540864	0.735602416879	0.818037650242	0.500980921995	0.619742793873	0.438212996905	0.500388943154	0.509376057417	0.502275822808	0.475408908719	0.431384407213	0.548750268571	0.437904020997	0.499786033274	0.371158975134	0.486453826189	0.568849601902	0.419681027095	0.817229495118	0.397594545325	0.448980416821	0.363690237128	0.462445440721	0.457848761005	0.490871664728	0.465262898398	0.455261500583	0.937675586659	0.486553485259	0.520616972027	0.649982715672	0.450557143309	0.485807386571	1.0	1.0	0.437313933059	0.479629746343	0.47415171832	0.473651495149	1.14383533326	0.598808079331	0.501536340665	0.536102334385	0.454504100357	0.579682058716	1.0	0.468019245922	0.489706175947	0.469301231247	0.472408440289	0.427349691058	1.0	0.410878354821	0.521169493494	0.418052184171	0.560998736881	0.386085567797	0.534938672147	0.829243462199	0.443269506401	0.429010831932	0.600109400816	0.586962553896	0.589584780008	0.440994596425	0.564469126082	0.463778078398	0.464279938895	0.480445554645	0.7427029091	0.47567728514	0.457849301004	0.468123963005	0.44419487279	0.461361245457	0.777257874499	0.473892149435	0.74521246679	0.818068760601	0.426112936457	0.440385754127	0.429271028012	0.78006339872	0.519430070763	0.643674899709	0.540321997763	0.443637181235	0.50320747793	0.660086668921	0.408976769492	0.427800923976	0.666079647918	0.541038179674	0.556522631194	0.493573257105	0.430181837945	0.880232169988
DD107	0.306538324402	0.252818701533	0.376242488739	0.380094375404	0.0	0.650454441991	0.383533832088	0.175773422211	0.316089575626	0.451516411304	0.311145798677	0.384795209177	0.416729601361	0.289458425182	0.387802652574	0.190945434385	0.545493173543	0.667261540834	0.565783868172	0.377194898058	0.19190301364	0.574476004207	0.116153933202	0.273027481288	0.222680822203	0.313821379414	0.224193628418	0.432450822585	0.513411766343	0.275318795941	0.181483044972	0.251707817898	0.630414804428	0.589726105274	0.385120452346	0.531979940793	0.182904198572	0.177258394974	0.318458792123	0.549950560246	0.581386431812	0.568260963643	0.244049884945	0.197713238367	0.342400843438	0.203615450515	0.547474840904	0.268712193449	0.275552590226	0.418073617351	0.547036817186	0.421607877674	0.346397401241	0.196996897911	0.515154002846	0.504368134247	0.19178195221	0.449725808671	0.184148975972	0.368353172151	0.206344956538	0.505472626937	0.306206380648	0.0933330742016	0.776858174224	0.459261477496	0.472225019548	0.346927098173	0.211730812874	0.26012777194	0.410814327021	0.385230158247	0.569404126264	0.161541440145	0.156963200759	0.197852586782	0.432595398008	0.518664896	0.317635121677	0.391355932966	0.269914890092	0.220205842461	0.192215466069	0.337963510286	0.500400805749	0.193549909048	0.178147071941	0.258789163711	0.221969245859	0.523555799678	0.159765805762	0.218560687356	0.321954863369	0.194429734638	0.163780259524	0.587664974231	0.550677935323	0.32319927941	0.337931284714	0.268621647472	0.172697425819	0.283963304122	0.270580525474	0.557824065192	0.221787084935	0.360001932042	0.247204996285	0.206966935877	0.212032843299	0.217207755332	0.215389854287	0.190623194245	0.261856375376	0.307853102039	0.497109655057	0.203027779199	1.16734805942	1.2228384116	1.16409591364	1.16883769466	1.20910669678	1.21444752563	1.11716420435	1.12083215354	1.14015905441	1.14047674817	1.12608815661	1.1679634212	1.07000548404	1.0814999856	1.08408629675	1.00713696501	1.00804825265	1.00024566665	1.03824434098	1.03727150224	1.03322220429	1.10231147069	1.13990452463	1.1045771431	1.09956023796	1.09173281442	1.08656839464	1.08814736099	1.06279007878	1.06759907813	1.05738525366	1.12830922326	1.12961764078	1.13750397207	1.12910470593	1.05506123509	1.05528870981	1.04119605206	1.12140822113	1.11873660312	1.11921290377	1.02289839487	1.02170538508	1.02422489572	1.16034410334	1.11330830112	1.12654304084	1.11381337493	1.14407461116	1.13993835499	1.16977521617	1.17198209844	1.16407968716	1.09628182194	1.10517480568	1.23272492124	0.262399275311	0.265179016668	0.327115965994	0.203231642352	0.263586925231	0.309807669018	0.342847304244	0.211654413248	0.216029176382	0.404082067219	0.272610247483	0.183376355948	0.356456837179	0.517386970027	0.392419655612	0.386166741949	0.415871735672	0.390603923379	0.703470815369	0.507614527558	0.579028979946	0.59932559606	0.626914144312	0.473463425585	0.584673636934	0.300027338793	0.455151720417	0.523406938309	0.254766620624	0.258887871756	0.371999614608	0.267353429147	0.213997639179	0.362909481728	0.351656123747	0.339933801262	0.333237008618	0.288144856045	0.321933772536	0.219643038048	0.405065171235	0.179869144744	0.291142175556	0.120786602701	0.485117186242	0.231712356164	0.284435353578	0.286124638604	0.727860318537	0.446391181771	0.456031794281	0.208332735106	0.338917138276	0.216661728369	0.239042448302	0.451699222748	0.223883020395	0.637735812154	0.269182821511	0.140915850975	0.43701110185	0.409368811268	0.476300410765	0.227968432422	0.428315951638	0.289091034701	0.25823958356	0.410727888303	0.322402394767	0.194358962993	0.476648879146	0.257729168742	0.201627010609	0.218322190124	0.310289800476	0.243063106592	0.181468665805	0.16263453442	0.329624527309	0.387750071539	0.500422418421	0.195916251123	0.346237343572	0.620644311644	0.219632675991	0.287161473441	0.244667668869	0.355397195655	0.439249135812	0.404473816587	0.267551070808	0.218220191189	0.206902941038	0.272308876406	0.213339694302	0.27363189081	0.519744388598	0.223639436189	0.328097324852	0.415748594286	0.36362575547	0.188343136487	0.470252128309	0.346562097736	0.470430374645	0.485357887042	0.276754925388	0.324552969829	0.257129587031	0.190775412427	0.193428601507	0.180591035824	0.515683631765	0.244275939153	0.207036586395	0.203943184305	0.392338204548	0.522681267679	0.342889399424	0.259460018279	0.524075428573	0.537735589614	0.962815236172	0.545649088395	0.595181719236	0.562783658871	1.0	0.68025774394	0.821409681997	0.532456212675	0.544378941996	1.0	0.537478990245	0.600482446654	0.548632735524	0.72839134711	0.605364778537	0.466637114707	0.469667775016	0.514557590238	0.616843904747	0.598086271655	0.477740034724	0.451139246944	0.518026391133	0.556058175676	0.50980292064	0.662310926356	0.571434997353	0.526501052206	0.526436997895	0.524911443077	0.541513565311	0.773662420413	0.509737068158	0.512395964367	0.571891607901	0.595259990296	0.503443548788	0.701357579242	0.667097438838	0.635646318365	0.711145158404	0.610419651043	0.69571455846	0.802052882743	0.600719339973	0.547388245367	0.564118690589	0.629861946204	0.465566647986	0.602791902929	0.503920171949	0.581101081776	0.582207975352	0.600535552707	0.594356872897	0.650772276856	0.668363158017	0.622311681583	1.0	0.590009818489	1.05882557075	0.66605229335	0.657726119398	0.627108274155	0.634487126556	0.61725457654	0.574370032357	0.578873760252	0.562673964673	0.578608796872	0.585575541045	0.578912980586	0.541035917454	1.13876311684	0.737107252952	0.671917457411	0.55536665838	1.01157108038	0.608272862211	0.523347392979	0.588378512818	0.540602988114	0.617027946033	0.494396916952	0.509544467874	0.591611961881	0.490051620054	0.542162569543	0.661114102237	0.551666180465	0.606574355065	0.446818767568	0.537991041783	0.984782446654	0.525268105591	0.560510576618	0.530417695342	0.57375636273	0.591129583817	0.636142082506	0.600760959454	0.572410572705	1.13549078827	0.6139721159	0.653430462383	0.825264374871	0.587980382657	0.501300957229	1.0	1.0	0.58813111756	0.63920094179	0.623111176941	0.613686146107	1.21356175575	0.717936297562	0.517039112026	0.501251731171	0.610976344224	0.510234874298	1.0	0.556007991361	0.624652678975	0.618126318624	0.565213013169	0.575089114761	1.0	0.608333649039	0.694137327909	0.559827416425	0.763008417358	0.547012288171	0.641966993992	0.7096530578	0.459290198089	0.545505964908	0.809842920921	0.750633056764	0.469558955308	0.588664687513	0.53874656291	0.60311805104	0.545895568571	0.564548240553	0.498064233478	0.58344251792	0.59188321642	0.657636107106	0.577977710018	0.570238994643	0.972753204889	0.525766643954	0.906357240761	0.69834384711	0.60170276127	0.517460358993	0.517045663024	0.519525506526	0.308001176714	0.534731208307	0.735003994199	0.60132751247	0.670931826186	0.513258426559	0.437962467293	0.555685712703	0.54686160866	0.441930556152	0.68412246264	0.485728778047	0.545258243693	1.1123492573
DD108	0.460933855013	0.479455664128	0.391233405158	0.37672598795	0.650454441991	0.0	0.416834020085	0.636098854966	0.587814989586	0.375369433917	0.415571809949	0.409542885761	0.386714256186	0.436072249657	0.394515055991	0.53029055883	0.324748348969	0.52139200556	0.203217873227	0.406385397268	0.541185208696	0.192010071187	0.576677856757	0.46128843219	0.502854384382	0.430872143521	0.608016866989	0.35393094517	0.37865249449	0.536904149189	0.592636038166	0.520050981076	0.229381437666	0.547188283395	0.373468798916	0.423331169838	0.732889045945	0.602490275278	0.464994092002	0.350324900614	0.514578164975	0.454992821019	0.552004232998	0.641214880098	0.429022916926	0.671007990121	0.4705754976	0.499368470485	0.508725777033	0.384142554032	0.360587770236	0.502354901185	0.456326472983	0.710562619482	0.362504587335	0.409554086015	0.601936418921	0.363064055749	0.527263381403	0.39274609636	0.540397442856	0.360716109048	0.468481947043	0.609499416848	0.582117428807	0.3575874447	0.383240249429	0.468396857356	0.564938572265	0.736923338525	0.392299349432	0.462758011146	0.22540173217	0.64854495602	0.624263726758	0.672246257187	0.40099409549	0.2923952345	0.826277967769	0.471079562002	0.761195338267	0.551400711375	0.535824268633	0.443183037043	0.359603804856	0.658489546017	0.606153726806	0.686469984225	0.481333251045	0.435557584865	0.594391425981	0.596430062902	0.433519657822	0.556349412927	0.640125983128	0.416674585622	0.268079068548	0.495509739246	0.415688630149	0.530257149243	0.585384616855	0.497954021999	0.56950687289	0.460836251432	0.549489814706	0.46144174455	0.531627769159	0.578535883408	0.71143840241	0.58226321292	0.560747732837	0.630782292523	0.477807638884	0.491198194537	0.356311743159	0.521069509034	1.08631170092	1.14185883542	1.0833923868	1.08813872638	1.12725121843	1.13373209429	1.0236523158	1.02721668978	1.05836537661	1.05909183179	1.0223416295	1.08679362199	0.952265224383	0.924457319771	0.930574336517	0.851922320817	0.85066649381	0.846388611451	0.881467952749	0.879290039043	0.876011043738	0.976224638616	1.05918631649	0.96688531561	0.953685214084	0.928807288591	0.925240078205	0.926292466681	0.900401473672	0.905187775126	0.894987660938	0.974425439654	0.975916297042	1.05681027856	0.975220729162	0.926081432505	0.931843051925	0.912107443901	0.967471289153	0.961500219583	0.961579740907	0.859780544291	0.858700880906	0.859876734077	1.07447665505	0.959345364882	0.97257994059	0.959839789933	1.06181305048	1.05867385544	1.08900565324	1.09086173528	1.07952737125	0.981447818682	0.990321920399	1.15043794812	0.663009700318	0.785294085951	0.414336781338	0.617737573209	0.764014122803	0.484059233859	0.505955048074	0.626252034834	0.572170498043	0.543934015582	0.478818692618	0.630624435015	0.87730628004	0.432563731141	0.365597751708	0.405896063892	0.345141466862	0.399226680663	0.510659382767	0.350923308168	0.351168982992	0.190708606768	0.159742400511	0.541648790644	0.546039828815	0.502015504766	0.396087473374	0.449009448075	0.496785337433	0.464434162969	0.423995910594	0.564752513765	0.55170847354	0.40298355808	0.489893236744	0.477332973676	0.459055298918	0.518582766732	0.514806205866	0.53218533254	0.508397363016	0.564709965236	0.462081845776	0.628360145326	0.38752668003	0.678017840026	0.484379981853	0.526857904253	0.272473450562	0.406866209336	0.427099261713	0.579636242769	0.481036275929	0.585611539214	0.530827002939	0.383993314877	0.684585091501	0.442032197795	0.517704827273	0.603768325036	0.368778412512	0.408336241329	0.372900621938	0.574779251593	0.471758743794	0.452908482041	0.51511584944	0.493987499864	0.464322742876	0.678437674439	0.363752035846	0.488679875974	0.535574144546	0.596479047584	0.457297164049	0.493053625655	0.637364497441	0.553903709106	0.408413925373	0.366473625525	0.321349268356	0.626071266271	0.423152757929	0.47257956143	0.623229049396	0.509228899455	0.494505244175	0.397862382856	0.392269970808	0.432681185417	0.455297072734	0.534886848399	0.562718230866	0.497313292633	0.529143570082	0.475046035126	0.470418340558	0.619036659678	0.530091354189	0.381032356341	0.458851281268	0.56182870141	0.54541516692	0.465794586997	0.38093732416	0.359483254416	0.488187531143	0.492737563357	0.503710128872	0.599085724967	0.553524713854	0.635510495105	0.245015321422	0.491103870771	0.574471098224	0.596622782389	0.386698827837	0.456257929908	0.477878607563	0.503771813207	0.545882197884	0.493756371722	0.721181402508	0.50838367558	0.746322748309	0.485784911243	1.0	0.824498150888	0.642923663708	0.505025684553	0.494349601381	1.0	0.491660451135	0.540936813891	0.57088329054	0.872635650888	0.51494610355	0.559945011975	0.555893255142	0.541177578895	0.479685746689	0.463578636751	0.59867223213	0.925734668216	0.88504054452	0.483147009068	0.557122539836	0.47847361642	0.538544967518	0.622855388701	0.50568263348	0.548463659997	0.504554001718	0.525892641354	0.537851127501	0.567199393961	0.482724247904	0.500508972468	0.522718871865	0.525735431043	0.490967129601	0.468405018843	0.500686219358	0.48441911646	0.461779852108	0.540687504227	0.471144849019	0.529497320058	0.551181841549	0.457494458298	0.591766271922	0.461040313675	0.520959613553	0.496440948054	0.492410210516	0.473063527637	0.500491441955	0.434717411243	0.447466364469	0.49029394745	1.0	0.491543011412	0.904893445337	0.813582955058	0.44762593524	0.490971693772	0.478802857436	0.473854266977	0.508113805238	0.513704494928	0.512555367044	0.594870251244	0.502154061496	0.482741696509	0.500035604055	1.02526822133	0.50024094745	0.487954376585	0.851431887151	0.772052853621	0.501769432939	0.669034819475	0.470590804346	0.550032081314	0.507558154128	0.599752976719	0.570402335165	0.46937176646	0.624221940688	0.522295809767	0.481594735982	0.472244149372	0.539427576418	0.737600216481	0.52362779304	0.774178011412	0.500298969052	0.500009645316	0.484483041819	0.505726196865	0.487313526927	0.475275129455	0.480039428712	0.501589240537	0.891077192871	0.488782682363	0.524847908566	0.594343881375	0.486432903919	0.560582375623	1.0	1.0	0.467166238242	0.451752584298	0.472081277352	0.478344603046	1.10667982601	0.620496248943	0.556790462102	0.619960810664	0.498076794167	0.609806881019	1.0	0.521792915097	0.483767287413	0.607084100451	0.542380245048	0.480843827134	1.0	0.442659175916	0.531983855311	0.487452365153	0.519906747095	0.493592049169	0.548739303325	0.853758150888	0.58204845379	0.502065485114	0.551015953085	0.545462788814	0.688475212544	0.471579817554	0.607683818447	0.480784328871	0.528984470471	0.525455498538	0.974963817272	0.534255718465	0.477149845423	0.465092561989	0.489726055031	0.496562104315	0.731461991406	0.549065130353	0.688805416314	0.842588150888	0.441480924794	0.510800638912	0.515413764323	1.00927844252	0.725261443364	0.623577403494	0.495521853339	0.485831368695	0.500238297408	0.8763775	0.543279616608	0.510005194942	0.705174269513	0.652975984977	0.533036910454	0.566089080123	0.51154432164	0.835811316568
DD110	0.221261442685	0.271811900116	0.299506248682	0.183594988776	0.383533832088	0.416834020085	0.0	0.362111299798	0.326907350382	0.20261564198	0.238726045503	0.202666498281	0.243141219858	0.204139908902	0.220293013452	0.275718899585	0.501381695475	0.470417084112	0.414876373625	0.204337750194	0.320682922171	0.398592753199	0.302069712111	0.2317992977	0.235627244014	0.17172400589	0.339796053855	0.207423096253	0.269137912384	0.290454192659	0.318681017231	0.242855274465	0.451498538586	0.704812113543	0.216631083467	0.325263631958	0.487631772877	0.336787611111	0.161519619227	0.540271173284	0.680369536577	0.270770770278	0.270603875113	0.361687941428	0.18966015241	0.431068225401	0.644616281655	0.300962826599	0.286341196414	0.203117725693	0.243213711568	0.291046872579	0.170128988146	0.471690707546	0.218903076035	0.305048607516	0.343115087642	0.217709383863	0.292450178113	0.149259022252	0.325541023333	0.546275249121	0.260758439913	0.323369737167	0.536209696502	0.22466368901	0.23914561249	0.137194757986	0.344471670852	0.506033030596	0.215232428302	0.150716694325	0.430010753422	0.358778238021	0.355775490126	0.441788253067	0.14929152282	0.471092835617	0.596914416475	0.14676964641	0.498771770614	0.317386741076	0.328075109215	0.153927492718	0.210665694162	0.430361295613	0.399332939386	0.495106104094	0.28486443425	0.602061780722	0.354519172662	0.349052607578	0.18912144378	0.293732434652	0.392434680003	0.30316022686	0.472089772699	0.206756126767	0.201044544966	0.269878666144	0.339758362159	0.217027507418	0.286930576394	0.402317477317	0.332159139991	0.294730148186	0.326001270848	0.359299744433	0.439025494039	0.368079974761	0.327885432671	0.40683191523	0.245998197294	0.302251440838	0.527612262658	0.264098542195	1.11658887992	1.17218817832	1.11394393072	1.11868667533	1.1577389933	1.1641609218	1.0567577398	1.06034060368	1.08873780933	1.08959255094	1.06050392355	1.11715430135	0.988388563092	0.973254417488	0.97935436157	0.900352286712	0.8991805155	0.895104117007	0.930514924874	0.928419260561	0.925038932861	1.01250075916	1.0895486917	1.00318118579	0.989940248791	0.982591527126	0.978908546622	0.979987517056	0.947099991344	0.951867699271	0.94168896074	1.02344459526	1.02504786525	1.08722453299	1.02424152278	0.957205606722	0.962992883306	0.945157682784	1.0166332062	1.01065697814	1.01066193868	0.906724875496	0.905697686655	0.90648344885	1.10469956652	1.00861227754	1.02184908772	1.00912779869	1.0918803508	1.08898568755	1.11931626123	1.12108507665	1.10971593895	1.01744282561	1.02630485792	1.18015026949	0.398908984456	0.526249320486	0.281581916053	0.396635237815	0.512004812542	0.265548128895	0.200286729627	0.356406567946	0.361199379537	0.25513210832	0.282737332989	0.401965499053	0.638233673681	0.605862047928	0.185295842725	0.205302112896	0.256768979613	0.259047858731	0.48041838708	0.292130061559	0.354871384229	0.430714352647	0.435431109349	0.299466361987	0.689611314631	0.239943467105	0.338295503717	0.620039127923	0.252801570335	0.255221845971	0.416611515204	0.356690504016	0.336208286837	0.172275424117	0.233332656727	0.21284880961	0.223631226747	0.296373350984	0.310339051163	0.283012828931	0.309079596811	0.320445765624	0.190879362198	0.360914397768	0.551832944138	0.447951839618	0.210320697257	0.270045419152	0.491737928088	0.153036044096	0.166136205818	0.33159226758	0.386410220319	0.341714314084	0.272660802828	0.264664739939	0.444332883934	0.344768146553	0.230205807067	0.327273098877	0.230834601854	0.136852301037	0.207497171044	0.316132986725	0.289838935894	0.241915113942	0.309024321136	0.511639457833	0.212465188736	0.434779388123	0.31559491082	0.264524000393	0.295027269523	0.313574532919	0.198372839878	0.282368391725	0.406422568846	0.324347058491	0.19553521498	0.216739720764	0.49241306458	0.387941668381	0.261472364571	0.43270350212	0.389278124961	0.259528263392	0.212625519641	0.293863067642	0.149696818425	0.234569661223	0.204138228593	0.264573565555	0.295658909632	0.270835359407	0.311755550688	0.271935470487	0.387890941398	0.324148335013	0.245861485191	0.192316687949	0.212696723548	0.319961239473	0.38967115708	0.227786169418	0.173973418963	0.184595761878	0.266801048102	0.212981092061	0.258933864137	0.364398768938	0.300226699358	0.365468743673	0.426130785478	0.256319547835	0.338890945325	0.308902512069	0.193894658527	0.617872688182	0.188548114995	0.256476897732	0.448003573163	0.362166288736	0.80710177698	0.372263280771	0.657900471738	0.390059280189	1.0	0.777366473212	0.651015852004	0.358057177292	0.361318300586	1.0	0.354571401381	0.461140505975	0.503091079947	0.825357997308	0.438034240451	0.37885366785	0.47577255285	0.372057333583	0.45997512636	0.424601700886	0.411929061067	0.722682430488	0.684625555499	0.36356321548	0.416410045956	0.483826665326	0.463535840592	0.522914383235	0.358968268196	0.427176020899	0.381288673598	0.584016273605	0.374315034777	0.421475523854	0.372379907954	0.451262225637	0.367999519418	0.526082364102	0.49529926774	0.44687777933	0.523585970764	0.435876068734	0.500525630423	0.630758774331	0.425933114317	0.430266939098	0.474498222426	0.441463449661	0.46556699619	0.415822545636	0.380514739896	0.444227364231	0.412065192225	0.45446503017	0.43653140522	0.448912363648	0.506922596877	0.46131977631	1.0	0.44098307115	0.954319753397	0.753948056652	0.524101151386	0.438576650346	0.472156307827	0.451978385386	0.422490426132	0.441165566416	0.426009348424	0.499709764775	0.414769622597	0.424745958406	0.42172151665	1.06189704178	0.583580626335	0.500285044374	0.725391300179	0.856506973597	0.464533486981	0.542727461816	0.415236527711	0.444820346711	0.463512119328	0.442261298759	0.451723483917	0.406028242274	0.519263141929	0.406074533709	0.465609393104	0.360728357486	0.449234699326	0.550725718965	0.362607917066	0.829622927454	0.3513351554	0.395145185412	0.351542341857	0.425940791251	0.429824410541	0.467698111171	0.438246680612	0.41370180394	0.977236851064	0.445637280075	0.508467511802	0.663899631248	0.400899876739	0.415956018953	1.0	1.0	0.411282387649	0.447064068491	0.429103834212	0.430463379949	1.11121071161	0.573094125096	0.441034722155	0.505848106872	0.442156896254	0.550411891702	1.0	0.405137136862	0.460357745736	0.53236049577	0.440846414632	0.420632316629	1.0	0.447130906479	0.500790643192	0.373218187527	0.592245454981	0.384202107109	0.529512828506	0.806699976416	0.42201738794	0.369966186382	0.638268814004	0.597570701017	0.551322092502	0.421128747977	0.501207857031	0.438222409766	0.396472647797	0.432031785771	0.76435139759	0.465406610727	0.419338387076	0.505780570879	0.425257487681	0.422157528729	0.816644682389	0.438372038339	0.721830500779	0.795400281466	0.426975161185	0.408281634013	0.362827196809	0.803115773391	0.542015638554	0.619866785568	0.579526420149	0.436503578787	0.529166712552	0.664230602239	0.349320143626	0.384955854568	0.639141729642	0.475832374698	0.513566509696	0.422918657606	0.38776308838	0.922767623943
DD111	0.320177589034	0.248197130283	0.382712787913	0.393831105016	0.175773422211	0.636098854966	0.362111299798	0.0	0.221271139562	0.458711545716	0.290439669885	0.403154568338	0.461623978714	0.290236606803	0.422324796688	0.22576628839	0.547351826991	0.660217278964	0.555756445427	0.403153331246	0.188633308336	0.575099432042	0.230635635526	0.296204885277	0.235768888335	0.383171033595	0.131391756949	0.442578162877	0.523878900657	0.383700958249	0.171840043951	0.264103144105	0.625795938586	0.573487386542	0.396370996978	0.586641211487	0.232136497231	0.172626197703	0.334994773327	0.538578973484	0.558705587624	0.535042594948	0.284341168599	0.180763193197	0.349736204199	0.187601531448	0.530847475131	0.298272385914	0.283771651501	0.422240456458	0.569948489649	0.444528646083	0.361470108135	0.208214623616	0.529271032943	0.524900271778	0.225182435509	0.458798134582	0.203470990901	0.348649924734	0.202212205564	0.48980367835	0.291289390068	0.1612710741	0.708954326269	0.469494570105	0.474707290479	0.372802515332	0.12864183447	0.250211350402	0.428150845016	0.398017963774	0.573499523916	0.165815804202	0.207527979308	0.185896439313	0.454617394363	0.516723893558	0.33224925696	0.414349277662	0.255094921922	0.240317902519	0.189179598815	0.341821006529	0.518947466688	0.148239819072	0.16736946896	0.217491894552	0.231733670591	0.519197707373	0.168509719688	0.242590223904	0.353437598802	0.252490023371	0.184599146339	0.603589711518	0.549304903117	0.270640664715	0.362646874923	0.30174748831	0.166479643262	0.302473470709	0.20381424193	0.560250415695	0.237684089042	0.362185885026	0.264925409756	0.200310650189	0.118754231821	0.216235350992	0.214461510235	0.179670472988	0.250822635575	0.332510936869	0.479871211322	0.224234296043	1.19257961508	1.24801602852	1.18922961459	1.1939815892	1.23434235189	1.23966683147	1.13607388359	1.1397333154	1.16459791032	1.16570818587	1.13363109145	1.1931826918	1.06830734969	1.08265686594	1.0849670393	1.00784771394	1.00765535452	1.00125147509	1.03935136199	1.03838840623	1.03439376223	1.09928978411	1.16515363761	1.10151908907	1.0962134937	1.0867514488	1.08342789013	1.08475919069	1.0605059002	1.06532036558	1.05510491146	1.12917282534	1.13069808179	1.16270879947	1.12998968668	1.05250491033	1.05272157055	1.03189825387	1.1222608846	1.12002549636	1.12035925754	1.02066164634	1.01949212226	1.0204003476	1.18084417232	1.11415804775	1.12736519869	1.11462368283	1.16969200686	1.16483564524	1.19500706978	1.19724319585	1.18597217627	1.09184150433	1.10077806695	1.25764814807	0.309249378394	0.227920529811	0.343612052183	0.211894618463	0.2663403771	0.326892506276	0.315983263641	0.239783539813	0.21098750465	0.370023706574	0.268311163956	0.187123742221	0.355626773569	0.505834467697	0.400169424146	0.414661183342	0.399964698648	0.397735386602	0.703333907389	0.506226438646	0.574966500201	0.605307867582	0.632307534838	0.432886013904	0.562797141124	0.276825842689	0.458472017182	0.515284254058	0.265645583079	0.266705509613	0.363613062272	0.25672935671	0.219189981533	0.368697906206	0.353250885475	0.385204666756	0.330402125803	0.306355546887	0.336439653749	0.245183953393	0.410830728738	0.163712222389	0.31556834443	0.154189728167	0.475368259571	0.215720293144	0.312184223991	0.327335964199	0.734695462657	0.474147399885	0.486007218802	0.16997266151	0.327234770606	0.190616728604	0.250695602269	0.473378414958	0.20663531881	0.664845619758	0.314210758362	0.21120691262	0.44956827595	0.405627656021	0.483606701098	0.213435352265	0.474278284134	0.295729173052	0.257702006601	0.389526924329	0.317437192487	0.204918903275	0.463795543003	0.268035146273	0.222192240411	0.12203711756	0.319646573336	0.253091342068	0.193103094567	0.202959421313	0.313619856508	0.390849673718	0.489503470616	0.185761007727	0.354503154175	0.625637145815	0.232755169244	0.306724849291	0.269087730234	0.37497901721	0.457648440224	0.39096379015	0.275367461007	0.236742046329	0.273252030374	0.282839827693	0.239044197065	0.282971211383	0.525799873864	0.165225094328	0.368862507035	0.43277277819	0.285707994032	0.135368872956	0.517183172333	0.3763777668	0.493515562434	0.508814700374	0.279886039448	0.260291156161	0.299741019295	0.159868762545	0.224004038198	0.19793303545	0.522281945413	0.288347366536	0.216274727682	0.226931435965	0.404939716413	0.510792399263	0.372037021852	0.288329844438	0.527722187701	0.541119063178	0.969687492692	0.538090671128	0.566662668204	0.566528147811	1.0	0.676499632598	0.790087009878	0.529656136238	0.540365875009	1.0	0.53424280052	0.577655549484	0.554825509084	0.724637132598	0.578965995666	0.448756990998	0.468507006854	0.491963648322	0.6295680551	0.589934640842	0.455931825308	0.448428199274	0.522687681181	0.55195310242	0.510058884776	0.659987158421	0.577136375981	0.553903625038	0.523404991327	0.526874407318	0.545863007883	0.738907560562	0.505326024493	0.485726436851	0.545799807032	0.593265419684	0.47257265321	0.679306819373	0.682614506373	0.620009183928	0.712004342498	0.592477144539	0.66281427294	0.812168655881	0.602653399883	0.55897847108	0.568798743839	0.610222078398	0.480269668224	0.601309553888	0.50619866203	0.588882423955	0.567471628887	0.61706493612	0.603153479488	0.645779097098	0.672970308563	0.624463504214	1.0	0.589869817156	1.0596265946	0.676894331217	0.661358049424	0.614811551649	0.633483776763	0.620837622281	0.571600262984	0.590428607247	0.570276595541	0.567841588298	0.576728617138	0.58491483226	0.531122678889	1.13362011944	0.744672861103	0.660615944461	0.524900893559	1.01762952777	0.605212118432	0.493410852416	0.594391446208	0.547384904474	0.574417484276	0.478208627092	0.503765442208	0.587410564795	0.494193982461	0.552130208511	0.641956902984	0.527054125818	0.623277277266	0.441978532433	0.495028243969	0.991388242617	0.525155453679	0.561751830026	0.535526888628	0.577167652911	0.600416322951	0.645118968903	0.610461374706	0.565254744056	1.14163067282	0.61166795246	0.649806663992	0.834270469459	0.575967787688	0.483155868831	1.0	1.0	0.592741114603	0.637512977583	0.607682789731	0.610996612285	1.17262193982	0.684341800054	0.501146201114	0.517255328871	0.613583932279	0.526559845989	1.0	0.550987182946	0.621644950313	0.633357349562	0.576050364116	0.590821028847	1.0	0.618534552245	0.663644104013	0.543004498487	0.768938272796	0.52688852283	0.658678577764	0.70581863169	0.460035007411	0.533098316728	0.819363818379	0.758055722709	0.474643977926	0.593788851331	0.529483577344	0.605597666155	0.520825333704	0.56505243787	0.483226771999	0.589691140644	0.593957552156	0.666968972079	0.588452661816	0.567048138334	0.978754636125	0.522170906736	0.873095972762	0.694589632598	0.615982974839	0.511612716892	0.499459073976	0.521586058361	0.325052987818	0.53294107978	0.742552586433	0.608408021485	0.678784734402	0.50944614303	0.448011049331	0.535581422884	0.539593904344	0.418756240527	0.660089959123	0.479661814817	0.548794027161	1.1166263794
DD112	0.279189574828	0.245026465081	0.333376884252	0.347508235871	0.316089575626	0.587814989586	0.326907350382	0.221271139562	0.0	0.41590206137	0.252716570887	0.354156293562	0.42737813424	0.272513707389	0.386201884975	0.296994130868	0.554358216725	0.486576228446	0.52457915741	0.360207919656	0.279438630989	0.53119788497	0.279549377136	0.271499592515	0.283618653647	0.344543219109	0.194631017187	0.395878591124	0.483865305268	0.354741394014	0.319781665187	0.317975976043	0.57341056996	0.704161231972	0.356045213343	0.54257913475	0.404364846527	0.214870867763	0.341446904193	0.558865075971	0.683472218469	0.352839975042	0.216221582571	0.17760680552	0.306949845122	0.354080034639	0.654262627342	0.2809396988	0.255190701063	0.395599062264	0.529502147079	0.383329160083	0.324835349959	0.376654482817	0.486019394454	0.484805496456	0.330272699101	0.416540677046	0.269615294021	0.300105715075	0.282331373991	0.593887312586	0.267876532857	0.27659853309	0.559629032515	0.422379800929	0.431849389674	0.380815582157	0.250822500222	0.414288221799	0.396036587814	0.390633987067	0.551138710155	0.208750609789	0.340649998732	0.356928849816	0.412220746696	0.56618239175	0.499324962805	0.403451034798	0.423918718663	0.298754473557	0.269023990223	0.314674728923	0.474801126077	0.316957200032	0.317017445593	0.385604953041	0.27356316777	0.628662470302	0.317162154184	0.355380774996	0.318649396913	0.291145743441	0.339465373182	0.556553792451	0.551350357044	0.207931119383	0.316390850764	0.299410586894	0.307718218429	0.302873225243	0.193991354961	0.505276212647	0.301098549929	0.319367016012	0.306104889142	0.307876224299	0.276130040808	0.330058789626	0.3097719062	0.324700686715	0.2500504992	0.293538419715	0.576821715748	0.2901488	1.16383614187	1.21927815577	1.16050701243	1.16524856446	1.20559204782	1.21091667438	1.10733072726	1.11099019543	1.13583714821	1.13694757378	1.10797030839	1.16442838685	1.0427867177	1.04404211863	1.04825384803	0.970417550996	0.969244057056	0.964444215555	1.00093336394	0.999922726095	0.995903461288	1.06743670624	1.13637700752	1.06807609702	1.06193895651	1.05324528525	1.04974634232	1.05070127866	1.01603515258	1.02345392622	1.00943605078	1.09248069702	1.09402011687	1.13394882352	1.09332548453	1.00124621131	1.0021634993	0.983901141357	1.08558149013	1.08129506925	1.08178640326	0.969414303079	0.968245808384	0.96915665478	1.15212321516	1.07748348205	1.09070014343	1.07797057604	1.14056209438	1.1360834693	1.16621529158	1.16847269016	1.1572118964	1.06470632494	1.07358496267	1.22873052945	0.348659602298	0.402146566159	0.294239386837	0.344566458031	0.437083229918	0.334332280273	0.284819247784	0.330872981507	0.308823263173	0.287305106324	0.276446218859	0.339318299886	0.536659749379	0.62057350788	0.353325529218	0.383420854543	0.36087985171	0.346728661925	0.642980781453	0.456369051937	0.52361885868	0.551220704383	0.573202629858	0.261133838145	0.692074047636	0.266006577895	0.406784271105	0.633940236033	0.284021998703	0.261285953461	0.462498157281	0.293284518017	0.31929569918	0.32969721257	0.334605579349	0.364393706944	0.294485390918	0.263664804316	0.305118467902	0.28413649806	0.379314095476	0.293459884989	0.318744876651	0.317172091369	0.591455116571	0.361611018651	0.326538036422	0.258034424944	0.68173000443	0.432387645359	0.444779494921	0.288244890258	0.396385051007	0.261530295344	0.288560431829	0.4342861988	0.350888308177	0.623609859461	0.279203707609	0.297051697449	0.413757098755	0.367353335299	0.442477117929	0.26076267008	0.356670830219	0.274942627132	0.30827761487	0.525454818321	0.300108244996	0.372683289347	0.426326793973	0.293058718158	0.300361173321	0.171147765876	0.319600053865	0.295903490675	0.324291450759	0.307200520291	0.292220758878	0.339714811432	0.563704137688	0.334414956022	0.315303762791	0.56767614599	0.310502223407	0.306095360834	0.264669229508	0.329606610773	0.415914950117	0.353898448617	0.266390777764	0.285728712221	0.307344900894	0.296439041455	0.297787600787	0.259247738947	0.485944271526	0.229429339367	0.246790278441	0.393084014054	0.236598279596	0.246757640237	0.503448752549	0.286138122755	0.451027755232	0.464315299079	0.272008713128	0.234234207975	0.300280470447	0.27700956501	0.291852729342	0.354077815007	0.518702720001	0.285812374636	0.310469686845	0.219525028061	0.36870131527	0.627132885382	0.345501466177	0.2696974451	0.519919649048	0.502448262858	0.926170606149	0.499648453825	0.598691520045	0.526996353063	1.0	0.788014379514	0.604206149444	0.490410279025	0.501168460134	1.0	0.496284192741	0.542700651813	0.570211078069	0.836151879514	0.490936492759	0.45400709997	0.529296694736	0.428781621496	0.589867877715	0.554140446773	0.451355514267	0.611023232914	0.640046581854	0.512925900017	0.49066891153	0.617005261428	0.544510638224	0.555276032848	0.483874630482	0.495215111118	0.507720147436	0.639882712223	0.465006552285	0.488089798737	0.501116581776	0.559131727418	0.421022205546	0.603001170127	0.643012197049	0.585096595503	0.678978718405	0.565084465108	0.604330151871	0.76776768986	0.566316087118	0.530829586372	0.530146292273	0.576331011993	0.526373921955	0.565732488837	0.486171953565	0.554233676368	0.53240377643	0.580097638949	0.565178361771	0.603997833431	0.638198455682	0.593410792321	1.0	0.555956415676	1.02295413161	0.780858885884	0.621783055626	0.580415038095	0.596457867685	0.586620097741	0.535392363986	0.556152021796	0.534158506669	0.556715573794	0.540193990513	0.5509020481	0.511683177251	1.10664562557	0.701776767691	0.631234260025	0.680294160648	0.974292455809	0.570869323177	0.575620709626	0.558155242753	0.53093500815	0.544507455174	0.495508676099	0.517147149926	0.545187905238	0.547987333007	0.521477754841	0.602148815887	0.485104525901	0.592131663373	0.557048076601	0.451754039886	0.947915194246	0.489803203365	0.520634027073	0.499568522089	0.543128404047	0.564029284097	0.61209821956	0.575825072642	0.529357610108	1.09798789699	0.581390422147	0.607747561808	0.789879602827	0.540811889326	0.478572087516	1.0	1.0	0.557345960952	0.599392317527	0.570406671016	0.576424880365	0.9955449559	0.586120512665	0.514314508684	0.545361175935	0.578905324239	0.609131629598	1.0	0.517389673275	0.582505917432	0.595860310939	0.539474112089	0.550078721059	1.0	0.574987523123	0.580798542934	0.50189060423	0.731182943717	0.484313801193	0.620127296105	0.817308998947	0.500525943907	0.492124725154	0.774972312491	0.715076294145	0.59542003986	0.556257218276	0.545490100773	0.57005050147	0.483908791055	0.531313947748	0.653801446046	0.562891463532	0.557176296888	0.622605492251	0.552924842712	0.527665698623	0.935222084135	0.502009016467	0.807207859215	0.806104379514	0.576490109471	0.481067143039	0.461271485533	0.687870511052	0.451638624058	0.640998276197	0.699926630068	0.575490368771	0.636234408249	0.630163484205	0.453018308564	0.495936871683	0.651869314423	0.493025784457	0.62005258986	0.500488422567	0.511552517364	1.05595349588
DD113	0.24346663123	0.305812545354	0.278311114511	0.165284075243	0.451516411304	0.375369433917	0.20261564198	0.458711545716	0.41590206137	0.0	0.257164243963	0.139727912837	0.20004032204	0.242264077422	0.202499035285	0.336970713403	0.554805342414	0.433593996571	0.472188075531	0.184095254923	0.384171098293	0.448761833685	0.372267930187	0.26031044288	0.30547906984	0.241871500875	0.42504431898	0.119479007472	0.222235269397	0.34392457891	0.392087155829	0.332329258084	0.444669572891	0.750088770684	0.211063070287	0.282997226861	0.552997810889	0.422902283256	0.261242990513	0.591181806134	0.736598699231	0.310613341009	0.35486827246	0.444132030125	0.228687047353	0.494115445072	0.707279295308	0.341299284886	0.321017902187	0.166503781906	0.224656302369	0.252352532283	0.201126791203	0.523100222142	0.207092193282	0.257932602532	0.416769660471	0.162594884985	0.341476958785	0.216104144384	0.380709989581	0.608537643318	0.294138474256	0.415316323594	0.508308789105	0.0994846297181	0.109935845166	0.259467784335	0.448347308897	0.572285815617	0.187589675367	0.242233383399	0.465205485671	0.446863998179	0.42889732296	0.486768822061	0.196134143052	0.529967242003	0.663298225497	0.250583210798	0.569996755382	0.363031571852	0.372121428306	0.230647860992	0.192169181142	0.486489284621	0.471042812361	0.581264262402	0.336473912503	0.658131893112	0.415108163191	0.421276129937	0.243285798354	0.36226533074	0.463338690701	0.267020749669	0.510564850101	0.310041770782	0.236972411177	0.339261612656	0.414717491379	0.233741987445	0.388851222365	0.341596964654	0.382147642702	0.294135509833	0.377538203551	0.413711568562	0.530384561377	0.427887072402	0.378384713825	0.463093313187	0.283509819566	0.341872693762	0.587360631582	0.320809730282	1.09123462454	1.14714790066	1.08868050936	1.09342266931	1.13114451249	1.13892436234	1.01928223186	1.02270992831	1.06348681082	1.06406708898	1.02449275253	1.09165458312	0.942118321449	0.933450913108	0.939544940944	0.860990790398	0.85914800565	0.856858363703	0.892447253255	0.890357634209	0.886914844673	0.970649907754	1.06441625593	0.961325815578	0.948096515706	0.930193858875	0.926451092064	0.927521807531	0.895325503367	0.900132718358	0.889898679994	0.984332722271	0.985938248573	1.06206602155	0.985176940664	0.913562485035	0.919549757789	0.898731568879	0.976655148143	0.970667018301	0.970697414791	0.854892151196	0.85388105643	0.853805785514	1.0786570095	0.969308882402	0.982543919973	0.96980686031	1.06492513518	1.06369379852	1.09425036491	1.09600391259	1.08388595615	0.976535742085	0.985346316766	1.15485521468	0.464899141164	0.610893987647	0.290604176854	0.448732286281	0.587762421837	0.317300267243	0.229447647951	0.429270505161	0.40547713375	0.291511057763	0.321579217946	0.457978619572	0.705450070912	0.661375608793	0.139362798264	0.213145212931	0.184518685995	0.277191127089	0.393829784852	0.210050996116	0.268224286393	0.460136771024	0.43977450541	0.400423971469	0.746733658085	0.316550616756	0.297367619692	0.6817702393	0.340806842582	0.303704607195	0.458812498268	0.404466043961	0.399092788899	0.158175546515	0.2761090511	0.286509174199	0.25574593474	0.332723598012	0.34601588642	0.321886361305	0.29914669851	0.368015526666	0.275171051173	0.429365084333	0.611143437536	0.512821123661	0.232991219821	0.331801244927	0.448094704227	0.198053982235	0.199993601234	0.406895544246	0.422070686841	0.399183865312	0.316136419076	0.228092268823	0.500793792406	0.305059854383	0.319307155377	0.406281482839	0.198131122809	0.188477400402	0.199445053004	0.381803373422	0.287291896336	0.275953303388	0.347897980077	0.562494317916	0.235821799185	0.488834309219	0.261665191185	0.323801794625	0.381300356102	0.41248516838	0.279594786578	0.339740665787	0.452017634805	0.386186278648	0.276892301069	0.250177630716	0.551037965377	0.458384078623	0.254506484826	0.364079371772	0.429248607482	0.316877747125	0.287031222341	0.277505225334	0.186799289947	0.242049458229	0.231176096455	0.282851860467	0.360293064446	0.32464818743	0.358740725329	0.312934027965	0.318603787681	0.420927320208	0.33747624343	0.103654152452	0.28477431339	0.385588468519	0.366706828944	0.275966326562	0.180026717321	0.183402134569	0.310170570185	0.300736415631	0.327827362582	0.426438847821	0.344532350049	0.450075061426	0.486158518554	0.300762166456	0.392066623698	0.401553248921	0.202102158308	0.678088213584	0.242792153386	0.272225448907	0.492760267222	0.416329391696	0.751834060834	0.441776177734	0.731753203152	0.421264614249	1.0	0.827222722383	0.645838235774	0.424867054527	0.418370886863	1.0	0.407903475052	0.505748814961	0.55039144625	0.875360222383	0.445500330122	0.451255132525	0.525364754593	0.437907265881	0.434895142637	0.415261284145	0.49453664024	0.788670338077	0.72821952516	0.409737015254	0.468625282233	0.459572006785	0.509620205045	0.573578779158	0.406738829248	0.48480529419	0.439881728916	0.550994819198	0.413009523302	0.49743117482	0.406227045036	0.467649541838	0.384615922967	0.51601798621	0.441300832804	0.444120707777	0.46553317489	0.437462242233	0.467051821356	0.573961761292	0.406469464785	0.481865207476	0.490257646957	0.422352680836	0.528487457813	0.405413383091	0.423761425709	0.44562072979	0.43874981503	0.437566542761	0.448654225126	0.415723261692	0.442931642766	0.444258763167	1.0	0.44093858575	0.916162244609	0.802369002641	0.486343912335	0.40869443956	0.468530382179	0.425471081856	0.444835933389	0.464489225649	0.448738632211	0.563845042667	0.437514684104	0.438406274569	0.470456576313	1.02343841606	0.52930036155	0.475108538967	0.796624476503	0.80136475769	0.466331154012	0.620067235073	0.402092238381	0.498127923137	0.486268119737	0.518038372424	0.498976343423	0.396821310958	0.568589406409	0.453252104993	0.46199601626	0.359428119847	0.497007233015	0.593685510731	0.432385170952	0.786435372716	0.407814571307	0.449626028003	0.369371940145	0.455006283819	0.45734711881	0.437950537382	0.43263353049	0.436348797926	0.921477751968	0.452648805681	0.529705585603	0.620517758692	0.431590825939	0.483126048223	1.0	1.0	0.396611673921	0.433337083682	0.439105023563	0.420809803634	1.10998886009	0.558872529925	0.513765554948	0.548538435131	0.474622941767	0.597753909439	1.0	0.475275325348	0.451533917235	0.471949254568	0.462548353784	0.439473073905	1.0	0.40107017254	0.486906595922	0.419447716711	0.535414586705	0.390987177939	0.530442140447	0.856494996821	0.470281380853	0.43388208725	0.579850226487	0.556421126379	0.606164044534	0.419762274928	0.563613565034	0.441709150671	0.46701752248	0.470685342878	0.832169442027	0.472190649551	0.42135990822	0.489748312925	0.435139090671	0.472955515788	0.760910615678	0.469711332715	0.693523575725	0.845312722383	0.394300487149	0.451735261068	0.436967014653	0.866448761798	0.606543431953	0.670893200768	0.524782612108	0.42057365299	0.515307224722	0.711688308149	0.415641106887	0.439766994061	0.690596650366	0.554749174858	0.504878747233	0.505100592598	0.433507834613	0.843538759597
DD114	0.143632226607	0.0867993527526	0.151937405077	0.182457048385	0.311145798677	0.415571809949	0.238726045503	0.290439669885	0.252716570887	0.257164243963	0.0	0.200104385843	0.275173478021	0.151745639903	0.247903378544	0.198446000011	0.509949627206	0.544065018509	0.423193176531	0.213713051906	0.169507690184	0.396273246114	0.253550876434	0.138992661461	0.204255601862	0.245624430331	0.263298058777	0.229391630077	0.344248372324	0.30643705477	0.274419008296	0.22309733285	0.45097823181	0.704973939809	0.206429699935	0.399419326508	0.394714020442	0.262509853734	0.231170340686	0.544584813381	0.69227937844	0.416463613575	0.283426427539	0.303137357915	0.149403426719	0.319366678652	0.659850474199	0.157862595935	0.126426188643	0.248676488222	0.362715452761	0.295034706909	0.202119271151	0.373202302695	0.316409363032	0.330640948522	0.319570980634	0.266455322394	0.158393266793	0.200255479269	0.167591385539	0.558023334872	0.115855439213	0.272539119124	0.591888615106	0.256198588355	0.265708791383	0.27616148916	0.31349445758	0.413086999717	0.26110322596	0.302490184892	0.414774490527	0.30941717277	0.339922023526	0.315318131111	0.254432715753	0.491233105359	0.491930363089	0.310041486029	0.434457722905	0.193274830355	0.20921765517	0.224630652908	0.294319606501	0.310863038791	0.291319297512	0.422424643906	0.1402098556	0.6054982995	0.253038282415	0.266344807843	0.169977340303	0.268695793678	0.335532925815	0.385500129398	0.475973199309	0.207318104275	0.187320468621	0.272894957801	0.272000667756	0.233260812228	0.247001282277	0.336796573622	0.198745866893	0.169568528287	0.178860023461	0.220977452554	0.353746870088	0.227639216198	0.211046408442	0.278116520181	0.103579847825	0.149481567234	0.551429565025	0.20921212981	1.14416839944	1.19949553957	1.14096802251	1.14570769669	1.1859960306	1.19126930233	1.08226915024	1.08583198402	1.11615848664	1.11726996124	1.08262506626	1.14474259657	1.00479145202	0.997641162946	1.00376798593	0.925427124316	0.92409137319	0.919882225968	0.955170242647	0.952943802182	0.949623433486	1.03457139276	1.11677431065	1.02520803938	1.0119580641	1.00211756233	0.998608507487	0.99965143804	0.964250846816	0.969055423849	0.958820521517	1.04800865513	1.04956475632	1.1143891337	1.04885801216	0.976704691128	0.982682547411	0.962578494328	1.04112364129	1.03511347942	1.03519314026	0.923900054156	0.922888247854	0.923415575735	1.13193345431	1.03305282913	1.04627690394	1.03354705059	1.12069242902	1.11640423573	1.14657809542	1.14852235756	1.13703572131	1.04002497348	1.04891724839	1.2079819117	0.325265911	0.436199631483	0.118016816361	0.266288490462	0.422828956986	0.260974093532	0.252276473417	0.315122308996	0.224083075277	0.356324935266	0.146648743607	0.279448379111	0.533746056541	0.611710672254	0.197779527701	0.250409009737	0.146714493387	0.200258730912	0.453717275265	0.286034254435	0.323363773002	0.414470991172	0.428548871545	0.418806314572	0.694836249779	0.203727872987	0.228826971687	0.633507840432	0.176819091928	0.104931493845	0.43391068999	0.270334985902	0.193422357158	0.168620924996	0.268158315023	0.319148987373	0.167795016196	0.13890222087	0.177927617627	0.192256654214	0.301008590011	0.248071706692	0.23115549738	0.320430298957	0.565652883015	0.373967810244	0.241888140462	0.288096840971	0.537724053583	0.284385241839	0.304754090265	0.233193286042	0.387424370051	0.25595654085	0.227588831368	0.26380208166	0.370961876978	0.466333019691	0.292828687285	0.313571417612	0.261206742768	0.261390237542	0.285345526194	0.250484415685	0.394358790445	0.112044524197	0.249763988348	0.519708915446	0.245325858419	0.347949054208	0.235657010087	0.206226710871	0.24374028725	0.287356919858	0.200810036056	0.203874227949	0.323324199906	0.285308623618	0.209816393471	0.21107717871	0.513956184127	0.293990117755	0.100571821287	0.391897574389	0.277994408023	0.237686600459	0.221491212939	0.135683103452	0.265982935266	0.28788319994	0.152514986359	0.227360310294	0.239402857832	0.198806171334	0.18165438856	0.140043030052	0.337307821619	0.285275114564	0.34620181085	0.252331181811	0.203730414235	0.214083659749	0.472586968719	0.301384808688	0.286687675815	0.300743052842	0.178155735503	0.192364646057	0.179561811578	0.250703249138	0.21982573883	0.300308054148	0.446272469162	0.150531000668	0.241986211032	0.321348480844	0.235671758135	0.624700944624	0.243618939985	0.164929088116	0.482754827054	0.426995664513	0.817608686418	0.445692453132	0.717517323858	0.437757459834	1.0	0.794115518047	0.703836547326	0.428952710194	0.433837071102	1.0	0.42758408149	0.516372333542	0.53114411243	0.842253018047	0.508388840531	0.449739623982	0.495676443424	0.426991987225	0.495804747563	0.477783297434	0.480838762019	0.609757060296	0.638862397802	0.440559039688	0.459364711951	0.5295573182	0.484946150497	0.541724669101	0.400264424544	0.478438010028	0.442532297251	0.63477468651	0.390751081995	0.487543378283	0.445500724872	0.473375420998	0.385647473034	0.581432619388	0.527742107505	0.507067835472	0.557551037849	0.500559739599	0.55256221057	0.646286630364	0.455242999851	0.490302753734	0.483107744035	0.50034699159	0.524653915581	0.484851771733	0.407257876626	0.478798659777	0.481283812851	0.501826518065	0.492640810504	0.496178800928	0.52456690427	0.517946128778	1.0	0.482786606651	0.978562471938	0.781312173378	0.539700926768	0.505348707436	0.507499143536	0.504377623074	0.458061730497	0.485109813852	0.457034363431	0.565922367167	0.483387050334	0.477703849546	0.453202949638	1.08209893637	0.595836861812	0.558168856078	0.696497246818	0.867642896307	0.517777133193	0.612212409006	0.467969193185	0.511656885984	0.518969571145	0.500187810305	0.462920205299	0.46423871113	0.545843690034	0.45604248696	0.535885419883	0.406728417822	0.51679746514	0.560485082917	0.427530725213	0.849105434175	0.412379854666	0.461794305564	0.387153204772	0.483571687096	0.472945438072	0.522235107839	0.495288617166	0.477849468976	0.988486040058	0.512411030396	0.504365853151	0.693665617672	0.475535085091	0.480589853677	1.0	1.0	0.468752908704	0.512341323932	0.497091141465	0.505636839185	1.16725385521	0.631265526764	0.49318241618	0.534166487415	0.470067030193	0.57861100502	1.0	0.473494297845	0.520729192744	0.481481866611	0.46596444233	0.440479667462	1.0	0.460268190241	0.558590323161	0.446100597337	0.618039303101	0.415532510328	0.561800461924	0.823375518047	0.438606285122	0.441728533837	0.654110149981	0.61850823729	0.596489216395	0.470199073743	0.561519346211	0.492374321078	0.466954571414	0.486260364573	0.652324151888	0.503816169367	0.486206304114	0.505707157313	0.476089890978	0.457839303427	0.827486950136	0.472591302631	0.770836472099	0.812205518047	0.463401578763	0.427502909511	0.436060163786	0.681115873566	0.443591863134	0.637806391508	0.590378493428	0.482088150123	0.531757899923	0.636656688782	0.41064631636	0.440876258065	0.659239350859	0.540421658998	0.594665882114	0.493643206913	0.442435594794	0.924343911329
DD115	0.175903286145	0.251896282232	0.208631306682	0.119491175051	0.384795209177	0.409542885761	0.202666498281	0.403154568338	0.354156293562	0.139727912837	0.200104385843	0.0	0.22250178819	0.199943537996	0.202629170212	0.273431239249	0.523803491079	0.46976398613	0.458963703181	0.138472260643	0.316850975416	0.433133960622	0.308340872828	0.209926212829	0.243217878204	0.221388444575	0.376026387355	0.148256183372	0.284127410987	0.283823379227	0.315921183142	0.251079556516	0.432044321819	0.717324159711	0.165643300977	0.336915022203	0.477300633667	0.341650582005	0.215976508841	0.567205065554	0.708362582976	0.356498838906	0.295453718351	0.373594684825	0.176248373772	0.431314082228	0.682168028862	0.258001496662	0.268078293068	0.197810527851	0.284916096596	0.202674920041	0.157264659111	0.447163893934	0.24886924948	0.27841098279	0.341899266226	0.195276608555	0.285580628139	0.171067811221	0.317278999486	0.587018164645	0.241112932769	0.341734234151	0.547783825849	0.175507241028	0.15979903825	0.237610654161	0.380886911376	0.486467109512	0.200473328071	0.261610195493	0.447086934022	0.381267578425	0.364107850751	0.428097927938	0.179947667228	0.506146846756	0.57670504095	0.257462787039	0.496785467711	0.281287747245	0.318746613383	0.198718497141	0.226661743436	0.428320264153	0.403376823728	0.507573047311	0.279787177785	0.631714807155	0.342668557941	0.342756785747	0.184272611799	0.303182185845	0.388295037031	0.316535573904	0.485441304333	0.239698812205	0.181226670299	0.284258225872	0.344398109927	0.18447484187	0.314604585152	0.343229890585	0.295735855786	0.215858582646	0.298031320226	0.33278136707	0.47227256625	0.34706229481	0.310284730049	0.389873348136	0.226171789649	0.258789363794	0.564850813937	0.258633056347	1.11961823759	1.1754927712	1.11702895016	1.12176875713	1.16021540507	1.16727367745	1.04434609722	1.04776239303	1.09185284139	1.09241346031	1.06119068856	1.12001495476	0.98528095388	0.962616964147	0.968694377514	0.889770347427	0.88798692021	0.884639935861	0.92019530124	0.918102666799	0.914667507635	0.999998920639	1.09277647193	0.991043218441	0.975264795669	0.957690675973	0.954174131419	0.95518230404	0.930900190336	0.935691896123	0.925459988949	1.01277569423	1.01419003561	1.0904159733	1.0135904966	0.949656736079	0.955673791416	0.936313943338	1.00555946088	0.999412678286	0.999466604391	0.8901839671	0.889174016069	0.88909288718	1.10748360587	0.997594281701	1.01083271382	0.998092220026	1.09471624697	1.09206232267	1.12261489208	1.12439664748	1.11232625242	1.00266389419	1.01141730677	1.18326930258	0.399931923719	0.528637119283	0.221703412462	0.371133451262	0.494257532951	0.25804468561	0.209143165499	0.377634557085	0.336061490893	0.305282121334	0.263135307039	0.375786218352	0.61037991255	0.631995791853	0.111641503325	0.216481997787	0.184785418534	0.22068542102	0.439584744065	0.261175691162	0.320433925393	0.437713901407	0.418307411775	0.364621443448	0.713216735071	0.251185980807	0.257730764186	0.652770647164	0.265439813315	0.247962402015	0.431094893737	0.341823784281	0.332709728107	0.112973303603	0.260446645073	0.307745947503	0.210960731795	0.26359349264	0.281443168171	0.255942715805	0.253716434294	0.317862176564	0.244983994635	0.358266266067	0.576817813049	0.425631034082	0.195675945161	0.265636070589	0.487029226411	0.215307661562	0.227052923342	0.32990654358	0.398810003888	0.350012641991	0.269922635773	0.224517170356	0.423844374241	0.368538835452	0.291710600994	0.339009801426	0.203549314846	0.182030805957	0.200534634141	0.322176531418	0.337212388226	0.225938816641	0.298926474287	0.542376477198	0.194003607103	0.416828595199	0.263362402497	0.250271295737	0.316053039088	0.362867351301	0.218325688769	0.27954397316	0.379331105429	0.317477844617	0.221695989856	0.234307478476	0.522862375511	0.375552727781	0.196590840868	0.382470908509	0.370303090684	0.268253525691	0.228392510216	0.207297733849	0.20290265678	0.224898687191	0.18641432351	0.230118894423	0.30618162824	0.25525653195	0.285110298228	0.257378268167	0.312169019935	0.363469615882	0.313733267016	0.1439817455	0.226603779442	0.334207898073	0.434205952535	0.240753914522	0.207825241005	0.219378818762	0.239204859626	0.244898184336	0.257511190184	0.367357300268	0.27878516624	0.377703019557	0.459969549427	0.230903934578	0.316962827385	0.33024199139	0.185974013532	0.644874561337	0.202576440925	0.218737015959	0.481904656067	0.408658753876	0.779672811872	0.430364664512	0.719956061426	0.412095915874	1.0	0.807804211114	0.676256680057	0.416326229057	0.410284775306	1.0	0.400769720427	0.490957741788	0.539259837508	0.855941711114	0.463034754891	0.444660266739	0.503997182177	0.424943089626	0.454688540584	0.432099286333	0.485147329954	0.701648537529	0.676128802351	0.402995266713	0.454904438318	0.487934916944	0.491922139403	0.556944747824	0.395319776057	0.474213309257	0.428500373699	0.58038012646	0.407394234471	0.491071902725	0.402549001386	0.450871561799	0.353943530183	0.543947642369	0.476725384147	0.46082573277	0.512032756882	0.461127031826	0.500336801113	0.605315216098	0.411653783205	0.472190093873	0.474472207684	0.455855363167	0.513292596326	0.429094188302	0.406733132634	0.436601722815	0.435245894113	0.455479986331	0.432556012175	0.450921663062	0.472911655973	0.460756863647	1.0	0.436351106803	0.94389217139	0.786180485383	0.498684472464	0.448670672647	0.460676519437	0.453300526979	0.428142705699	0.454213495871	0.432242407187	0.556986073607	0.436571947026	0.431306499259	0.466983953899	1.05061499888	0.557178247415	0.508235986816	0.742921423789	0.829090535595	0.468741317228	0.606464345215	0.409109375475	0.494516904913	0.491814158335	0.50505413826	0.482716535	0.418663455826	0.555221784944	0.442321235723	0.493459510712	0.367169772295	0.500761104356	0.571207311455	0.430446911462	0.81496629547	0.39584111319	0.444195243468	0.363997748859	0.442710731792	0.442981926411	0.47126679447	0.437659940919	0.429785007659	0.949806099085	0.46064149373	0.510683507802	0.650405074202	0.426909540052	0.478366576875	1.0	1.0	0.416692559246	0.460610815488	0.457159741007	0.447141766023	1.13945578665	0.587904275831	0.50337616185	0.535374596985	0.464216719907	0.582912816204	1.0	0.468968440831	0.475602835843	0.46600535446	0.463150511726	0.425267609038	1.0	0.416507776215	0.519992743909	0.412706787509	0.568432563635	0.381648880458	0.526862457041	0.837068692256	0.450510717014	0.426785841255	0.607364931616	0.584741252697	0.599660623102	0.419976630533	0.554906286605	0.442774486161	0.452500159701	0.463805335178	0.740214389645	0.463562194897	0.435835839494	0.475085328944	0.423856721772	0.45956965389	0.788839879491	0.4696477302	0.723335028926	0.825894211114	0.410126514251	0.43674536583	0.423173261518	0.779901238563	0.518759706698	0.651501192256	0.552209045972	0.43446487683	0.497091925537	0.668699549208	0.407651003351	0.428253310596	0.66971250093	0.541791091612	0.544640342708	0.494926634103	0.424249806877	0.88601296474
DD116	0.267347032968	0.327923608347	0.271010536108	0.215472482948	0.416729601361	0.386714256186	0.243141219858	0.461623978714	0.42737813424	0.20004032204	0.275173478021	0.22250178819	0.0	0.254651753443	0.0753289379075	0.343421661771	0.57670940273	0.459587686384	0.512796454753	0.25399373864	0.376680229756	0.487131516589	0.342717958667	0.27547676418	0.317729414411	0.255617766961	0.437314069605	0.189806957269	0.138991007388	0.304119874274	0.393485804342	0.314750830929	0.511362551908	0.776871019248	0.12946926103	0.16414662077	0.505791887842	0.424342382333	0.265911855207	0.631063191688	0.760648219112	0.325062630218	0.344073708367	0.452549157319	0.233654606844	0.491144674259	0.723872508871	0.351567220414	0.345260210223	0.124944183898	0.245604025261	0.319543606058	0.252383959726	0.527520942742	0.211312996641	0.153409646689	0.381052597058	0.196730840508	0.35138101782	0.242065948639	0.382658526879	0.635051490655	0.312835921562	0.409152023605	0.530877752607	0.196186556452	0.20866487724	0.281942382478	0.455965348456	0.553808839513	0.082841217934	0.293835087429	0.514669847258	0.444782270383	0.391356586341	0.492496539921	0.224664336752	0.559785513746	0.642579104796	0.277457573748	0.552824299147	0.370470635562	0.389443593493	0.177553266985	0.212797057627	0.486591477672	0.476191949865	0.587527557949	0.341829940133	0.69290979848	0.415971976149	0.358153145966	0.155308132541	0.312073430351	0.417332673541	0.26364054098	0.567304652776	0.302328685193	0.233047014496	0.342235094365	0.391198443789	0.307149016864	0.397759019392	0.314303319682	0.397538434129	0.300873430129	0.374848280272	0.418101423045	0.528486505268	0.420041175193	0.392116108288	0.461248146482	0.310772007391	0.351793238731	0.611479089882	0.334474403665	1.07567226922	1.13164813714	1.07285168721	1.07759357209	1.11694327765	1.12311120535	1.02116973393	1.02484522145	1.04904759465	1.04942525273	1.02218271856	1.07620866857	0.960723622204	0.944005843716	0.94576856808	0.868488271885	0.868370795028	0.861940032696	0.900666412544	0.899906901773	0.895723600746	0.993642810016	1.04865556599	0.984576346072	0.974451654468	0.94876931389	0.942376222809	0.945487615625	0.925643625684	0.930448615261	0.920222576649	0.989963017075	0.991391083398	1.04626467272	0.990817439207	0.948779052299	0.954464656169	0.935857665647	0.983039239723	0.98117794095	0.981741652289	0.885646352552	0.884534955193	0.885421578275	1.06447249713	0.975011407363	0.98824573996	0.975514764333	1.05214544034	1.04911943457	1.07849607271	1.08059985962	1.0695470405	0.992465678651	1.00141802084	1.14078449304	0.437644599575	0.60209866447	0.27654533854	0.459354429501	0.574601534973	0.334665166451	0.312604841091	0.365786228328	0.410939987997	0.359377725471	0.326489231797	0.457499424276	0.69084929333	0.695629870939	0.188261809719	0.1412067929	0.199009149981	0.277505050136	0.444186376764	0.228931819922	0.305498437889	0.461697955481	0.446336569031	0.439229142071	0.770683235149	0.314980877367	0.280520274564	0.695786501204	0.317993733748	0.309975199262	0.499823295948	0.411228966666	0.391633502161	0.213486188781	0.265162695912	0.275259093449	0.264210887569	0.360361192128	0.343451797852	0.350743384566	0.311687645451	0.376463195411	0.226407932263	0.406191700344	0.632914705757	0.513617146842	0.28500568563	0.320529103174	0.438716516927	0.228804691853	0.22688658552	0.399546788192	0.452094686326	0.401625095839	0.323634856714	0.14373262585	0.510430175606	0.342648215134	0.332904526713	0.379880113871	0.110909586735	0.22623715468	0.217195314821	0.386260546437	0.303356508893	0.286063275858	0.360657205883	0.588924119037	0.291470053575	0.49624981408	0.23774033495	0.334075626218	0.366524243796	0.429603349747	0.28727734715	0.34401753979	0.469606509603	0.37794796562	0.303345087672	0.306651094855	0.572372283442	0.452123705336	0.275457609742	0.360850935278	0.433229845338	0.289424770165	0.324452682328	0.276529736251	0.213026204336	0.266454612512	0.256199292108	0.32900134871	0.330916771116	0.320575445369	0.36979224243	0.32055048187	0.302331711524	0.426642606981	0.367934784143	0.196092810439	0.294033232525	0.383537319261	0.351654133586	0.298787707345	0.208010675471	0.197231185198	0.318579901263	0.312563731732	0.255248445176	0.41699792016	0.362157622578	0.382651662098	0.509000565498	0.292959527804	0.399361627933	0.409491125193	0.10738546958	0.698981680765	0.274387686448	0.321001702886	0.520471964322	0.441004568011	0.74307836181	0.467685997657	0.753620659661	0.442863848148	1.0	0.839413510813	0.657718204764	0.448616890706	0.442919713593	1.0	0.433714431193	0.538259412067	0.568038018498	0.887553040671	0.462997968364	0.484520600564	0.540035018259	0.457516136555	0.440869704364	0.449601481458	0.51399529425	0.767708346105	0.702081026281	0.430302352003	0.496974355012	0.47318589575	0.526450445109	0.569378308736	0.419013258467	0.507278373965	0.460953231133	0.564931030949	0.443115991675	0.519230300877	0.41840600629	0.49173262408	0.386215510941	0.527678700996	0.436294112969	0.478730167097	0.473485522361	0.456619422584	0.4805846918	0.564597559554	0.43109293025	0.504134006691	0.522640215163	0.438660243477	0.541201118864	0.427482330257	0.459171480672	0.474362487648	0.462790989385	0.439563683224	0.466539099873	0.436543047806	0.446221602902	0.466127803372	1.0	0.472437234533	0.920621043878	0.816177233638	0.49420897908	0.445743963131	0.484569548189	0.443742243628	0.46403297058	0.495630061672	0.479089391778	0.584360253685	0.471628523947	0.462535063778	0.486394672411	1.03688240336	0.521147834667	0.490568479412	0.808844703979	0.792587018221	0.49691573098	0.634245933164	0.431258526398	0.529175966127	0.515208917608	0.538209207193	0.518069450909	0.412506733553	0.588646723714	0.475585001238	0.460520853636	0.379638704484	0.496805221132	0.606037233533	0.477790552233	0.789199603035	0.426976645873	0.479721843601	0.407385080186	0.480447171294	0.476699250506	0.45234123752	0.455934312052	0.471896955377	0.913107149912	0.474134370999	0.552928101921	0.617720602117	0.452548527151	0.521795204811	1.0	1.0	0.422783739532	0.444954165703	0.463823255246	0.443210864567	1.12206149798	0.573611103353	0.53212341758	0.569605612399	0.486885888603	0.612771384425	1.0	0.494914058771	0.467828488045	0.422571798641	0.52207215644	0.45535372578	1.0	0.397477102872	0.484044898729	0.447586088042	0.533480920067	0.412543256797	0.544879263212	0.868686495998	0.489326528587	0.459119564425	0.574702671283	0.559635766778	0.627027738995	0.43543014432	0.580283458733	0.454551588422	0.498799687202	0.503222871446	0.81556524096	0.504114680012	0.455452086504	0.488888330192	0.466452025489	0.50263056311	0.753249415337	0.496724027374	0.713190300147	0.857505540671	0.393779311282	0.47647603439	0.464757326202	0.838841992394	0.585002428417	0.682573152779	0.5173183462	0.437223458024	0.523750669713	0.694699542677	0.443036779695	0.46069734368	0.70631100263	0.573370372006	0.515116551289	0.524318786724	0.46293861226	0.872544339275
DD118	0.128850172352	0.152782523129	0.218590408814	0.180927720197	0.289458425182	0.436072249657	0.204139908902	0.290236606803	0.272513707389	0.242264077422	0.151745639903	0.199943537996	0.254651753443	0.0	0.235746851743	0.144103126305	0.47204568878	0.534510777708	0.410069108392	0.218087574985	0.20818899399	0.398232576989	0.21094392603	0.0893786366288	0.123499172511	0.222022105524	0.25420651455	0.231971163581	0.325891248699	0.282646588978	0.215504734198	0.174175161202	0.471031277031	0.667099177635	0.200141848877	0.383274049156	0.381809073798	0.259965941552	0.154164743444	0.52261797935	0.654048074003	0.391281252407	0.241476759056	0.289230791586	0.14070314499	0.324979666488	0.618776124499	0.204077832391	0.182301648878	0.213649435188	0.353606805637	0.277441835471	0.140913525401	0.367885853774	0.317390757624	0.327636057245	0.263119099162	0.215131933706	0.17917711385	0.188510056696	0.21724653315	0.530322213712	0.158872729276	0.257680579868	0.609852623832	0.259497249935	0.274764873548	0.209273165456	0.296912061101	0.397968849131	0.241009676165	0.228318488345	0.415683788524	0.294608656268	0.275958395126	0.312500737449	0.242993666153	0.454550972315	0.487247356088	0.231166927874	0.404375502353	0.202386204261	0.214600447867	0.165917022996	0.301606140861	0.300000040107	0.310075594917	0.42137776806	0.157705709359	0.582774789546	0.212861577896	0.25827259648	0.167616044851	0.205727781774	0.296126112657	0.386996685518	0.461845489571	0.182689480804	0.172316619872	0.228091552522	0.235659017455	0.150096491636	0.23806065893	0.3707099515	0.227100449407	0.220141442198	0.20209074318	0.250788526822	0.363139308733	0.245171230305	0.212088598993	0.294782838478	0.135507018933	0.21080391229	0.507691598575	0.130711066259	1.13808559258	1.1938061741	1.13497880051	1.13972104413	1.17995570217	1.18527004138	1.07836301665	1.08205782425	1.11012213394	1.11121926304	1.07446450384	1.13862715215	1.01186100458	0.999775149025	1.00407800165	0.926289186435	0.925145491438	0.920357979904	0.956704363338	0.955865820463	0.951710443329	1.03318212707	1.11082739971	1.02409296499	1.01396087157	1.00442554671	0.999993783093	1.00103058947	0.981407689466	0.986224802186	0.97600130593	1.04824576886	1.04983885439	1.10840029946	1.04908903367	0.990420222591	0.996136034576	0.976414924732	1.04128510437	1.03717747559	1.03753093683	0.941497519923	0.940329427487	0.941238310438	1.12680242757	1.03328572616	1.04646891434	1.03376087572	1.11505882479	1.11037068115	1.14067504681	1.14286609165	1.13198077559	1.0359589978	1.04485146906	1.20314159724	0.307057111608	0.434158966351	0.190562161944	0.289797707152	0.417594168073	0.182161183306	0.214841579391	0.261468319781	0.239943709091	0.307210197518	0.151983876314	0.291207087056	0.531363826195	0.58793223551	0.174791516211	0.237860140255	0.216688584807	0.209088077769	0.511071460616	0.294951331306	0.382474542445	0.428260318468	0.444157420937	0.39694977963	0.66687985303	0.183386051649	0.286406082839	0.59502549085	0.167756899941	0.136991815898	0.395017013423	0.242082603825	0.223195495089	0.157031862815	0.201058407209	0.270111998704	0.155189325932	0.223129935729	0.230490431808	0.161494111422	0.278899371591	0.182258144868	0.152515882377	0.271411816492	0.530626963548	0.345333327975	0.149589902942	0.265992399856	0.536536027422	0.254583952702	0.27389467919	0.233504228059	0.346329810954	0.232273045156	0.147022551824	0.250815273231	0.347490698035	0.452315156933	0.247629918638	0.261574588859	0.243546429179	0.227192454277	0.275610231187	0.225992652256	0.368156830393	0.116838929949	0.200139959857	0.485033877907	0.152682530872	0.321228285361	0.265662229682	0.167188411488	0.222507906143	0.25030569125	0.140914656107	0.179248561163	0.311446524259	0.23482869288	0.173237414376	0.225798879735	0.470655626352	0.285438438202	0.194238220257	0.42908212245	0.259908064942	0.183305982738	0.171229679111	0.215386592117	0.237737801899	0.264574381927	0.0839860182411	0.160527883922	0.207126021063	0.17584888401	0.192812965133	0.149841611225	0.364345483802	0.268384579667	0.313982920086	0.217800253495	0.223362764123	0.210744775288	0.425538514858	0.272840244997	0.269236519795	0.286860559297	0.17150388733	0.193821288151	0.175631070708	0.251458025004	0.175348960392	0.285042223152	0.408540416802	0.124240774521	0.232276267225	0.272116814622	0.21669896088	0.595943448013	0.17699235505	0.153036406043	0.438135122942	0.412711122459	0.829724490776	0.423956457325	0.66626487025	0.435082008204	1.0	0.754430995069	0.706384775567	0.414308743549	0.419931161891	1.0	0.413201173457	0.505329836351	0.488391663532	0.802563379878	0.502851860325	0.393982667294	0.455042305959	0.413117516169	0.490354098171	0.47513557967	0.430561351449	0.617735699651	0.608214778968	0.426739937054	0.420316589687	0.535764834503	0.461109709966	0.503206042676	0.404153459933	0.444896444733	0.419631491329	0.641714597042	0.386604263963	0.434822535068	0.443646551978	0.472375562424	0.392887898814	0.579063077021	0.525189014823	0.50213374288	0.553244826509	0.485255365034	0.566627632698	0.656498499957	0.459714148905	0.451890704557	0.483036167622	0.494888653608	0.469559891727	0.474381458803	0.379662159738	0.474434593658	0.473602419499	0.49949256004	0.481228890468	0.503869357797	0.528589517236	0.508528551893	1.0	0.478097780844	0.978803163734	0.727665167899	0.542003853184	0.506167414258	0.502288911245	0.494480401328	0.454342938422	0.473549665089	0.449355900593	0.510791934668	0.472851585852	0.464085340878	0.411998472095	1.07818807235	0.607084284196	0.554452132338	0.664370613364	0.878924188132	0.510043712503	0.56296235774	0.460027058352	0.456427756554	0.504045011264	0.454345822972	0.436046070305	0.462435987418	0.503162668537	0.415653141399	0.52931073965	0.424361667781	0.486083561298	0.519365551462	0.428560428015	0.853677626031	0.397683309582	0.445782199319	0.393032145605	0.472212241704	0.462888148395	0.514974694394	0.484273376297	0.468392219596	0.999844076766	0.501854940157	0.519827386623	0.694338520573	0.465390695474	0.437573819022	1.0	1.0	0.458744994734	0.508832700487	0.494100549232	0.490577539922	1.16595507651	0.633881216101	0.449480325863	0.480949596153	0.464424525267	0.525635396758	1.0	0.431131471281	0.516054041871	0.499221522996	0.452911594591	0.434963028896	1.0	0.472423550466	0.566603749546	0.437246695363	0.624724117422	0.429456661991	0.546261143841	0.783686733401	0.404210268814	0.424935231593	0.663784442926	0.622662298308	0.538482671976	0.467136675704	0.505415077149	0.486005655784	0.452166051287	0.472408562679	0.661108124203	0.494180867551	0.474409015771	0.518108144351	0.467087748386	0.458913697273	0.838979566012	0.422331345299	0.779230000163	0.772520501998	0.46542349967	0.394956833534	0.394954263474	0.688783152682	0.447328202414	0.598116961022	0.602918074471	0.469609362833	0.54243972286	0.602636915328	0.356788518264	0.439758934687	0.618116797161	0.486128698886	0.579599072228	0.441925323949	0.430185626639	0.959988285301
