	DD10	DD102	DD104	DD106	DD107	DD108	DD110	DD111	DD112	DD113	DD114	DD115	DD116	DD118	DD119	DD12	DD120	DD121	DD122	DD123	DD125	DD128	DD129	DD13	DD130	DD132	DD133	DD134	DD135	DD136	DD137	DD138	DD139	DD14	DD140	DD141	DD144	DD145	DD146	DD147	DD148	DD149	DD15	DD150	DD151	DD152	DD153	DD154	DD155	DD157	DD160	DD161	DD162	DD164	DD167	DD168	DD169	DD17	DD18	DD2	DD20	DD21	DD22	DD23	DD24	DD25	DD27	DD28	DD29	DD3	DD30	DD31	DD32	DD33	DD34	DD36	DD38	DD39	DD4	DD42	DD43	DD44	DD47	DD48	DD5	DD53	DD58	DD59	DD6	DD60	DD61	DD63	DD64	DD65	DD67	DD68	DD7	DD70	DD71	DD72	DD79	DD8	DD80	DD81	DD82	DD83	DD84	DD85	DD86	DD87	DD89	DD90	DD93	DD96	DD97	DD98	DIET1	DIET10	DIET11	DIET12	DIET13	DIET14	DIET15	DIET16	DIET17	DIET18	DIET19	DIET2	DIET20	DIET21	DIET22	DIET23	DIET24	DIET25	DIET26	DIET27	DIET28	DIET29	DIET3	DIET30	DIET31	DIET32	DIET33	DIET34	DIET35	DIET36	DIET37	DIET38	DIET39	DIET4	DIET40	DIET41	DIET42	DIET43	DIET44	DIET45	DIET46	DIET47	DIET48	DIET49	DIET5	DIET50	DIET51	DIET52	DIET53	DIET54	DIET55	DIET56	DIET6	DIET7	DIET8	DIET9	ID100	ID103	ID104	ID106	ID109	ID110	ID112	ID113	ID115	ID117	ID120	ID123	ID124	ID125	ID127	ID128	ID129	ID131	ID132	ID133	ID134	ID135	ID136	ID138	ID140	ID153	ID155	ID156	ID16	ID167	ID17	ID18	ID188	ID205	ID209	ID21	ID210	ID211	ID214	ID216	ID217	ID220	ID221	ID225	ID230	ID231	ID235	ID237	ID238	ID239	ID240	ID241	ID25	ID254	ID255	ID256	ID257	ID258	ID259	ID260	ID261	ID262	ID263	ID264	ID265	ID266	ID27	ID28	ID29	ID3	ID30	ID31	ID32	ID33	ID34	ID35	ID36	ID37	ID38	ID39	ID4	ID40	ID42	ID43	ID44	ID45	ID46	ID47	ID49	ID5	ID50	ID51	ID52	ID53	ID54	ID55	ID56	ID57	ID58	ID59	ID6	ID60	ID61	ID63	ID64	ID7	ID8	ID83	ID85	ID86	ID87	ID89	ID9	ID90	ID91	ID92	ID95	ID97	ID98	ID99	ITS3.DD102	ITS3.DD107	ITS3.DD115	ITS3.DD116	ITS3.DD119	ITS3.DD136	ITS3.DD58	ITS3.DIET14	ITS3.DIET54	ITS3.ID128
DD10	0.0	0.621010129118	0.630891524149	0.479318645164	0.657247932559	0.727088523697	0.6008984352	0.620924811413	0.630718557863	0.531996285384	0.631041235763	0.535265334545	0.669719348563	0.600374816984	0.599798594889	0.57670259216	0.704572492203	0.689335822125	0.715665953682	0.54618875841	0.657919690887	0.693614566195	0.654694410541	0.552404683663	0.593399136949	0.616154209252	0.64108170402	0.520844093286	0.62103621861	0.649765048879	0.564977803134	0.634313630932	0.695785287081	0.786146093818	0.611843946866	0.637537676985	0.697826244336	0.66002781316	0.605688343474	0.720162731192	0.733865555436	0.614604191024	0.599947444488	0.656129547603	0.626474720667	0.674274457717	0.754642454295	0.664174824977	0.657761475144	0.607729762192	0.631494131125	0.518996814184	0.643660449774	0.674117957726	0.595925664678	0.608028920468	0.675542490093	0.614517538192	0.633617878529	0.609160737297	0.645940536016	0.721430811951	0.61852866971	0.66438196586	0.660490705913	0.503180471756	0.535864143414	0.597459630069	0.672690669647	0.753754544573	0.622690357114	0.612200867132	0.733622170695	0.67338715383	0.652591593857	0.67144138054	0.629296572826	0.689649201541	0.738241784316	0.586080344969	0.686323014878	0.617138620623	0.623504989881	0.585600531829	0.592791841222	0.620623688375	0.629413219742	0.655145059302	0.644527160323	0.686633146986	0.623699621236	0.633732475662	0.605838601693	0.692762477213	0.651150782977	0.606736568665	0.667585263068	0.602620720302	0.666315664608	0.686965611675	0.628120468837	0.498714869965	0.633716369789	0.698917256897	0.666452727245	0.614748700968	0.641352459265	0.648215126949	0.649143598772	0.61041887179	0.602084294423	0.658388190298	0.630370136143	0.654216311243	0.65087780857	0.566511948349	0.960671564738	0.938879733553	0.979045119277	0.979014119468	0.961778540099	0.918605942105	0.897531387259	0.906636449404	0.961607145751	0.9616427001	0.914397663118	0.960762543499	0.866019997273	0.928755929179	0.946992501161	0.914387347037	0.930733347927	0.921033406993	0.949856770681	0.93154545146	0.939449622499	0.904356497537	0.934986183855	0.902988837527	0.916564604178	0.916265738561	0.855667053182	0.847107359716	0.94328892311	0.94638766773	0.947003607133	0.937922664025	0.957679582893	0.979169047457	0.958148244837	0.922390700922	0.926688804656	0.927219959152	0.903288584119	0.934068167707	0.932442152015	0.929561711804	0.938095948659	0.928331972427	0.925373077981	0.951720805166	0.928300589737	0.951321655303	0.924926694831	0.979374855702	0.962122082507	0.962772620361	0.908338570997	0.917612024698	0.870406915313	0.916634886975	0.692736148079	0.653614493794	0.659052633152	0.62970404902	0.678494440161	0.671429372755	0.550606819781	0.648980588516	0.653292826793	0.584862241577	0.642080017337	0.663112785191	0.737552024095	0.742153712579	0.50825118637	0.600889968163	0.611766395916	0.699150629591	0.641083395412	0.634268945494	0.614028638369	0.71630368716	0.711013578384	0.635508069492	0.759635604558	0.659566425861	0.631833164872	0.739193997928	0.635579768013	0.672815001622	0.677784804436	0.621313648974	0.66187836938	0.50039204193	0.607595384301	0.596929797678	0.646779823731	0.688490130708	0.713043865678	0.593070780049	0.709081678897	0.597456325163	0.618932538372	0.632252616885	0.703570921787	0.697407600246	0.574475461048	0.658763800991	0.726860180637	0.666382120608	0.664743325983	0.672246386105	0.671950132365	0.728467315186	0.641540035393	0.642400587111	0.702513378136	0.656792438604	0.641610218777	0.655641009139	0.647294206301	0.624244486045	0.604960629057	0.661240528556	0.651944566621	0.641516713266	0.616883120117	0.687480166374	0.564837518628	0.687926894617	0.632812718251	0.639149448514	0.610145965038	0.676180047399	0.61644929452	0.627701014097	0.652903921894	0.679476065308	0.617810057589	0.6051347913	0.689741547578	0.683498852991	0.66866388441	0.669361331711	0.694217718653	0.598213037022	0.668406916098	0.656592524908	0.641676702318	0.621317756086	0.584773332488	0.531164648965	0.663006810037	0.669755945422	0.642894083228	0.659701902884	0.724718677853	0.670305156315	0.622893929293	0.52964292279	0.626198368521	0.658855668045	0.657125907428	0.595158682385	0.65033261381	0.641115122839	0.654864402293	0.623713884924	0.689824016626	0.664021659238	0.618087119655	0.654474043823	0.744070371892	0.586851488545	0.682932858097	0.635825873426	0.651022927215	0.742745416036	0.630418006135	0.524591775984	0.827551453607	0.826367331861	0.808349249444	0.822743974344	0.841136525421	0.830870658878	0.800575445816	0.813762207073	0.804487086155	0.831833836001
DD102	0.621010129118	0.0	0.556466917833	0.650825358541	0.664635800523	0.71511128265	0.688144788122	0.633510875719	0.592726759469	0.640497987968	0.437047323971	0.671785017232	0.698567884315	0.629034377886	0.681518644306	0.608479649839	0.706960838355	0.728911929577	0.707908062775	0.60620978101	0.45691167035	0.709221117136	0.695736253111	0.585304351019	0.57966706302	0.640888012183	0.597750035006	0.57521894378	0.710635321776	0.684826778918	0.633182609443	0.687632910344	0.703871182886	0.752459847276	0.696219295224	0.715420701845	0.691439885042	0.655458968633	0.656652527166	0.690063991959	0.721619594738	0.689954316403	0.654980049458	0.680858476014	0.648714909803	0.564294613278	0.768244458514	0.545024736022	0.539628589352	0.68490765978	0.694745681326	0.582241812333	0.663936154161	0.667501274723	0.676350142107	0.711963157989	0.707255445636	0.618645867417	0.536262551713	0.686512329607	0.418713612732	0.703874397624	0.502687108565	0.663902940059	0.653567437018	0.610805957397	0.637266728725	0.68257880063	0.663825922688	0.742806339378	0.714174639949	0.659300736039	0.707477560012	0.6991764564	0.684275798265	0.50175886133	0.714273305869	0.717883843597	0.714600937361	0.699927005538	0.670920087638	0.60137195581	0.632393468347	0.727779636886	0.68012897226	0.571742395233	0.590696619323	0.590638911539	0.511307622433	0.694209151428	0.606660146177	0.67757450404	0.673118796678	0.73189351164	0.666975719713	0.704633625517	0.722238751568	0.626815560216	0.687028312004	0.719149232992	0.636258166538	0.638038544373	0.622334622306	0.629798849096	0.560685835209	0.601282289306	0.560194475233	0.511096064017	0.615959635956	0.592242960191	0.538615763981	0.563118336158	0.480322212877	0.565641969347	0.683662058068	0.618654446146	0.965087612266	0.935500377163	0.973306099093	0.973255773522	0.966312276328	0.89680035903	0.924661184789	0.935157152571	0.966123804317	0.966162935534	0.919129037502	0.965188926673	0.887243636007	0.924819128589	0.947626807157	0.913840920376	0.933737506429	0.924748293464	0.957523904818	0.934834889864	0.944835349936	0.911839844465	0.944483448209	0.910316264236	0.92715414498	0.926741627945	0.851149323316	0.844245950581	0.947359520835	0.947111695714	0.947862920001	0.941566552712	0.966565086189	0.973506879306	0.967031421248	0.917441637008	0.936068155785	0.936803777551	0.905411392885	0.945516943787	0.943849131636	0.939269846466	0.937125065925	0.937979190717	0.926255485696	0.96793482047	0.942194567003	0.967604480067	0.94665839533	0.973838885363	0.964558946815	0.957240195463	0.914449712191	0.950230367461	0.898675273455	0.919585882281	0.68216764688	0.623789882067	0.559042778651	0.52816513709	0.64202428537	0.672108104944	0.639438981131	0.638279000451	0.581815964662	0.698517385637	0.628611340758	0.563453427083	0.681592852172	0.718739069529	0.600819470336	0.691089423747	0.565336267393	0.71380066112	0.602347354361	0.608698822479	0.564415619794	0.685231036384	0.723563696919	0.735856239325	0.703017019238	0.68846166094	0.55287940353	0.74755696136	0.636702633991	0.500067127129	0.738231944317	0.637761133078	0.568772671972	0.650399729227	0.674976918336	0.676087273754	0.573178953502	0.552451888952	0.671736363625	0.595220312271	0.702776608922	0.627508504372	0.729011072753	0.595562879454	0.744686094736	0.702135982605	0.670082230074	0.695271421647	0.751843492244	0.701467288619	0.713046063665	0.661136661983	0.683197352104	0.686621512554	0.669601962322	0.656687171702	0.67047933936	0.73732830072	0.643786679207	0.658477772739	0.702284775398	0.695956939011	0.648855291105	0.688005659606	0.696237077159	0.516320047117	0.628267173763	0.689628102478	0.655383851794	0.682148646995	0.583812924643	0.608467342645	0.672762333639	0.627467088944	0.659082632975	0.579022679748	0.679206662394	0.65598867243	0.697092356566	0.641671794262	0.709159066458	0.637560810226	0.571527541908	0.618589156325	0.622860558686	0.671405588901	0.66776873444	0.588267535466	0.675679501906	0.690173050184	0.656529941949	0.672242350769	0.719750069961	0.666860106612	0.568528186338	0.613980488869	0.724363310368	0.680512943118	0.692130326281	0.663414331696	0.65730097315	0.654382663267	0.688656768703	0.675589372677	0.669670098509	0.732573095073	0.629966811114	0.641407380904	0.710709098963	0.651392539285	0.593772019211	0.704074281183	0.75669227359	0.612067933494	0.661941802469	0.666835998473	0.740482888761	0.731653125034	0.712602837922	0.618125489391	0.864377496362	0.86770341077	0.859420123002	0.843177398262	0.874653182284	0.87835753455	0.864037177876	0.854473657062	0.860747515722	0.859199537381
DD104	0.630891524149	0.556466917833	0.0	0.649382418651	0.684269411091	0.71848396988	0.701074766587	0.669158778004	0.662128800309	0.618950245332	0.555910204015	0.635898082167	0.666832300908	0.635844100566	0.68835204618	0.636351449614	0.71465866204	0.710038045069	0.700042549464	0.642263656572	0.572042146701	0.715291312781	0.683018856775	0.596306662061	0.650599910745	0.644281223796	0.644834091862	0.582028109575	0.737597130903	0.684370222626	0.656240925377	0.642919924736	0.691959959497	0.723141993881	0.693358764536	0.696839798741	0.736340819401	0.670401797763	0.658507878758	0.694158893278	0.689200489108	0.700995904691	0.636639200139	0.678242041046	0.666366255062	0.624813521924	0.754329239857	0.553049448837	0.609668854033	0.704556302623	0.675019928894	0.631545947804	0.675003683839	0.673394502441	0.643208397793	0.701833117784	0.754564926645	0.649181275038	0.613029787484	0.696741785154	0.557571637698	0.707534589054	0.536805072826	0.663899089529	0.663402001021	0.609009753619	0.620335758335	0.652027153025	0.647135238325	0.77034646748	0.700022864395	0.669374198799	0.690488064569	0.69596009692	0.691673526942	0.6299168191	0.688386512093	0.67474914402	0.746405398202	0.674241137029	0.726968865756	0.547595354784	0.687637526173	0.717553460304	0.684782133669	0.641571745628	0.643881671759	0.661300244871	0.570030617947	0.720426645541	0.640555499378	0.660652761682	0.674582026471	0.731695557042	0.659333968798	0.664952538905	0.72247383425	0.676911459199	0.668522006141	0.717415470216	0.637367151473	0.64221813877	0.662806122917	0.576798045458	0.501134307747	0.550155154851	0.484145342214	0.510300716247	0.650589059566	0.508056087409	0.529696686242	0.487964100149	0.539150403416	0.518271847306	0.694980116234	0.65890689708	0.940050180049	0.939925222576	0.975234364508	0.975191052887	0.942058719382	0.904104013376	0.907157096938	0.911573697842	0.945585878381	0.945645682805	0.906052056315	0.940216094807	0.865898825757	0.904482533155	0.925761637594	0.89338418375	0.913144203969	0.914794666861	0.946553321833	0.918431069599	0.934166672589	0.885702114986	0.917575267019	0.88379616426	0.89744662829	0.897737748241	0.826856067603	0.817740164063	0.930264526648	0.929952230509	0.930899323415	0.923001668449	0.946439243564	0.975407279165	0.947146329829	0.898546511201	0.913881203698	0.914977205342	0.885156546075	0.922131879914	0.91985863842	0.923493310567	0.92091943106	0.921943439719	0.931166347992	0.948519168268	0.920889618747	0.948016703809	0.927975111185	0.975693620144	0.967054511326	0.956251687821	0.911213482982	0.923953877329	0.875248423256	0.914159042419	0.692815317055	0.656050426846	0.524180823928	0.532021002392	0.639167098211	0.674657557055	0.65861668632	0.6926725373	0.564607841519	0.696325420948	0.609676610073	0.549379912618	0.692328666906	0.69815578246	0.605756166006	0.685932594113	0.588535913499	0.686258938881	0.495389331721	0.609824553403	0.599852586415	0.683572819041	0.702470561426	0.710287607243	0.662998807279	0.710849876948	0.539294102231	0.745223941162	0.635882891549	0.599668136256	0.72043440581	0.621596958894	0.621537894761	0.646417285551	0.684898215723	0.686483890356	0.586576439007	0.570007964278	0.671466387783	0.652768195286	0.646124047573	0.613629618341	0.709027152826	0.609615007991	0.741771749095	0.707575363912	0.680193612537	0.676538105383	0.735380362088	0.698919996195	0.709122303653	0.729388259427	0.677509104481	0.739267633381	0.701199935615	0.709681897802	0.687918227156	0.703662684339	0.687545312863	0.683956307633	0.698578382362	0.717092300719	0.63601677202	0.716241350026	0.707123722844	0.581362213448	0.640320296329	0.683974945042	0.663970248793	0.689562798447	0.586095678163	0.623967838047	0.699999907879	0.65773196004	0.622224931036	0.620994181838	0.688494322975	0.683577265327	0.702235343737	0.661630484219	0.693767875885	0.659549967321	0.612108125702	0.549138822119	0.634007541817	0.66501378794	0.665647624553	0.564237799765	0.66581614815	0.662279204272	0.6656641852	0.692451436633	0.697792220205	0.663939310598	0.549464002997	0.56069200299	0.693355838445	0.71915431798	0.66451967574	0.648194521466	0.658801772233	0.684855016867	0.707805759633	0.642850149377	0.663730748703	0.691011686457	0.64251539756	0.647839933504	0.722095317149	0.640662784335	0.642489281434	0.698489150668	0.741969137303	0.647696323257	0.666061229782	0.655719284969	0.740641336985	0.722969878674	0.6856176807	0.65362373695	0.859680188901	0.845503163492	0.856612381574	0.846602068576	0.863613227177	0.865593076203	0.854196651897	0.842615701289	0.846762184813	0.849562827259
DD106	0.479318645164	0.650825358541	0.649382418651	0.0	0.644830552152	0.729637891461	0.614789066976	0.595783754948	0.622513079759	0.53353661936	0.644800944295	0.553120039463	0.667860726498	0.593512720606	0.617589741974	0.603027706246	0.726320976873	0.678087535586	0.693856491428	0.566797250228	0.667386939176	0.715714799508	0.678489284674	0.591591357429	0.606367402221	0.63513546131	0.649943282863	0.487249743143	0.623268130567	0.677489449806	0.553795241866	0.616778956636	0.708273837197	0.796491188786	0.603373143964	0.626330023012	0.689163506743	0.687944855081	0.599381382577	0.731858157501	0.748162275935	0.635724697057	0.658815255836	0.715221682551	0.633505233341	0.695950106733	0.736949564909	0.688649431711	0.661267005733	0.635520226049	0.642421143667	0.551842394647	0.594242657583	0.706573788252	0.588169773907	0.588150563112	0.66690681674	0.627915692564	0.654108325584	0.640662891308	0.654250243002	0.72850728524	0.616585761918	0.670470538303	0.662469427402	0.504781415916	0.568153000377	0.598468320608	0.664560335231	0.757830732786	0.616752478565	0.605343098559	0.714724294807	0.687667050954	0.653698283798	0.689336764314	0.594569616756	0.655456281684	0.731003515508	0.595331801928	0.684677960777	0.613017665258	0.643679645802	0.63819536872	0.593757913188	0.636439745395	0.651466890366	0.66577682139	0.663405300598	0.69626082079	0.625761861875	0.657848119957	0.63204478523	0.698784589386	0.668322086628	0.616444559611	0.712445601959	0.609431168537	0.682119961988	0.669641939822	0.622826458094	0.566019657113	0.653658989795	0.687649074057	0.66465269904	0.650936213323	0.662960875848	0.658615943004	0.655593463595	0.604932295414	0.632648368302	0.676445591128	0.650033657594	0.654203787463	0.659431043769	0.570582497623	0.94950710641	0.951705402767	0.979102068189	0.979071236771	0.9507968949	0.918823350873	0.939596544728	0.942781869975	0.953938039984	0.953980901563	0.927561046924	0.949624856003	0.903825397846	0.916988603661	0.935175957093	0.911617602406	0.927911893571	0.94184802202	0.957098740851	0.933472607591	0.944495002114	0.91992989364	0.951530556698	0.918522689542	0.932293321586	0.932193221586	0.874052391665	0.866218808258	0.940637159763	0.940411008375	0.941097782078	0.935454494296	0.955181991342	0.979225325669	0.955678150464	0.914498996699	0.929193839218	0.930283250151	0.902844608554	0.933949783762	0.932161488957	0.93702191551	0.935216653816	0.935932784017	0.943948524382	0.95664760991	0.949956160478	0.956291838072	0.958968174907	0.979430028831	0.974888642974	0.965281336148	0.944583461152	0.95560367053	0.913231739228	0.948418694757	0.758197082038	0.64835770261	0.677953994178	0.62391663519	0.706725314281	0.675794975919	0.597161055486	0.688541847622	0.666261830255	0.638274086481	0.659074791063	0.646718717497	0.756780502426	0.718400657248	0.522339733835	0.62772387824	0.613739030036	0.70643883852	0.633252175177	0.660819703159	0.62837900383	0.699219899677	0.68982112375	0.665997511447	0.766994792509	0.692126453711	0.652424834432	0.749903340193	0.664291696524	0.687198257624	0.730906736562	0.642459267545	0.680698285674	0.566236848843	0.660685518109	0.626706394711	0.661600136086	0.705421930718	0.725631315688	0.636403377015	0.730814156989	0.649154962562	0.63713997213	0.670681722515	0.711787294274	0.721945345176	0.589678141142	0.65791230259	0.744281183582	0.65391944513	0.644343415169	0.682254211817	0.715022870399	0.786759132628	0.67211789097	0.670944244926	0.705150371256	0.625023169426	0.633299549182	0.64743373568	0.67259865038	0.659868008867	0.606523285071	0.697343881784	0.684822331775	0.648454491459	0.643207737028	0.730230517901	0.625649145593	0.740204093022	0.623079835934	0.676687122348	0.665761041479	0.679524030408	0.632204258177	0.65834182831	0.687815345177	0.724784215179	0.652093972749	0.601850716752	0.698393061007	0.714038889445	0.659629743203	0.68084952321	0.73398822792	0.654962591816	0.665258421697	0.672595327789	0.633411316294	0.665786671984	0.572304068063	0.561201602403	0.693439888852	0.69857908695	0.61946017453	0.708269244779	0.745868017473	0.724033693026	0.641858373381	0.51770574319	0.6390983189	0.685738614137	0.671958511184	0.629233741966	0.597473108403	0.608674019555	0.699610991468	0.669799624169	0.677791868516	0.672039708889	0.636413957337	0.619471775228	0.768762164602	0.601804961091	0.676562772408	0.651326639261	0.66766650039	0.730684274467	0.648133775904	0.566703006909	0.841320566316	0.845627523114	0.827822030085	0.838132601124	0.857693921656	0.854150336505	0.829958168738	0.849204867917	0.837000693067	0.856631114406
DD107	0.657247932559	0.664635800523	0.684269411091	0.644830552152	0.0	0.762476309623	0.666826272287	0.643016670882	0.648890959551	0.643378101086	0.691695406566	0.652148162926	0.660378701019	0.641287338578	0.658793564515	0.622456091702	0.772669473735	0.595627221035	0.754736576573	0.608063439616	0.664914390821	0.76059491985	0.471450496767	0.645098676726	0.637388096687	0.502446515925	0.630467425419	0.613726528957	0.608076613533	0.421393528028	0.636725195028	0.692337095033	0.746424503259	0.80915480541	0.651481286315	0.670097409232	0.634279172633	0.509491781473	0.637347134209	0.738645176865	0.768537471902	0.652698316723	0.543906525511	0.592131717822	0.705021788151	0.679429638188	0.76329676168	0.720690317666	0.651069498666	0.641033039423	0.720407350889	0.601998013817	0.696372531397	0.711651978813	0.670703361177	0.650579088193	0.640074146723	0.682166853525	0.69632665393	0.665393458804	0.690089830421	0.738039349083	0.665213277259	0.460383973733	0.708969938173	0.645255385914	0.657948768269	0.670323967117	0.658432861545	0.687700623263	0.647317336927	0.630885222438	0.76728969301	0.504570954044	0.616433209753	0.654469689006	0.699585398425	0.769608149379	0.602924835415	0.674585148631	0.595002744909	0.707341625379	0.610682256443	0.644737522015	0.68532108851	0.643153940156	0.682712995693	0.653700889025	0.659749286101	0.74792411825	0.655173813276	0.666952020256	0.657699988937	0.641913510754	0.644340027704	0.684437366967	0.763688167698	0.620531445063	0.691121128489	0.669616466994	0.626330580447	0.637422607506	0.66974720222	0.738522571213	0.707004584726	0.722930205228	0.677932219667	0.675713505961	0.642534806586	0.683208912318	0.686740811746	0.679169673511	0.683889715078	0.69079816199	0.720009381863	0.672132838284	0.94448230273	0.917795161102	0.952897249881	0.952802602523	0.946550911135	0.871956055111	0.938618732654	0.950195049771	0.946233168057	0.946299157183	0.913322616738	0.944653790971	0.901257978698	0.944099461727	0.9452484881	0.932180243704	0.954226719504	0.939000535286	0.958836611143	0.955825167984	0.963558952697	0.943722978065	0.941170229071	0.942745198745	0.960203241605	0.940658475237	0.903296901105	0.879840940804	0.966254274634	0.966091974709	0.96658384819	0.962451872446	0.964966353834	0.953274624224	0.965478010677	0.938946981344	0.957699928668	0.958513191126	0.903183314266	0.965046790617	0.96395226628	0.960159630217	0.958727824035	0.959298224207	0.908617539835	0.966467270852	0.957568698503	0.966105830227	0.943573875334	0.953897825609	0.948060812474	0.94007661547	0.909987217807	0.961657334295	0.926130373106	0.915384633826	0.589247111141	0.641523737472	0.716502534943	0.696533628185	0.603940707303	0.739635292734	0.651687396397	0.606148229138	0.677403105524	0.712855174538	0.695524073355	0.667143563383	0.591680018741	0.732950523133	0.67791983801	0.630193274817	0.698989149314	0.716879560887	0.710159953879	0.716257590633	0.72319061633	0.767305849181	0.762451293144	0.697930756915	0.753355733655	0.702369532637	0.690579765126	0.750239821649	0.664179170326	0.673563644108	0.739300269557	0.674959175124	0.659592551021	0.666623457766	0.639476908663	0.626251164568	0.709468495663	0.715824866383	0.717897454446	0.660753637638	0.721153661993	0.638093997573	0.646062826838	0.553851014039	0.737953912868	0.685366403575	0.665080733328	0.572219205263	0.769526714427	0.693787200189	0.658720320711	0.71518202657	0.721262445207	0.723283954667	0.655771639267	0.696658734828	0.711309018796	0.732610492785	0.502240563326	0.550697156895	0.687869604294	0.69905572142	0.708545683666	0.704479192639	0.606571016224	0.68485832814	0.680242643362	0.735438993253	0.687541478394	0.699192464264	0.680374063746	0.651205990533	0.643632174012	0.620828271011	0.670572884944	0.646024273794	0.664775445735	0.585160219808	0.667302648065	0.657159108938	0.730940170066	0.687752081962	0.669172743435	0.734540179935	0.703898088666	0.636064445293	0.564420392702	0.746896974032	0.689985209373	0.601551950095	0.661199407603	0.616137150398	0.604220636045	0.682445328164	0.690816496456	0.671054652073	0.761629582339	0.688357735308	0.558595375215	0.675792486434	0.658187795701	0.657243484355	0.628345819357	0.52906966497	0.695028477192	0.659484138743	0.673651186722	0.650476661914	0.691766596969	0.639127132751	0.662406228453	0.655388682745	0.761569675695	0.669751901349	0.675000642274	0.510011448665	0.666095510453	0.753406982468	0.692781315602	0.678353531827	0.862277204829	0.861461098252	0.847250798959	0.848000079237	0.849931338504	0.855529758425	0.841006112716	0.837903780732	0.840436639841	0.864707376829
DD108	0.727088523697	0.71511128265	0.71848396988	0.729637891461	0.762476309623	0.0	0.716786970694	0.759503408837	0.762010499342	0.684965140333	0.746094219994	0.663300342197	0.675625063287	0.706009605603	0.675359308252	0.6762852127	0.505360995242	0.753218271807	0.441320109532	0.695814143942	0.735850081532	0.470760149801	0.752504616478	0.665735468128	0.679952674785	0.753642086367	0.760825145315	0.69371319849	0.757559158203	0.778447996185	0.699881247619	0.704734511917	0.485746009287	0.638003244997	0.723878475493	0.721296935762	0.767698783731	0.759597603657	0.726069245984	0.534318281834	0.562213473246	0.714411227188	0.725929805361	0.762445556376	0.668674214704	0.699631284148	0.584833225488	0.716526116675	0.720934009232	0.727579583702	0.653337845942	0.692749248423	0.686861769901	0.782299798429	0.668579831795	0.72051888445	0.747261640774	0.692684308523	0.749766598241	0.70579100627	0.706253957601	0.543166049377	0.719486960543	0.749513503418	0.764229648989	0.715215391525	0.698726371851	0.713155783134	0.713620052184	0.797202532718	0.714421669652	0.689367126734	0.528275483184	0.787425067759	0.716450352778	0.744511195391	0.717259888132	0.56612453614	0.788542529723	0.711537095187	0.774235289482	0.781422174546	0.654999870463	0.726886077011	0.692509563954	0.724972558264	0.655844025291	0.667181710042	0.712275347969	0.580548190719	0.699958210654	0.682819505832	0.720162253042	0.738629515403	0.71127857852	0.696105893733	0.555891696396	0.697656997634	0.692182878591	0.747021759045	0.698902784574	0.696938102227	0.742235481391	0.767747510364	0.734890061937	0.761290912016	0.739655988114	0.700907501856	0.768297921972	0.73252362266	0.711665852984	0.736943465733	0.691046846537	0.731133495472	0.488408223784	0.66389373749	0.976577570965	0.956162035072	0.982182991721	0.982160585841	0.977135224712	0.930615494244	0.945833432406	0.953302157699	0.977048556967	0.977066525635	0.94204424443	0.976623215727	0.918070609505	0.949197419048	0.964858117732	0.940201426882	0.953524949099	0.948930359681	0.971171703298	0.955887325181	0.963069289027	0.938013908862	0.962346989372	0.937264555745	0.94929001268	0.949856305741	0.900361275515	0.892768877071	0.963912031905	0.963795729665	0.964149336192	0.961280478368	0.977932520405	0.982272663137	0.978136631886	0.943158796121	0.9561516152	0.956403500914	0.938258191789	0.963055473669	0.962296082086	0.957591495028	0.956556645384	0.956966132356	0.947211705474	0.978537628392	0.961307897009	0.97839013491	0.963360229983	0.982421932701	0.976129304224	0.971041299147	0.939049078251	0.965081639254	0.925972316116	0.944588128525	0.778027095217	0.772835607278	0.710082765435	0.723586612861	0.775958443342	0.674712030611	0.709398849092	0.750079511681	0.739199266463	0.729604250377	0.756278941928	0.748209132197	0.809874611878	0.566031091366	0.689758205015	0.718346714569	0.73217982519	0.750770281212	0.724150124469	0.707575363997	0.668963389141	0.550924395191	0.507825060139	0.734898985197	0.684192132712	0.745263320804	0.714756665449	0.583651429756	0.715991442818	0.742917696386	0.662105190248	0.664931308749	0.761148084633	0.697933665549	0.724205061648	0.671449553899	0.757808545138	0.754090060382	0.780248347831	0.695255158808	0.78872195207	0.722733618874	0.723921276084	0.744132799341	0.611132288611	0.770856538092	0.714396469417	0.738221931477	0.520141215038	0.696098296553	0.730200705152	0.788655927452	0.684413123711	0.804073536013	0.746229025455	0.730985268216	0.764358224351	0.738400992139	0.7586874878	0.764848065683	0.71183717381	0.71518396994	0.670840885557	0.794170498911	0.737200471538	0.731844982041	0.692303923359	0.647685245637	0.707811654523	0.713192158493	0.691553151532	0.680453658176	0.695680503277	0.748228845186	0.706766085078	0.683637886297	0.750894316806	0.703273943502	0.702749111072	0.641596589605	0.575376932566	0.74106977438	0.724963400713	0.726552164484	0.776363791256	0.730071181298	0.710332814587	0.733474437367	0.70887234853	0.702483398778	0.720318644045	0.722937523508	0.777812334891	0.758498558078	0.732013365127	0.758521474155	0.80447119776	0.796542772898	0.74009257931	0.679329219582	0.730113682728	0.778521209334	0.757581636031	0.733231002641	0.669799359562	0.699926365166	0.707486750498	0.735332684176	0.74765983707	0.780517180547	0.697598394482	0.734634031539	0.481396863187	0.701044381336	0.750290383032	0.743827581503	0.730338749249	0.676610042011	0.758214487426	0.686056080351	0.854936327232	0.850754942632	0.8510985634	0.853909653374	0.862839802749	0.856866276274	0.863067453899	0.861714641932	0.85664350564	0.849146256942
DD110	0.6008984352	0.688144788122	0.701074766587	0.614789066976	0.666826272287	0.716786970694	0.0	0.64922967064	0.648450545152	0.617081697572	0.7172926461	0.6200936123	0.639255396356	0.621343146785	0.577090838849	0.655523924236	0.704371005778	0.675136251397	0.69699068103	0.655256451282	0.720009878553	0.665980528423	0.659292007965	0.606738307005	0.633195694191	0.6358926712	0.659779489692	0.597514571766	0.619423238917	0.67048122962	0.597777983236	0.598775523928	0.705364737759	0.803251945097	0.603578952999	0.633389256171	0.673480590616	0.691199158089	0.58630581544	0.716685769268	0.750707577728	0.537323772995	0.648155969983	0.686395551206	0.642008060117	0.707926626834	0.756383573217	0.706269325265	0.677818823374	0.590521913799	0.559333928114	0.60749022135	0.603511794399	0.747492631479	0.572951097677	0.611154354154	0.686031352535	0.658118050391	0.695666032912	0.565121487075	0.68544040329	0.699303009182	0.683902772723	0.665904045677	0.674678448908	0.599717517245	0.643735599372	0.534134107801	0.670651653102	0.732552545221	0.599345676333	0.534930985116	0.729126925188	0.683309071456	0.618713632277	0.723102848484	0.543133058904	0.693559304238	0.704337737195	0.519150519514	0.655110860824	0.697087947849	0.626588604175	0.602424445008	0.538949491374	0.690584327744	0.682895277107	0.647930425748	0.682333768949	0.695596082546	0.64229126875	0.65789372729	0.627925158338	0.622863829685	0.650472814863	0.55323554755	0.694352856976	0.571088383008	0.641932679997	0.620387601432	0.621916578479	0.623301931911	0.68053696396	0.766519299802	0.721096727595	0.709789922391	0.70539015319	0.700909391788	0.670277386436	0.670415631664	0.665377508039	0.728936438673	0.672047277697	0.713321377543	0.666412288401	0.596596477916	0.962397375765	0.950519462631	0.972969296277	0.972936559045	0.963264995207	0.923407259503	0.944135606216	0.951370186104	0.963130068394	0.963158039934	0.93787387793	0.962468342595	0.915420522445	0.948841808282	0.96381810608	0.940012881037	0.952816546158	0.959304976188	0.96935387113	0.954703970145	0.95952127883	0.948165485289	0.959767101669	0.947569530929	0.956745787188	0.960004984119	0.908814143215	0.905671240913	0.960496877578	0.96037458413	0.960746502427	0.957737314056	0.973658268896	0.973100345594	0.973891693679	0.945318414266	0.954988767921	0.955551444722	0.935729012334	0.95959691936	0.958800451581	0.956714533575	0.955701233426	0.956101958545	0.942006441959	0.974350811819	0.968770752433	0.974181858008	0.960806597016	0.973318601943	0.969616140152	0.961721979187	0.942554742371	0.971674969123	0.934158821767	0.947820879727	0.72087549443	0.687101392274	0.715623469558	0.696115226942	0.686145198103	0.697824740099	0.626615670098	0.646284190839	0.734398374887	0.63111587265	0.726032846357	0.707981285964	0.751537752505	0.730244050877	0.591915824992	0.615330639851	0.66791793081	0.732598859186	0.687390885843	0.701146579177	0.676489735707	0.734736849582	0.698899966609	0.617496476744	0.780911618242	0.679879669779	0.692693908782	0.742638924127	0.647664828968	0.712083391747	0.745836160515	0.64943995242	0.711563882939	0.600610547753	0.635869708272	0.565096033006	0.720356093288	0.741265150067	0.754009811138	0.661673153528	0.756805959703	0.687040254128	0.60724930445	0.664488332337	0.721988260908	0.73067817173	0.640254913568	0.656862792823	0.695277608474	0.57831758265	0.559878069848	0.686520452857	0.728468918678	0.780853276549	0.697980268106	0.650506270884	0.72012431046	0.645095543947	0.633373431111	0.650717773384	0.623488108583	0.566548389869	0.640847590173	0.724619307096	0.627764083506	0.715524276597	0.630776980615	0.728890083805	0.643698569287	0.715612223014	0.658845122306	0.667027541022	0.590203513456	0.663832998746	0.622252125173	0.629755580279	0.709467264948	0.676281815465	0.599916649881	0.570256706043	0.681324624811	0.716945987543	0.664461111929	0.719576402792	0.741596735122	0.623296906812	0.643776289768	0.72198999632	0.555951409065	0.643635651089	0.6452384139	0.640270603444	0.677028777901	0.69928879546	0.66679925844	0.712163404298	0.798245877512	0.721476825501	0.629693597699	0.618068062744	0.652306009767	0.696301317895	0.664157129439	0.621741295559	0.565023789748	0.558465935915	0.678281055639	0.616771186617	0.692533128275	0.693256403088	0.642623417598	0.632840980853	0.730941373644	0.647392760857	0.697623235668	0.66592446792	0.630169260015	0.768336769023	0.63608268373	0.635848081377	0.819979256669	0.826392644505	0.810743201345	0.817735201023	0.836343019988	0.831306371677	0.811048813799	0.828586937505	0.805525824828	0.829436317702
DD111	0.620924811413	0.633510875719	0.669158778004	0.595783754948	0.643016670882	0.759503408837	0.64922967064	0.0	0.394717450915	0.652679071969	0.601311974676	0.658775313119	0.759392176251	0.677177922553	0.698647375477	0.669236603108	0.761195293677	0.690592079926	0.735459747711	0.642386978561	0.614242986846	0.785191224221	0.640822993969	0.654930367911	0.642192125183	0.639499146602	0.395570705025	0.647019250192	0.704788440909	0.690181604215	0.645600088434	0.716621055092	0.748468412689	0.762845742515	0.684565853403	0.736118512531	0.696206344482	0.603516136501	0.689534266657	0.770978588232	0.741271775202	0.722110537889	0.631151986558	0.665010036356	0.699733302444	0.629872319015	0.773335942609	0.690266199402	0.601549041741	0.716211188331	0.720831404646	0.649627250845	0.673958203642	0.660547041333	0.692576916096	0.706260611972	0.705524319234	0.693997137136	0.601444758364	0.642472820368	0.597878131016	0.742682590286	0.605459202587	0.663477291547	0.540399181629	0.603771525396	0.668401271886	0.699296425155	0.470367907459	0.732933674944	0.727023088095	0.678108112063	0.752561486685	0.667922796239	0.662114311526	0.603333195757	0.722311724046	0.746011423372	0.70752021114	0.706589413014	0.663065520562	0.636941053336	0.662868577766	0.692059638321	0.680085054811	0.605681439337	0.584826846229	0.514520948333	0.663352162403	0.699843478313	0.682135101533	0.725388431852	0.732851200546	0.734626662559	0.710951168876	0.710372851706	0.765367317811	0.610986826798	0.707268792157	0.722014724165	0.651021978624	0.674485225946	0.433244073479	0.695862477308	0.656079916591	0.657193727624	0.639087082854	0.651195750389	0.410572654145	0.66045633289	0.615603671616	0.644909710777	0.599296427167	0.62911561525	0.71249757593	0.650306249761	0.960015234473	0.930653161337	0.969358148682	0.969291817806	0.961613464291	0.881918350719	0.931379032872	0.943189291138	0.961368557737	0.961419437552	0.922875412023	0.960148071193	0.881675971668	0.914167955813	0.940021447148	0.906646338639	0.929203597175	0.933503946864	0.955073834025	0.929254488951	0.936760983791	0.918192109924	0.955618044451	0.916626942511	0.935413429881	0.935469325121	0.854702174411	0.843178213227	0.940275413894	0.939956196023	0.940922587162	0.932706254583	0.961426696284	0.969622416316	0.962046053795	0.910495337025	0.930903133103	0.932374850372	0.893416516678	0.937892310507	0.935715706399	0.935335354129	0.932762222793	0.933789592436	0.916727843399	0.963238386119	0.953559260574	0.962803536308	0.957555625174	0.97005811773	0.963588108412	0.954732722406	0.918065829346	0.96069885397	0.900226155983	0.927298760098	0.715628464819	0.456229068492	0.677054569448	0.596191444004	0.733314742901	0.72564721548	0.659120297044	0.677496208958	0.694286153174	0.67467002882	0.675826755981	0.621867939216	0.700687285519	0.75048695164	0.679405082414	0.697796360765	0.591944356429	0.711004173903	0.668021607281	0.649795781264	0.657080266136	0.721275102581	0.758727500769	0.73674751961	0.749368014574	0.534228834117	0.699264168749	0.76300838375	0.736594723327	0.666915011433	0.728555796494	0.63621040735	0.612168487719	0.66702838149	0.716558556576	0.693801976105	0.643696930541	0.663008997399	0.731497946568	0.66148940233	0.745977678192	0.70964667674	0.695247387871	0.612884901206	0.788694238757	0.664706804085	0.666472443123	0.638735161298	0.770973655373	0.752507899934	0.728879260025	0.572833897126	0.761703093384	0.659513027803	0.744542471644	0.760848155283	0.692434050061	0.727642930395	0.66096627957	0.668426898369	0.760285595148	0.712268680096	0.716084909421	0.543764514597	0.680629363607	0.643531892491	0.617745187879	0.736071041781	0.685383393165	0.718865356809	0.669455362012	0.680259253958	0.696626941397	0.502554813025	0.726777542462	0.64625762896	0.640266398543	0.697731394969	0.661918885415	0.678547810738	0.773531606246	0.677604034278	0.670064977893	0.707057425879	0.686321384708	0.681032233554	0.654123611288	0.691686471489	0.734700099718	0.677202596452	0.737670719995	0.70945985348	0.679386883082	0.693900291237	0.624188309099	0.702244830838	0.704286200994	0.550909129861	0.662346483527	0.668020823539	0.491930558083	0.537337718116	0.72022550358	0.63487044553	0.713352215717	0.712393019113	0.705175993404	0.532118241949	0.753920142872	0.5130849492	0.686160617582	0.713759886315	0.792860382901	0.669541615802	0.678827676782	0.647482634668	0.736169000071	0.769627521384	0.742533651273	0.649530904066	0.835807617503	0.839512692065	0.835423751449	0.829804677171	0.845141599415	0.856624742307	0.846065278159	0.856803083615	0.834451486364	0.846298278862
DD112	0.630718557863	0.592726759469	0.662128800309	0.622513079759	0.648890959551	0.762010499342	0.648450545152	0.394717450915	0.0	0.661881220491	0.603896439578	0.652499370288	0.761134250158	0.689174242429	0.698439042891	0.689916985968	0.73718055851	0.692899756205	0.722722544833	0.644178551973	0.60457196447	0.765192171858	0.675671796885	0.652367614485	0.646084747391	0.606989294134	0.451921745993	0.636476733149	0.714444513028	0.683391943745	0.64985760752	0.728228396147	0.741804380293	0.744883968704	0.698863623951	0.732543595486	0.67021580223	0.622959916686	0.700260014129	0.736988111285	0.727098700919	0.720283280074	0.669161323394	0.676769487036	0.714061950474	0.663345237634	0.748838266075	0.636187231645	0.609622300419	0.701118265912	0.729319636266	0.607508072519	0.676883975906	0.666447331496	0.716275414116	0.729585650431	0.698877223449	0.708064676177	0.613982976658	0.64091981314	0.605634944883	0.723065929131	0.576483658506	0.672008437346	0.53369677086	0.619755109797	0.650608568838	0.699578693733	0.547517146245	0.730462008796	0.73327047388	0.653519234039	0.745621488298	0.667810984347	0.654522055868	0.635841368228	0.733787795902	0.741405978845	0.694850369313	0.719715364664	0.613567794629	0.63930181472	0.671326596908	0.709863089283	0.691871393171	0.608467045797	0.635219595908	0.527576890621	0.674062450342	0.684323890456	0.658358971058	0.735097198865	0.732248824486	0.733784424065	0.702395876863	0.704705925576	0.751412440707	0.595625143456	0.714817346648	0.706564621047	0.646972623683	0.678647730878	0.480444960497	0.684573019258	0.626182905267	0.639788080797	0.648246631791	0.633746634896	0.409070715505	0.66591290173	0.614853517447	0.624708779262	0.593793365217	0.612523455678	0.707004574834	0.656031223638	0.958910962472	0.928832931678	0.968496283191	0.968426164182	0.960596827917	0.878682221476	0.930445783178	0.942008061431	0.960338733669	0.960392360432	0.92123574456	0.959051224827	0.891685916394	0.916641131005	0.94315171839	0.904378623689	0.927551154065	0.936313555346	0.95388784188	0.927369283829	0.93500115148	0.920368123337	0.954460981172	0.918815054943	0.933882356111	0.938235420079	0.849644881481	0.844029268355	0.938750714046	0.938414943789	0.939431164033	0.930764318872	0.960298052991	0.968775558297	0.960953877068	0.912719944465	0.929147846925	0.930694449961	0.890441219483	0.936241826117	0.933945862009	0.933800532449	0.931101255105	0.932179602666	0.918367383608	0.962214678939	0.952290826122	0.961755121858	0.956498587398	0.969235707067	0.962600600109	0.953528410696	0.919707197157	0.95979424595	0.901335038311	0.925509183488	0.732284367111	0.401809173632	0.633128151465	0.596554545556	0.691667244448	0.737790068023	0.655878529702	0.700863171397	0.671598683181	0.679522188226	0.689721713483	0.605412477014	0.70147477592	0.728865082056	0.677526837021	0.680848672459	0.632871611824	0.711793583904	0.655579860125	0.66476025426	0.652635059149	0.714133774586	0.733457479645	0.750480981602	0.70921506087	0.559189639325	0.624454403859	0.741225273755	0.712837247247	0.675383437393	0.733566381554	0.654096542219	0.653459548608	0.666059026783	0.720073649176	0.704530442974	0.629562431212	0.650431815384	0.720501514376	0.657652679966	0.748183937877	0.722359328409	0.717781117716	0.610954707919	0.767312265262	0.668854311925	0.675875614143	0.661952208962	0.783790424398	0.768466119847	0.735620226149	0.589714639469	0.769167669165	0.688973738155	0.746292753532	0.76447793983	0.693286144174	0.737208943781	0.65888627207	0.671151827528	0.764143889876	0.72008359503	0.725385082622	0.602263298314	0.680765807703	0.64379092652	0.646118173585	0.744566390082	0.671243531662	0.723397950234	0.685538572908	0.653807427481	0.689001879076	0.545392497232	0.726317776957	0.652417571533	0.654490803845	0.700286162302	0.667702849202	0.678939829896	0.766912251235	0.683687971053	0.667118693253	0.686708965374	0.713408005352	0.683352194957	0.652588156291	0.660484110419	0.742027894112	0.676807660451	0.743355332283	0.706390367241	0.670202716762	0.712926073069	0.5829237548	0.671368660312	0.719207886537	0.570110136199	0.663729244381	0.67567663548	0.545899669074	0.56679101956	0.724101420824	0.659061616759	0.697997741566	0.728105084697	0.695332122547	0.534369702363	0.752265632897	0.521972745525	0.658614484988	0.737946773439	0.788003368871	0.638308663276	0.669663103909	0.651554053656	0.750189830937	0.77943970371	0.760338276639	0.657656082249	0.846968502036	0.85489612673	0.842586450744	0.843586619092	0.86075754945	0.870072202234	0.854917415741	0.871361476044	0.843539612582	0.856696351349
DD113	0.531996285384	0.640497987968	0.618950245332	0.53353661936	0.643378101086	0.684965140333	0.617081697572	0.652679071969	0.661881220491	0.0	0.662212929236	0.458279424922	0.669062603045	0.572913737871	0.625729848151	0.535549162748	0.705175319993	0.659835547335	0.690301564469	0.540637137992	0.668583742106	0.679748314181	0.645727299348	0.552625804323	0.573119921592	0.643686415004	0.659177787776	0.471073028323	0.646383168585	0.667012220225	0.580117157548	0.593736972	0.681957189115	0.774505323199	0.610672102618	0.611868884867	0.682858729522	0.67334886398	0.623404712124	0.720656742888	0.709032768037	0.602285029006	0.607569834984	0.638962104699	0.529303940453	0.640914965536	0.749148831739	0.696572115295	0.629095585249	0.628199164015	0.647127832392	0.514071163344	0.558894979991	0.681059835906	0.570296775261	0.62818677193	0.641232431473	0.544329566365	0.699258045105	0.605786839814	0.652393328329	0.732218909942	0.611541553311	0.642973330268	0.67418914932	0.526771676355	0.466390966332	0.617427726551	0.6611898414	0.755248055162	0.586125641686	0.588794960835	0.699483325864	0.647181813758	0.654757896004	0.677423960615	0.628799560785	0.653139136398	0.741598471097	0.586975869708	0.675783966922	0.678700030848	0.61283798414	0.615179893088	0.635147861253	0.617463298206	0.648134605453	0.601670335096	0.633692371763	0.672358832996	0.635191282691	0.622218461313	0.622005109079	0.639680818656	0.663663484603	0.612755900984	0.678403442199	0.606826685844	0.643552873865	0.62662689745	0.630885026599	0.509047195802	0.6088321973	0.71066083268	0.657371234168	0.642442461953	0.637793710371	0.610897086211	0.677772266149	0.633889910868	0.609974126858	0.667824164148	0.64380774404	0.658451339094	0.630597872837	0.574751888685	0.956871251827	0.95602199037	0.982123897518	0.982101342669	0.957920649858	0.930388750406	0.926320896469	0.929385635575	0.960500572209	0.960532094844	0.928166296139	0.956957188856	0.8870478149	0.9305552431	0.946268942983	0.921150192636	0.935211156773	0.934266974512	0.961057432035	0.940789337724	0.952552353973	0.914432765277	0.940229861882	0.91337210124	0.923802533587	0.925071754272	0.872795168334	0.867484679744	0.948869261159	0.94870157212	0.949211356637	0.945070328762	0.961911567685	0.982214163245	0.962270509936	0.925143868969	0.936922207145	0.93742934091	0.917672407844	0.943492030841	0.942304399736	0.943062620172	0.941649226601	0.942208641406	0.949211348547	0.962975318214	0.942557639723	0.962716134177	0.947130313767	0.982364415434	0.976051582918	0.968095476358	0.934592271454	0.94016665903	0.900813517054	0.936645670973	0.706761832447	0.693331207932	0.642613218477	0.651691495965	0.70943872142	0.594858222406	0.444907385288	0.665251116705	0.644238832217	0.530895686029	0.635713821275	0.660882848867	0.749504481933	0.714702525354	0.5407689273	0.598888616015	0.655605386861	0.713189529151	0.65411189538	0.646049939527	0.626981104841	0.726469368779	0.674680306905	0.633672044618	0.751031912372	0.664360687582	0.653637295548	0.740813233459	0.65036721264	0.643858393577	0.70095131983	0.600254011855	0.6885874171	0.480921042969	0.543982170823	0.565920352304	0.630354415823	0.688261781221	0.678802516893	0.554557701858	0.685618123211	0.615820490145	0.61115561012	0.634418098524	0.686328811663	0.721905513053	0.539988649701	0.622293069359	0.697327135796	0.642117228321	0.640317542129	0.69880497701	0.683172074442	0.734137810961	0.604279526576	0.655980815571	0.687557411044	0.63436719059	0.608522426513	0.652201689386	0.6249967744	0.596563704943	0.580159561156	0.652064996815	0.610794195927	0.623294099453	0.603208859182	0.689202484769	0.542290482862	0.649026163775	0.658218804775	0.630333167578	0.587872779435	0.629496167303	0.557741480687	0.630807653806	0.634466005844	0.658887633585	0.599450938212	0.586852476828	0.68418866239	0.68531545717	0.645329549329	0.67132418077	0.668666959902	0.585140660263	0.600864768763	0.662896669229	0.602375026135	0.576731662751	0.537309219437	0.468262573087	0.658278997363	0.66531963669	0.621153150042	0.670251022338	0.747634398511	0.690874903691	0.581645749623	0.455431085824	0.625268847302	0.686477341318	0.609570039723	0.57601466538	0.587289696921	0.610952837663	0.648702964832	0.595694759213	0.685426096416	0.666321261817	0.565540765599	0.654555989048	0.712855840348	0.577558857985	0.640437829451	0.613349008637	0.65635787289	0.736518880243	0.592963961372	0.53679639207	0.816983258442	0.823234672021	0.816894750203	0.814954442139	0.82680453708	0.837071552653	0.816496274973	0.818288542397	0.808037943629	0.820259727618
DD114	0.631041235763	0.437047323971	0.555910204015	0.644800944295	0.691695406566	0.746094219994	0.7172926461	0.601311974676	0.603896439578	0.662212929236	0.0	0.68695511062	0.723880491613	0.644588762397	0.694804816888	0.620614851536	0.73013658134	0.738803552178	0.72585901064	0.65562119439	0.439309639772	0.732447284332	0.668536988821	0.631472469515	0.596306516243	0.658579234606	0.590962424364	0.621913567765	0.718344677325	0.67620290019	0.668945296754	0.6867541	0.732152767632	0.756749676793	0.707014572185	0.703745277872	0.696992997353	0.66714025747	0.652720387479	0.71520250338	0.746361662255	0.720631895031	0.660160856884	0.654266303319	0.675752950027	0.536016047794	0.773245966104	0.632423312369	0.504173931304	0.699055902534	0.711143679705	0.62440446886	0.679280096777	0.673183009167	0.676418434691	0.722251080513	0.730157795712	0.655152329503	0.532927438768	0.696144316341	0.387885408456	0.743269772655	0.51381414746	0.721295709422	0.647989395523	0.639354411123	0.654469292652	0.71891817924	0.658307843212	0.76155014278	0.729274766734	0.693879270284	0.72617344482	0.709046648884	0.697383824388	0.480408612536	0.721011585169	0.718721515991	0.72058427536	0.698893133125	0.700052729643	0.593173673414	0.659102829212	0.742115292148	0.707558029689	0.60163143535	0.578078868305	0.623591974143	0.527346293631	0.719283189582	0.614798021015	0.705953688893	0.691112338698	0.761808328836	0.700155399474	0.713924183602	0.746433317356	0.641326043415	0.695648294312	0.723239239909	0.659484636739	0.667453473386	0.589852811111	0.619232376291	0.568905246592	0.645018577321	0.561990171386	0.522412656559	0.571891753205	0.568531965813	0.574791197932	0.568081729033	0.460104683375	0.563790274718	0.70782062174	0.649500497548	0.961989238043	0.930019739426	0.97089669735	0.970836866787	0.963436413279	0.887706595933	0.919302629502	0.930681567968	0.963214282578	0.96326041959	0.913442152884	0.962109302212	0.888138522281	0.918305042702	0.942981087719	0.907031003135	0.928692699491	0.918321744514	0.953897204796	0.929222119673	0.939905071909	0.90518735924	0.939732363568	0.903422866632	0.921457084551	0.920664780944	0.843164325065	0.830987362044	0.943016506233	0.942725988581	0.943605931103	0.936166030689	0.963435317179	0.971135196388	0.963992316451	0.910730374995	0.930801665019	0.931701675574	0.898839873174	0.940851096247	0.938880227867	0.934572965176	0.932076782126	0.933072483979	0.92020210498	0.965067231155	0.937025404706	0.964674802537	0.942286937198	0.971528864324	0.96145440736	0.953562789029	0.907445404081	0.946445538904	0.89131808257	0.913068160158	0.690785071145	0.603166590924	0.558803424928	0.55057894908	0.64329213261	0.702723032947	0.667562646619	0.682604309719	0.623123218993	0.707879390379	0.634683498437	0.605219312217	0.71404162758	0.745627023976	0.639602545615	0.694945463363	0.516037401384	0.694757755307	0.591800604418	0.615402184218	0.549514649457	0.691485644369	0.738415521666	0.741746909786	0.716877947948	0.675615546071	0.580051066623	0.767996760284	0.642802816137	0.528344702936	0.745221570765	0.661717542541	0.503204165168	0.648594134711	0.715283389959	0.727305033533	0.586868930402	0.532394998482	0.667551043288	0.624921520698	0.684299808718	0.648172959168	0.718409004267	0.605181847803	0.761119102633	0.675087301221	0.685987222891	0.671683076251	0.766724616798	0.712509099076	0.720338435255	0.682885061969	0.705265104651	0.690445453868	0.692302888313	0.709551997333	0.694080370361	0.734629849191	0.662107089612	0.681877628369	0.714878098012	0.733707806442	0.660300690123	0.685471357021	0.684063886758	0.516457412842	0.643106372319	0.683293606087	0.663669534971	0.697823283574	0.588975440364	0.651817316878	0.705677420116	0.640296863159	0.6933479007	0.626065267576	0.665438414368	0.698203932669	0.700538658308	0.661173641648	0.727573992558	0.668519300777	0.562526282709	0.655875829936	0.624063010562	0.702824561997	0.679490356352	0.609091659489	0.694682643279	0.723090362801	0.680374047369	0.696860012311	0.723173258699	0.671695621033	0.582982334801	0.579864616867	0.707135354147	0.685802272361	0.69841926665	0.68921114839	0.646966004664	0.629761860048	0.73612969542	0.690717693219	0.68489208259	0.730687156697	0.67147483091	0.654303091103	0.701119457648	0.63425429518	0.629078003942	0.698442289238	0.76530557323	0.614671543729	0.666173145768	0.684186231762	0.737046303746	0.741004793264	0.747223109686	0.629092513708	0.861768944101	0.863330163364	0.858318978467	0.850096422878	0.869584002092	0.882116715663	0.860036605302	0.851670180331	0.850999408444	0.852527961956
DD115	0.535265334545	0.671785017232	0.635898082167	0.553120039463	0.652148162926	0.663300342197	0.6200936123	0.658775313119	0.652499370288	0.458279424922	0.68695511062	0.0	0.666330490099	0.576813823082	0.635780269702	0.578906509869	0.680321769175	0.633277870507	0.658008538359	0.512390184241	0.674391033299	0.663485615212	0.649117620557	0.562312360792	0.595365299887	0.627116287706	0.676362479851	0.501781180852	0.660377008727	0.687606135659	0.575219333742	0.604608563845	0.695093198566	0.746254350698	0.633055092115	0.636963607782	0.701069813906	0.686179776802	0.645796204662	0.710191828093	0.681186001144	0.622462256244	0.622232817471	0.658146144292	0.593858704999	0.66952492651	0.716390619118	0.709390985706	0.634538590854	0.626459337954	0.639195797568	0.530949311182	0.591824573836	0.693040446659	0.582199049897	0.651063524675	0.666940329195	0.568934093688	0.685346266073	0.631247735441	0.682173466095	0.685744593893	0.605320844699	0.661635071888	0.668221058957	0.540993324344	0.448822148861	0.620112095403	0.665900994822	0.754594602111	0.627766819562	0.615240721674	0.662951249597	0.662093403185	0.641146928886	0.698005324905	0.623853727601	0.609068131079	0.732621902413	0.593456386991	0.685191753108	0.657816754294	0.619151034459	0.603291644453	0.618557100493	0.629062018445	0.650454877615	0.647100340063	0.652531567352	0.641752605508	0.606224779652	0.622444133684	0.648901102708	0.67644402702	0.675442121891	0.605308294141	0.646278771773	0.62916804955	0.682311215313	0.669871103798	0.623450709381	0.509209100758	0.645540952876	0.696689880775	0.663033118747	0.644962728352	0.664461567862	0.645661028495	0.691571092082	0.630002500896	0.615945196965	0.675466012566	0.636312108627	0.678444219442	0.621695696826	0.542508997049	0.959893999875	0.954767934859	0.981594085827	0.981570173311	0.960894254042	0.92835685339	0.921936813271	0.920211895699	0.960738951803	0.960771154937	0.922466886742	0.959975959358	0.887978701711	0.933154096864	0.94277248924	0.915815589803	0.930431513898	0.935040227251	0.959259080027	0.935991790567	0.948047047649	0.909062880566	0.934811392952	0.907901570262	0.918636840376	0.919683638869	0.865572505163	0.856463193454	0.938092154764	0.938969556862	0.939598002659	0.936094187576	0.953501672002	0.981689767114	0.953956352253	0.919367927066	0.931180496151	0.933101198329	0.912390535679	0.939183499742	0.93786379048	0.932268911012	0.93219450275	0.933010542269	0.942646713155	0.953245282369	0.932655723998	0.952441944646	0.944808655095	0.98184897031	0.975355189692	0.967175991037	0.926678977905	0.936708338579	0.893921625526	0.93488059229	0.721429275339	0.687233264372	0.643536373275	0.650928431415	0.74152232416	0.644568014121	0.535531832014	0.700546277196	0.666457308866	0.567930848828	0.654971256891	0.676689136432	0.756728378036	0.685522625424	0.528434435881	0.603157375731	0.645278982762	0.693879754502	0.643765461755	0.64714388024	0.593286996355	0.670961856459	0.639468768704	0.667550020899	0.733717062293	0.682305556144	0.667307432171	0.714457137795	0.691183320191	0.679372628535	0.700643156972	0.604997227102	0.699205047479	0.508006136927	0.619738968029	0.595558657494	0.638992075837	0.688107541179	0.684629520075	0.610201287129	0.687888247433	0.636005087385	0.635062657087	0.638446482883	0.655370297818	0.699117956208	0.556833500725	0.600660650375	0.669080742063	0.664569465949	0.645186080881	0.721382111668	0.684532302338	0.762746603997	0.650218188899	0.681104854204	0.704761794532	0.646520062886	0.650814043007	0.687580272563	0.633995266467	0.633669141172	0.584349777244	0.698376570142	0.605806813259	0.646360662146	0.622020678045	0.682584280388	0.589150515431	0.694481240566	0.662865951204	0.644249403327	0.6138500949	0.667300226671	0.595845769432	0.653775749538	0.662175365839	0.667996080951	0.608707225946	0.599148986836	0.648179036065	0.699367805947	0.630727863393	0.66938632938	0.693834817547	0.635906411581	0.610751721179	0.659148061557	0.616845325202	0.60043677265	0.594395335982	0.548214478731	0.676041414205	0.676593828751	0.616766490394	0.655009392097	0.72279479591	0.70782509232	0.580399542193	0.478016743926	0.636948316788	0.697808527668	0.691411257379	0.589930738568	0.619722057644	0.629646355229	0.639515983558	0.627124033833	0.684418113646	0.684503431114	0.601396970794	0.68425682159	0.686617166763	0.604276647249	0.674036141008	0.626267359252	0.638559632278	0.733457383604	0.661606927214	0.553672393443	0.824811437621	0.822049459884	0.818000894296	0.812020033708	0.834544290178	0.829675032511	0.81311307499	0.821360951457	0.811028223511	0.81896804699
DD116	0.669719348563	0.698567884315	0.666832300908	0.667860726498	0.660378701019	0.675625063287	0.639255396356	0.759392176251	0.761134250158	0.669062603045	0.723880491613	0.666330490099	0.0	0.655179366339	0.534642126098	0.658009910696	0.670295796876	0.736946284272	0.637594759598	0.68612706746	0.709231527281	0.669666545599	0.653868385938	0.656241059457	0.66235857276	0.689182564107	0.735777982069	0.630286649484	0.523502366783	0.666698764902	0.662413525032	0.628785993386	0.691659878736	0.776653705806	0.529249419032	0.530218931223	0.702588959349	0.725717798987	0.675777713617	0.700430029984	0.738094811372	0.638214217326	0.694461112786	0.747759356194	0.670778587308	0.715946423269	0.706211844356	0.741056595197	0.719188205075	0.528835266785	0.677742893169	0.687580875231	0.675688235224	0.727146532633	0.660378315858	0.522623143354	0.71916401108	0.691039150327	0.705211667709	0.665994725315	0.689334250291	0.704015845306	0.695558805364	0.693470878389	0.770370436782	0.664969467075	0.669880691287	0.638797461852	0.731359162033	0.733070312799	0.489017179625	0.648853391946	0.69400573354	0.692325774044	0.677264428905	0.718985838195	0.650565858343	0.697667400011	0.719628904116	0.628167050774	0.702065833061	0.739059831762	0.618745701077	0.526076249858	0.666942644258	0.715775463845	0.691482445047	0.734006107706	0.699175221396	0.73861596176	0.68418876999	0.506000977018	0.519332438268	0.595325047247	0.657148678889	0.623260340439	0.68409739226	0.634731269954	0.642888645871	0.663961826784	0.633610920809	0.685231597556	0.75632437404	0.728642809858	0.716472169837	0.716153889095	0.71251878668	0.695809918261	0.749052113752	0.661781854933	0.702271127563	0.668914391483	0.689335349577	0.711127829194	0.670795057564	0.660649284697	0.938715755445	0.938680962549	0.967023139695	0.966976776544	0.94037407262	0.909727437916	0.932521104611	0.937222095475	0.94321956456	0.943269960656	0.910109273495	0.938851907391	0.899394964974	0.940469823933	0.941181347046	0.927536190391	0.944349488042	0.934338585334	0.957276852041	0.950027573996	0.962971579066	0.929033611821	0.928188374187	0.92809337041	0.939518595044	0.925496552819	0.896146957978	0.88014577969	0.959582164433	0.959439084742	0.959873825266	0.956322426408	0.957950678835	0.967208553974	0.958387728669	0.93420606117	0.946719854817	0.947129376488	0.909328862971	0.954093177483	0.953047895635	0.952861192152	0.951600193178	0.952099857524	0.931139157248	0.959243421446	0.939926976175	0.958929133618	0.936215460185	0.967516712889	0.960579710145	0.951891432503	0.922122126732	0.944913757215	0.917939286087	0.926411979699	0.717048937405	0.752183094985	0.71375452236	0.709429102548	0.675772361647	0.700650186372	0.688712815773	0.601366477157	0.702964056676	0.690853653856	0.692948878475	0.696279958769	0.748964112627	0.730344153122	0.652469079992	0.506961291433	0.695974430802	0.726434600851	0.682230014981	0.700747383314	0.712543513676	0.710800980194	0.678984711651	0.687769548794	0.728544896593	0.760092017352	0.682069670194	0.698226538888	0.665477974359	0.708850406318	0.718545013038	0.69557782959	0.716499604615	0.690851920737	0.614290188338	0.557847282959	0.702638158746	0.727059895075	0.736438184415	0.702758465003	0.722721450298	0.665450720385	0.558790370843	0.705614886309	0.709651457367	0.739466502646	0.709290108339	0.715590635918	0.711598439124	0.646508784171	0.646267731669	0.785446810822	0.699377706902	0.769159799465	0.689143312784	0.579875234188	0.771032851349	0.704002050851	0.730446337324	0.707119325229	0.540277760365	0.659571009085	0.654047634527	0.755762157438	0.691246134607	0.702720602782	0.70622653228	0.664860019238	0.678226373253	0.725208769187	0.708002478419	0.670738730846	0.689890158654	0.722615847571	0.666582637208	0.654049933012	0.725137594708	0.665713776042	0.704946222431	0.649832440412	0.650923897223	0.715880232092	0.693127834956	0.71229857494	0.678460643818	0.614017031715	0.712152414505	0.738820157189	0.640083724255	0.701908068142	0.647192354152	0.688170887551	0.694580124499	0.734656944491	0.726531860717	0.707068553208	0.756578523252	0.772875598024	0.700304501658	0.685637992285	0.74793401588	0.740255010582	0.622981991387	0.682017208413	0.658096003281	0.636502794459	0.675917715218	0.695338364257	0.582601487389	0.730642522494	0.719532373999	0.579379399596	0.670431494252	0.686532198902	0.714501173169	0.694284075571	0.535553400401	0.751215517606	0.69403161173	0.686192539739	0.870764692579	0.867428213327	0.853609480689	0.853641514095	0.856929322645	0.841667836504	0.8333220579	0.834981027753	0.836020289066	0.853683631843
DD118	0.600374816984	0.629034377886	0.635844100566	0.593512720606	0.641287338578	0.706009605603	0.621343146785	0.677177922553	0.689174242429	0.572913737871	0.644588762397	0.576813823082	0.655179366339	0.0	0.624673116377	0.454394932925	0.677817190407	0.674539626566	0.69137006089	0.564923389688	0.641898834009	0.682088548922	0.642141350211	0.454287967269	0.478626711649	0.623607433298	0.651896753354	0.550464818236	0.67228391613	0.657226043519	0.456546116541	0.58192610547	0.701003112717	0.777110455708	0.652487691239	0.689212675785	0.703601986982	0.659350291648	0.588818913537	0.70258385879	0.708567922601	0.64964715766	0.632413702554	0.675892745329	0.507986177112	0.64720833712	0.737775639164	0.680101755769	0.632148776812	0.662344092238	0.637845563273	0.580983764014	0.472125072032	0.746004954202	0.637027633424	0.644636600051	0.680240763124	0.447085435051	0.625867932214	0.645102967626	0.645572770022	0.70057091896	0.638603267303	0.623539302654	0.728866387497	0.60488235478	0.585162331798	0.657073461024	0.693262157807	0.716941504455	0.645312643821	0.593257136227	0.700778490112	0.676998460449	0.59641405028	0.618133343837	0.629825898826	0.68403137526	0.707125964037	0.638994708554	0.673885768075	0.663728620116	0.589198567888	0.61860852387	0.654431535667	0.526987443857	0.677060144336	0.669118105436	0.623573789504	0.659791018228	0.477711845253	0.635799097166	0.638784614774	0.65848143716	0.642981227299	0.657162416068	0.700362427268	0.626409700479	0.664260236725	0.696413518057	0.60502435584	0.537018243744	0.685382486208	0.725668194584	0.669510991456	0.644347330991	0.658941958454	0.644793476683	0.659277841425	0.629594580839	0.639970380467	0.669072027465	0.630162566514	0.687320138673	0.663014048176	0.484022214048	0.969875428435	0.947124129495	0.977016143727	0.976978844774	0.970791635986	0.910873345957	0.945778444217	0.954481297086	0.970650058225	0.970679435777	0.938474415115	0.969950890161	0.915026668833	0.936647742683	0.95651896195	0.927567337234	0.944594453232	0.950840393574	0.965789896542	0.946246938088	0.952442800756	0.937190294585	0.966106367289	0.936250660976	0.949621586111	0.951956651487	0.888551570914	0.88200307799	0.954170050484	0.953982317765	0.954552090839	0.949840722947	0.971347076656	0.97716514736	0.971690241459	0.932642545843	0.946918943692	0.947791786782	0.920219383833	0.952779705969	0.95153199785	0.949574095776	0.948022970581	0.948639042882	0.938776390242	0.972358949462	0.96491868811	0.972113825055	0.967248159457	0.977412222112	0.972448236662	0.965592463084	0.939533119502	0.969151928945	0.923454209312	0.943755450213	0.741102902485	0.676043645045	0.668304413972	0.630828332706	0.690271662783	0.62450064532	0.609698414369	0.676745849544	0.692354037217	0.668086780952	0.702464343964	0.683160310486	0.727877918745	0.703897635945	0.553471053281	0.66399487238	0.657015555987	0.695866198637	0.66958643332	0.70125753814	0.661945497703	0.737477433946	0.703071657444	0.659804439719	0.760793419218	0.723145318982	0.664500417394	0.727999309105	0.671289710951	0.65121555349	0.761015969512	0.655216988201	0.636796965476	0.554571932028	0.66765896779	0.63739223429	0.683215350122	0.725297414381	0.721900401757	0.520683095887	0.713433053709	0.566733738197	0.652645795366	0.656297418209	0.713902188417	0.695284301227	0.625090298551	0.672016939871	0.704298215846	0.651889856887	0.607496331838	0.728794477081	0.730862886612	0.745489110898	0.584552607242	0.648277401119	0.68503273829	0.634755094429	0.642661816503	0.72674970888	0.6604323246	0.656138112592	0.607061012785	0.750035092513	0.662360537289	0.657142577447	0.674372782673	0.731657891508	0.626787189459	0.610508320642	0.641685560177	0.631870751979	0.637725362139	0.691953612887	0.597183513029	0.656446946713	0.720691234035	0.698572058039	0.652204385542	0.615453563584	0.634748231899	0.710873826975	0.681923857672	0.724009021276	0.712514281638	0.697867833823	0.657521459689	0.719678452402	0.615653925997	0.65421886821	0.571419350885	0.59153831737	0.710177376864	0.689360391879	0.640040638572	0.67710487395	0.786434919798	0.744564986451	0.632850025434	0.594435918191	0.664896983107	0.68713956288	0.699440425889	0.648000101537	0.584203378214	0.653138802404	0.658466423262	0.685869175666	0.668837850614	0.687000832415	0.469516012089	0.644968377672	0.722772325904	0.548526256957	0.648627521037	0.674543754201	0.677183108787	0.754084615881	0.685483353054	0.584390874566	0.86474995376	0.855983703743	0.850118351828	0.856193370838	0.866133102253	0.870179544713	0.853764816469	0.850466288314	0.856645766472	0.864667156527
DD119	0.599798594889	0.681518644306	0.68835204618	0.617589741974	0.658793564515	0.675359308252	0.577090838849	0.698647375477	0.698439042891	0.625729848151	0.694804816888	0.635780269702	0.534642126098	0.624673116377	0.0	0.626826620728	0.675292089581	0.711181725781	0.685662978492	0.666019483359	0.711101204426	0.661131530721	0.652026193649	0.590602798931	0.603457834123	0.642399220038	0.683455061369	0.607370176194	0.496560064588	0.671139467385	0.639481483023	0.645987834385	0.692297371008	0.780827703112	0.533817794563	0.530795685442	0.688594130804	0.705508612954	0.648111040562	0.698743136706	0.734170934707	0.59566765236	0.656254249372	0.705667206384	0.649795492322	0.679276874838	0.748676159903	0.718163668329	0.677511473838	0.512422719212	0.636064459107	0.620586322902	0.639450062778	0.770310153163	0.620552261131	0.498433754195	0.660067265203	0.642810258009	0.723324136273	0.592377491564	0.683977505528	0.697861920581	0.681534245836	0.666085748754	0.685851423091	0.637995770704	0.630887993834	0.620473362813	0.697398797895	0.742488381918	0.498167491421	0.589482567019	0.70807562219	0.681937929674	0.632872791709	0.691093384895	0.602821970649	0.668010542749	0.727397662486	0.589206103018	0.661591907247	0.716553806998	0.56914570407	0.490183400178	0.63032888744	0.683309990384	0.674503600816	0.654943592613	0.684683580038	0.684613485481	0.650373896825	0.561941962338	0.547269898368	0.599690132213	0.672391422155	0.602126082441	0.680186191236	0.560074245484	0.66635865335	0.653391814532	0.646333147121	0.607155476534	0.686246527316	0.736833446923	0.720650739462	0.708678061206	0.693561403845	0.68303541476	0.685753979971	0.666161264359	0.673045876054	0.72080147076	0.663616149496	0.712314505921	0.62453947002	0.599943109292	0.955332046734	0.946605267981	0.970082935843	0.970044782233	0.956419345766	0.917978942995	0.937544647363	0.944918433865	0.956250441182	0.956285462224	0.931561987368	0.955421088385	0.912545014783	0.940002383488	0.954492630626	0.931963402255	0.945612536313	0.949336117308	0.964370967484	0.948915120431	0.953847595147	0.940125565134	0.952794784499	0.939401828246	0.951449920632	0.952098937747	0.903270274588	0.89562196856	0.955152861837	0.955006808041	0.955450840837	0.951845703136	0.968613113953	0.9702356183	0.968906693458	0.9366603957	0.949375905299	0.950041008338	0.928749229583	0.954076953566	0.953122645848	0.95141310126	0.950217919008	0.950690904058	0.939946410142	0.968477854843	0.963656492829	0.969271228339	0.954079039577	0.970489729759	0.96661611903	0.958341399698	0.940540987146	0.965869217529	0.928727366186	0.943922115285	0.717870410488	0.694132769339	0.69193291925	0.702892654857	0.682132002647	0.688830958056	0.642406045424	0.584876591154	0.70684872246	0.666558922864	0.726423036754	0.727661516002	0.773129088896	0.702971722117	0.601636965393	0.539390292283	0.687836810372	0.735332317909	0.702662382528	0.69795821743	0.660612704565	0.732176019247	0.67186750136	0.63454955163	0.773680553354	0.71676551744	0.681787873587	0.73151070955	0.631074173012	0.69176283394	0.741570746665	0.643912498047	0.731634215542	0.611036600782	0.593439097842	0.524536385341	0.721848651216	0.722672669956	0.751661900594	0.660815161443	0.744330176955	0.669813197039	0.537826035919	0.673609653376	0.694002843366	0.744655400538	0.658740855402	0.674196729975	0.676973638923	0.629046397583	0.609536893435	0.715390187151	0.700746139344	0.776519583746	0.679331954177	0.583735091289	0.750962842987	0.676610507979	0.666256144387	0.662136941645	0.514757507258	0.608042944488	0.63731133991	0.733072129201	0.653129105246	0.715399887559	0.670104586222	0.703343192962	0.628102705382	0.716284776985	0.676632272584	0.69807619999	0.622468323396	0.676997240725	0.65694892758	0.647217958413	0.722599798324	0.698151720756	0.630563927194	0.597447538044	0.666026207224	0.733068312775	0.672559975297	0.717597493622	0.720758715171	0.618479476663	0.656971008067	0.728181083223	0.618269281133	0.665038436416	0.646764243572	0.635686819333	0.690720756249	0.725490744643	0.671105345983	0.712145317438	0.782100513442	0.746783162936	0.655679415763	0.639630023289	0.665316830139	0.694416634427	0.593458637523	0.657316559506	0.61677558618	0.59521655971	0.711633518736	0.63102124729	0.652359644474	0.708274549172	0.635598195195	0.557621233953	0.694376018608	0.644832814237	0.722516243532	0.654679052967	0.563892792851	0.755060836325	0.672253933639	0.640355400296	0.83138275021	0.833692138001	0.819568699273	0.817239365525	0.828846933024	0.819145063439	0.822054159443	0.816881640184	0.810752471315	0.823902492475
DD12	0.57670259216	0.608479649839	0.636351449614	0.603027706246	0.622456091702	0.6762852127	0.655523924236	0.669236603108	0.689916985968	0.535549162748	0.620614851536	0.578906509869	0.658009910696	0.454394932925	0.626826620728	0.0	0.686857353459	0.685245306956	0.664164550729	0.525665802789	0.619792711644	0.68644037552	0.609419963672	0.456641281633	0.468687600462	0.630789084724	0.65497843381	0.552577308224	0.664556116404	0.659771756332	0.445743093975	0.604036777928	0.698348044837	0.773361712603	0.644019475879	0.667882147588	0.656693156627	0.65119519987	0.587201435532	0.729354178287	0.720895371708	0.63333286857	0.642071813523	0.672640161025	0.491347182467	0.615862004752	0.748515803887	0.686654195226	0.607700779954	0.662705995244	0.662889732362	0.566497248366	0.521079989107	0.718702011717	0.623151636273	0.667065523666	0.646950848046	0.520169415064	0.63624405493	0.612748688675	0.618950765043	0.702480474806	0.625619389383	0.640540003294	0.727857004168	0.592068489362	0.578254102055	0.664780385312	0.69090104059	0.705383218986	0.649306702746	0.600625765404	0.699579330235	0.66474478418	0.608186045711	0.588661583058	0.656948441701	0.669247535337	0.699519022011	0.653888985104	0.659604199168	0.690504879929	0.572072793618	0.630770309947	0.65508837645	0.500299818063	0.654582206138	0.650994780509	0.610730707463	0.647874852259	0.504171133086	0.600700454155	0.640961554537	0.63961830837	0.641662968589	0.678289098446	0.704020883304	0.627547623763	0.646988413267	0.699887386567	0.608001061424	0.501470677331	0.675048272216	0.724949339543	0.663238561064	0.681837574406	0.665292416578	0.603016335506	0.669297344677	0.637792329392	0.615794620345	0.662144866094	0.601556806336	0.661069825012	0.672853372072	0.458799172612	0.968810752171	0.945326538871	0.976192507378	0.976152484951	0.969791811648	0.907741732517	0.944205040424	0.95319343479	0.969640350235	0.96967178279	0.936702208678	0.968891634999	0.908015218966	0.932680142708	0.953209788976	0.925248376196	0.942875370625	0.947477020663	0.964621759273	0.94439823382	0.950752285388	0.93371667961	0.964960104535	0.932692903504	0.948039272773	0.948710860637	0.885349615152	0.876219102128	0.952645009324	0.952444547385	0.95305278521	0.948008186305	0.970289345056	0.976352344444	0.970658150518	0.928752571034	0.945159339401	0.94609050249	0.916720729975	0.95115909482	0.949823062227	0.947988750888	0.94633696317	0.946993399066	0.936753627587	0.971375887503	0.963689227632	0.971112934264	0.966179043385	0.976617219396	0.971487844551	0.964410570885	0.937560856279	0.968205286017	0.921194173193	0.941936046646	0.717930348548	0.673568548455	0.654901580865	0.605634962351	0.688628922149	0.618622928502	0.58157783998	0.651986479939	0.684251236526	0.641653214997	0.669549643353	0.664598090199	0.734603088768	0.698736177285	0.530402426689	0.659422712213	0.65780300397	0.703528453632	0.671275527648	0.665344951138	0.648096272914	0.710227122058	0.7010291628	0.667570977488	0.749221230781	0.710373738596	0.667271402124	0.724740990183	0.648914408304	0.642434631533	0.712286163532	0.642946934601	0.612122520109	0.575158077518	0.641849158331	0.626647585106	0.648062352549	0.68765026721	0.691316663011	0.50423060492	0.725820005333	0.557516580531	0.653360590127	0.635115423661	0.680682482203	0.694808046512	0.626992270367	0.653643057869	0.694720738078	0.645144115583	0.628311392225	0.739948010942	0.699808667489	0.719047057837	0.578208274496	0.648759239838	0.684015496752	0.64976388493	0.644088060222	0.711689829237	0.674359199844	0.653529095091	0.61918631137	0.731985642562	0.670752663798	0.616274759447	0.654364987465	0.688779332418	0.622021510772	0.625255149039	0.626215072917	0.620751378548	0.636225402887	0.682374597714	0.59873474061	0.632848111262	0.708229530871	0.669312968405	0.652721469697	0.620153117946	0.649304719973	0.699775781315	0.670879456911	0.720959274019	0.682974719991	0.676141752494	0.59699281137	0.716763738916	0.631537740604	0.65552020832	0.567985555945	0.561425397888	0.712926858516	0.654202134599	0.61476596829	0.669226658085	0.779179907471	0.734077441465	0.653752553379	0.590887273387	0.665036179911	0.672345433638	0.683687775646	0.63320379187	0.613376392676	0.647065539116	0.669959893186	0.681498750139	0.668161750595	0.6744913029	0.505826355081	0.627169934258	0.707896965556	0.493898858652	0.664880477377	0.641227078842	0.702730189026	0.773634565605	0.646340442601	0.55519478338	0.848305971325	0.849257318117	0.840396329481	0.85395701991	0.861501618713	0.867897831955	0.848101118811	0.840423775661	0.838791397707	0.864614264564
DD120	0.704572492203	0.706960838355	0.71465866204	0.726320976873	0.772669473735	0.505360995242	0.704371005778	0.761195293677	0.73718055851	0.705175319993	0.73013658134	0.680321769175	0.670295796876	0.677817190407	0.675292089581	0.686857353459	0.0	0.78233924002	0.513070078687	0.697577150776	0.739051912657	0.574953220151	0.755380618751	0.671227640538	0.671069575196	0.741695002843	0.757898205239	0.700919707818	0.740399662577	0.77436520161	0.679288700658	0.694499145361	0.55980605871	0.633316858481	0.726358550334	0.695356681931	0.80632662305	0.761982752042	0.700941116283	0.550373271827	0.548669695191	0.729300318381	0.725428243159	0.76340381998	0.676079870604	0.724632557438	0.558049862337	0.71261772622	0.714601862675	0.728690033194	0.637933817595	0.688749869925	0.686534979477	0.807523182897	0.683720846182	0.700457572462	0.771635692497	0.711689153103	0.743237451853	0.711288544336	0.714819318927	0.542161108485	0.721882236563	0.768708040679	0.762866192871	0.725378449072	0.681882296862	0.700387939244	0.723059398741	0.781636844498	0.725574941604	0.679159847046	0.561002596069	0.799361146297	0.740312009277	0.765528083117	0.695431139584	0.586701407691	0.796985093608	0.70202940327	0.767239924001	0.756945122357	0.66541077252	0.748333189002	0.676549230741	0.748577939351	0.674071999212	0.662392111508	0.704098598585	0.617799340076	0.673927441814	0.704765978165	0.717968324307	0.765464758836	0.726370227839	0.685358888434	0.555483586905	0.705501640129	0.721939675194	0.741696063857	0.722777786038	0.68644946239	0.751758695037	0.769836195928	0.734923174593	0.73273225813	0.729403046727	0.709759300589	0.748883339742	0.702332286088	0.694399573639	0.743790161884	0.696128056073	0.721331555167	0.520595322278	0.675629993482	0.973701723084	0.950940061201	0.979969714793	0.9799413921	0.974402674065	0.9247338231	0.925178907947	0.933805661561	0.974294004082	0.974316542528	0.936020420745	0.973759250884	0.902979971108	0.946068535043	0.963549322745	0.933434324556	0.948405476786	0.939656129014	0.967726065439	0.95058254648	0.95851276312	0.926402757704	0.949704437691	0.925409827193	0.935510395865	0.938878201097	0.886113564939	0.875924157486	0.959701546852	0.959556468271	0.959997228527	0.956391952104	0.975122068119	0.980082977593	0.975381175167	0.939487995271	0.95104125821	0.951394592232	0.930741534673	0.958630488503	0.957675942454	0.952866642626	0.951584871743	0.952092899371	0.937884694909	0.975888444214	0.953399368513	0.975702134101	0.951226486827	0.980271204467	0.973224795745	0.96756253743	0.920616165016	0.948906601733	0.901791980588	0.929506752772	0.784018315785	0.750672233929	0.711272350169	0.752830137807	0.757554098132	0.699093466427	0.723504302873	0.766960095407	0.729944707263	0.740842434984	0.773995493627	0.725107896826	0.776697030702	0.584524565977	0.693730312006	0.705539447901	0.724555973449	0.764265010551	0.725832120449	0.727635491954	0.643967603551	0.608700429632	0.515228849497	0.70992799962	0.650004009451	0.755872565676	0.700626020861	0.584514134394	0.715502376505	0.737803480584	0.690943738314	0.674515163902	0.750040106757	0.707101781081	0.747583069776	0.66736012113	0.764833540243	0.764151715497	0.759854825334	0.707184284013	0.780404297873	0.71813629781	0.737472876541	0.757426560786	0.616788107817	0.788405030798	0.734510137771	0.761996223361	0.594182576645	0.68815315774	0.723463032369	0.777242362545	0.693180467714	0.822027752759	0.758470261182	0.755869662037	0.809019666538	0.712154826794	0.769014886276	0.778029709376	0.720475726548	0.688609456149	0.65238278135	0.807208671934	0.729506896074	0.753305644253	0.692431024331	0.620403048653	0.685864603038	0.735598865365	0.692480969862	0.704503860666	0.696537693507	0.758649688859	0.720837717484	0.69744432892	0.760345361505	0.712295311256	0.678686934748	0.637005293024	0.564116161257	0.753407709837	0.72864626619	0.71434104894	0.764587333878	0.755935009955	0.737392614763	0.728057005236	0.738554823166	0.698841125953	0.714927880716	0.737935059514	0.78544970965	0.757711606171	0.710207334086	0.750668986632	0.803821699781	0.800271839921	0.730128814897	0.701752920874	0.742630004039	0.77993156064	0.766043407122	0.73304475091	0.676494137043	0.695544045668	0.740815273598	0.723287978961	0.727849008309	0.745735540043	0.705049073825	0.728213263126	0.58508037146	0.701681176059	0.784091651537	0.751280705617	0.725507790062	0.650932039384	0.75656046267	0.713205031909	0.854513655496	0.857522386313	0.867025600345	0.862064500445	0.876002886423	0.865994572008	0.858581456647	0.856748811416	0.840551754003	0.853081364611
DD121	0.689335822125	0.728911929577	0.710038045069	0.678087535586	0.595627221035	0.753218271807	0.675136251397	0.690592079926	0.692899756205	0.659835547335	0.738803552178	0.633277870507	0.736946284272	0.674539626566	0.711181725781	0.685245306956	0.78233924002	0.0	0.750799492957	0.629899622152	0.725427928129	0.744666279471	0.598713875918	0.674288757724	0.69434991234	0.52435400341	0.71850542738	0.67617824795	0.723023337398	0.602310215904	0.696676373457	0.679008042148	0.749674832845	0.816957221659	0.726079736513	0.752653647477	0.690001538364	0.634287953896	0.703575239127	0.759899727404	0.77211208594	0.658626122717	0.558837930888	0.612392655132	0.698543041633	0.733554760603	0.798250168586	0.756183421637	0.669927563632	0.708949867945	0.71315479047	0.662189538285	0.682952627039	0.729442038259	0.685858800037	0.719442169914	0.693425371113	0.662476455149	0.69821305153	0.671889197575	0.73749028785	0.743444387549	0.670203961609	0.608773039181	0.674031967614	0.676459297981	0.643396985645	0.670909038363	0.686214293904	0.77406668772	0.712977325663	0.685948203445	0.746415374184	0.63974819767	0.688037955934	0.707259647337	0.695333262682	0.735421521037	0.7506971553	0.669555171611	0.710982227311	0.702729323547	0.686642288149	0.678947507381	0.673655469048	0.69881272769	0.714979321101	0.691814366312	0.69007322475	0.714707890655	0.706994919968	0.736695563386	0.724481164724	0.695567026116	0.728744069217	0.673661317794	0.741624672976	0.662191440403	0.741342325981	0.726687771684	0.673923466302	0.656705902343	0.700697963139	0.777992916328	0.752744136531	0.725311048169	0.726409756528	0.718195343027	0.742473436612	0.740652324184	0.670348025301	0.738776831011	0.697517651342	0.767253208075	0.726338168572	0.673424420387	0.963921866069	0.949437693989	0.969809497473	0.969768653365	0.964843491487	0.914594906944	0.955727793764	0.955440887234	0.964700472374	0.96473013077	0.952169784612	0.96399742586	0.922795081239	0.946033635487	0.962635546957	0.94338668342	0.96220793593	0.962016813437	0.975875297247	0.959772634989	0.960722056678	0.94960720948	0.965333938541	0.948972261981	0.961649714752	0.962736115279	0.910829511299	0.905002462654	0.961736760239	0.961605989352	0.962003428973	0.958765340911	0.976487234864	0.969972883413	0.976718817701	0.946561312396	0.959938025302	0.960487620349	0.934434730185	0.960772448844	0.959915213704	0.96161938233	0.960633698209	0.961024024862	0.951000409707	0.977172968703	0.975368858532	0.977006049582	0.966317869669	0.970244584425	0.970603517044	0.964894582576	0.951506623023	0.977871994701	0.946722142209	0.951679838611	0.712653264618	0.734050512441	0.734878064604	0.70622460307	0.738350808502	0.727706177527	0.673051642418	0.741052530555	0.765775545227	0.675542861492	0.696203605288	0.740649725276	0.726589023794	0.760667125983	0.671862426048	0.694456120724	0.695848224099	0.699938661251	0.691532096219	0.694276958296	0.674081861406	0.736878940132	0.720997522789	0.706674627766	0.809500357039	0.693116860816	0.739817949885	0.802007222162	0.719523133729	0.711681409895	0.763591740538	0.658692257404	0.738218284439	0.642744522919	0.688800857573	0.682562367516	0.705636160848	0.746626045163	0.730513485492	0.678266693256	0.726160947081	0.737475239589	0.713552357465	0.572559135769	0.740499503626	0.713899125685	0.642938086554	0.510130825487	0.734971462951	0.692051228293	0.682217753901	0.725465493044	0.767634942808	0.776759430388	0.731640326508	0.74251228933	0.663486842454	0.698422075808	0.549168677923	0.658609893298	0.714984568638	0.67823821399	0.716527209285	0.734775602528	0.559092008181	0.699599339552	0.651580697307	0.790435242432	0.695393003383	0.744480992453	0.729257354562	0.700560361058	0.658404264293	0.709789770517	0.714226551947	0.665501052072	0.700592709752	0.704814353138	0.649137374596	0.666885854703	0.731693122806	0.726016982514	0.657017051628	0.73122317738	0.770818687792	0.681574642883	0.537866744175	0.725129241365	0.675803632599	0.573132443411	0.734018364632	0.684075298049	0.628936691144	0.713258693815	0.667778990354	0.697724456427	0.782079319906	0.723965634874	0.491637986866	0.658823031145	0.626808522019	0.742243582724	0.693786632618	0.490414308692	0.716141254663	0.678332049378	0.694934507799	0.674170171853	0.741193328695	0.72002189214	0.679504774866	0.732452567611	0.769952906777	0.647652220567	0.688715622605	0.578219732006	0.722122005163	0.789036704645	0.712052477057	0.698249999554	0.839669319725	0.841236151355	0.846275131103	0.854554743611	0.855785928343	0.84560865113	0.856143169938	0.859629914037	0.849517748948	0.840991687867
DD122	0.715665953682	0.707908062775	0.700042549464	0.693856491428	0.754736576573	0.441320109532	0.69699068103	0.735459747711	0.722722544833	0.690301564469	0.72585901064	0.658008538359	0.637594759598	0.69137006089	0.685662978492	0.664164550729	0.513070078687	0.750799492957	0.0	0.67457343244	0.731840781899	0.480628249117	0.762830430125	0.700233120049	0.667015482651	0.732818287632	0.74875143945	0.675869825988	0.744549757247	0.775733732861	0.658160633019	0.697581042808	0.480723427008	0.616883378309	0.707036913736	0.687366042933	0.761073306211	0.775162315007	0.701808869849	0.494817890361	0.555130424622	0.70577107838	0.728365088573	0.753714953138	0.678573038729	0.695148812735	0.520203539533	0.71764189274	0.701208441164	0.723192184779	0.674248408883	0.690426323278	0.698101913118	0.760749220121	0.708485230029	0.704310449316	0.764664683375	0.702543737518	0.707786516714	0.699126062165	0.710043811113	0.506921512374	0.695917012237	0.767641198802	0.755366932448	0.717427181204	0.685058652311	0.711185671876	0.716418657933	0.769928394335	0.709488519444	0.70842237724	0.497866418315	0.79901440624	0.703568394976	0.727856513178	0.720984642657	0.530243621175	0.765321891436	0.691772682861	0.755846791371	0.759964833647	0.67541591145	0.711138557815	0.692600353953	0.731933194427	0.654733749308	0.657757629686	0.687008129368	0.593667247629	0.718727495119	0.688029746376	0.716809195414	0.742408683671	0.724547004533	0.707610989265	0.501900243459	0.705245741092	0.707352703178	0.723766504371	0.707783050778	0.703497808961	0.747165888288	0.772015925993	0.718219662884	0.717393824848	0.732954572579	0.694870266217	0.759085199166	0.714697364158	0.687259356812	0.737980124643	0.689788425343	0.722372633786	0.460040309922	0.660138787669	0.975493290477	0.954189186653	0.981349186869	0.981324633362	0.97610309743	0.927418232388	0.936959661496	0.944356630849	0.976008412434	0.976028045967	0.93974908674	0.975543254559	0.913042147663	0.947388148213	0.963737887688	0.937636340375	0.951581137353	0.944860966391	0.969870241607	0.953884457522	0.961351913157	0.928733096864	0.952771545478	0.927829554027	0.939856796218	0.940570824417	0.888258063518	0.881845429539	0.962319154253	0.962192340521	0.962577794422	0.959440902904	0.9768755792	0.981447424466	0.977099611863	0.941162765018	0.954218168626	0.954506689805	0.93538290771	0.961384333072	0.960553915294	0.955798776168	0.954673424812	0.9551190008	0.947142324223	0.977539168144	0.957200380865	0.977377580574	0.954348500907	0.981610850968	0.975033545989	0.969727768319	0.931077213732	0.956369995543	0.917795875806	0.935514955566	0.778670302168	0.76412832097	0.724750718006	0.706278561184	0.773053687786	0.694546770705	0.712575053503	0.765951794029	0.734068472384	0.713738363252	0.741740958871	0.713283678941	0.805439777971	0.562762908837	0.698610767498	0.701590296321	0.703313089739	0.746921898957	0.696037775098	0.693441845338	0.638556932854	0.546011375376	0.550610134637	0.714803204058	0.643377139864	0.737209092763	0.705958916193	0.562029645508	0.723998169193	0.743921439594	0.658734872671	0.650680008625	0.737101769923	0.722250497329	0.750365328961	0.66793821502	0.724539763799	0.767730808939	0.75384478292	0.705244454103	0.789391602961	0.733575409759	0.71657209676	0.733001955261	0.578357762116	0.758105087598	0.719781104336	0.742668850704	0.578547390426	0.6814130857	0.717946933427	0.783665352564	0.699018509676	0.81206484225	0.756353574264	0.741731255663	0.777747384487	0.729416525339	0.768802543415	0.780974677332	0.716687059534	0.697909830204	0.696854886738	0.781331470709	0.709471583509	0.724854036492	0.656255866277	0.611425815277	0.708465954706	0.72357536608	0.70090496898	0.685525468457	0.69490727966	0.747482682767	0.713065250541	0.642430416402	0.734905703529	0.695060843648	0.668368922532	0.620705213848	0.548290007155	0.733910753348	0.712111006637	0.722397858003	0.754748486334	0.737994203731	0.695576066269	0.742286412379	0.73110174237	0.707720413557	0.726361000001	0.742668722755	0.765285505808	0.740655371103	0.700159786852	0.733576016746	0.799327224165	0.786263660251	0.720839560014	0.691549081528	0.729783165435	0.783679791441	0.750478936794	0.707397819183	0.709669032299	0.687350968028	0.711555530315	0.736145032334	0.720518905803	0.762607744955	0.716045145231	0.730588230424	0.514058541313	0.709372297787	0.742956067514	0.7166835952	0.719407166479	0.66861143045	0.747296635439	0.68492195115	0.852039795767	0.872400933828	0.85823696017	0.870760729115	0.880852044163	0.871132829783	0.850907103404	0.867749707038	0.84328123206	0.865288428167
DD123	0.54618875841	0.60620978101	0.642263656572	0.566797250228	0.608063439616	0.695814143942	0.655256451282	0.642386978561	0.644178551973	0.540637137992	0.65562119439	0.512390184241	0.68612706746	0.564923389688	0.666019483359	0.525665802789	0.697577150776	0.629899622152	0.67457343244	0.0	0.621191556795	0.690964407749	0.6452460493	0.561113288437	0.545952285423	0.603906274872	0.695523528952	0.524460381716	0.691455862946	0.636123353912	0.536329359469	0.632090983389	0.698836009091	0.743151029487	0.658902280035	0.688955165203	0.644512088199	0.641533673055	0.595895253789	0.694799646909	0.693559235179	0.630420846628	0.60594027578	0.649422179802	0.578010287402	0.63780614221	0.705062990335	0.674956646318	0.632821638447	0.678686811075	0.649157724968	0.551001246713	0.607815630507	0.693146009862	0.634009965163	0.701866335833	0.659122482516	0.575707790207	0.603139093353	0.646470181792	0.639119660173	0.655504417779	0.586115573604	0.622891165037	0.685815026522	0.547861687647	0.564375364347	0.628981952159	0.672701997263	0.701506499384	0.690753732519	0.646842896614	0.68806260242	0.684433245415	0.582308752194	0.631756567242	0.696628233899	0.661071992147	0.6724787202	0.640115717872	0.657686243777	0.656855359449	0.588814459242	0.653558263373	0.630327745319	0.565666862141	0.664037155022	0.629670472433	0.59917297347	0.637778639389	0.600364701482	0.641725663494	0.68550106919	0.672298567452	0.62672095406	0.661036379246	0.655734426126	0.598940844462	0.679704667926	0.702379376015	0.61708335157	0.526844483972	0.664235010325	0.689534124493	0.65794530448	0.637082057805	0.656018757986	0.620847342905	0.695757237514	0.6376427272	0.585237429106	0.661191252157	0.619229083448	0.690727509965	0.608297672571	0.545061221899	0.968535337185	0.94164398389	0.975979317915	0.975938574886	0.96953352229	0.906931836086	0.923634106869	0.933813112329	0.969379453115	0.969411427941	0.925691803538	0.968617652898	0.889937641538	0.932753586073	0.953452912645	0.921564175571	0.939491981541	0.92516319962	0.96158605113	0.941112378725	0.950314866932	0.917359470375	0.946914044001	0.916053769891	0.930492196146	0.931358018015	0.865119177377	0.854123624566	0.952251495719	0.952047681145	0.952666047226	0.947533450823	0.970015203139	0.976142020609	0.970390802959	0.925645541216	0.942001811473	0.942570829449	0.917032468024	0.950740389089	0.949381032312	0.944614624572	0.942836277411	0.943543153796	0.930181299245	0.971121515956	0.944153691517	0.970853846571	0.94880658645	0.976411601288	0.968021257734	0.961354159501	0.916556101536	0.947946591864	0.896565705999	0.924128261578	0.68446618032	0.683489102461	0.668123192972	0.624985088608	0.677140993477	0.654686834922	0.575685262927	0.672759142852	0.664965610926	0.616510447945	0.643389953567	0.656932296437	0.664250080565	0.691657437777	0.544922863944	0.657627534441	0.621529096466	0.708215463843	0.649316028336	0.645677389177	0.58811918867	0.685413706181	0.683903431173	0.670806964392	0.748029483063	0.671109238246	0.652255817436	0.698038890524	0.691592925071	0.647094445037	0.715714307518	0.640332919473	0.643782249043	0.578602448872	0.659837786819	0.636857821667	0.644326467237	0.675503930114	0.692703956454	0.576792044963	0.708378075222	0.603927695281	0.685194994519	0.630243712814	0.677777307519	0.661717788176	0.607724601776	0.645824820025	0.72127407217	0.65221088516	0.653685602493	0.714486515273	0.698905533476	0.725037887822	0.631582062128	0.66981792437	0.66635699366	0.666998314886	0.644447634804	0.692686252382	0.676082715676	0.651929653151	0.631239576485	0.701834930211	0.638707808336	0.635164779732	0.620462835105	0.703821977911	0.608909900998	0.660678354132	0.674061504613	0.618941495265	0.637217829396	0.677187168206	0.617694367726	0.621753680332	0.704761746103	0.645830299895	0.626730980691	0.616923404403	0.657880413301	0.674945725699	0.634841905015	0.682825353865	0.684250246701	0.692710238609	0.646055719488	0.659536439907	0.656324892396	0.621674895872	0.596210309141	0.549642345882	0.685359780692	0.697606492387	0.618933092582	0.653484789332	0.743019523343	0.688870072498	0.589721776547	0.570706883121	0.626712748222	0.698092868547	0.719654959348	0.593208965747	0.637881664548	0.682230468982	0.66207175793	0.667928163644	0.661256397653	0.679694966679	0.552948740864	0.672648723839	0.731748358105	0.587970037536	0.668762463187	0.641804789797	0.696034033147	0.753543731126	0.66517767733	0.526063157991	0.852303688169	0.85265594701	0.842658812923	0.859975107204	0.874010503448	0.863078593701	0.83352087548	0.836569099411	0.835073101275	0.85687653732
DD125	0.657919690887	0.45691167035	0.572042146701	0.667386939176	0.664914390821	0.735850081532	0.720009878553	0.614242986846	0.60457196447	0.668583742106	0.439309639772	0.674391033299	0.709231527281	0.641898834009	0.711101204426	0.619792711644	0.739051912657	0.725427928129	0.731840781899	0.621191556795	0.0	0.731394998955	0.680328791275	0.626709993677	0.612161040128	0.662720190935	0.596200711861	0.600419172204	0.733151160981	0.69288247018	0.649613435731	0.678719009482	0.729415954113	0.734488324839	0.714326494278	0.735256597896	0.665205372906	0.624206884596	0.675683504548	0.704931647534	0.707001848311	0.717048913437	0.643458351586	0.675039493795	0.671500397771	0.498389862942	0.753782055427	0.633230247441	0.499732458777	0.702648308898	0.726145637918	0.601226399972	0.670237053108	0.67213633972	0.681318484217	0.740886265981	0.697913070214	0.652861399816	0.521905845541	0.704311773409	0.444033209	0.730721686017	0.498814230446	0.693333634315	0.67165263515	0.635817723219	0.628495159631	0.698177891503	0.645013081708	0.701119501997	0.718840150674	0.687291863252	0.728734890649	0.669407568853	0.673818869199	0.500425032112	0.726524049837	0.725805246281	0.675724324053	0.698999456741	0.658697971922	0.635460044012	0.635487675397	0.729611571969	0.700950723924	0.597129783694	0.571179356029	0.60830854035	0.4994392579	0.713414426914	0.630001374758	0.687065620308	0.6992031819	0.736634098817	0.659317326907	0.726652659231	0.741937914293	0.632917331555	0.677397286564	0.713427626935	0.605357856857	0.657010878767	0.610343812373	0.64841054439	0.584460047953	0.647319025867	0.568437896004	0.488270209158	0.58094203756	0.619154058014	0.530934254613	0.531411324973	0.445091376894	0.561268855848	0.699356722509	0.617602148524	0.959459577166	0.925573190936	0.968924574468	0.968856351092	0.961101623853	0.880289800227	0.915054589883	0.927145986176	0.960850121266	0.960902374941	0.908939902681	0.959596125225	0.883198962277	0.915823100447	0.942007845226	0.901560465025	0.924659742533	0.915878662309	0.950952775015	0.924659543971	0.935875546177	0.90233911045	0.935873801503	0.90042216407	0.916886884015	0.918434895892	0.833747082436	0.819893336939	0.939507426572	0.939179923883	0.940171258113	0.931729679852	0.960859226201	0.969196340484	0.961496790475	0.907970992826	0.926547333054	0.927591430729	0.889973985763	0.937061386345	0.934825103576	0.930810567618	0.928012904899	0.929130337581	0.915314488797	0.962723325365	0.9328002888	0.962276130862	0.938758125941	0.969644259795	0.958924571288	0.950574103747	0.901791995623	0.94342028195	0.885471105881	0.907814706655	0.64343021325	0.615298950205	0.589822511278	0.548445107309	0.623664248767	0.680103735616	0.648908725801	0.657255302999	0.613788905384	0.698280841855	0.617518680231	0.581672685172	0.648945581117	0.730138931723	0.656887903715	0.6945685593	0.54873786661	0.691205371552	0.605220849745	0.590944840418	0.59353716907	0.710387930118	0.738696358239	0.742686619574	0.699007848691	0.67120244148	0.603126212065	0.767109136034	0.636155558648	0.53607880951	0.732630881457	0.653110649987	0.545807255858	0.666744982412	0.698056220706	0.705641121473	0.564888851501	0.534265843557	0.641021954886	0.620590473071	0.66890353513	0.64515947443	0.722886642948	0.583136707343	0.7510504948	0.665530697748	0.674465911755	0.675627645813	0.755984956427	0.710532248219	0.727835563378	0.692054310852	0.697842004899	0.672820407729	0.661013837748	0.711844277759	0.684400969213	0.745235628387	0.644412301186	0.667734094782	0.719577830857	0.742023834027	0.670624787616	0.689570225659	0.671186015837	0.514068334058	0.644267840008	0.697950577164	0.674319272032	0.674213203302	0.610640986718	0.61304050859	0.691290361441	0.621549958251	0.686694330363	0.613335435529	0.657286867291	0.66528423435	0.709438097075	0.682564942381	0.728846393395	0.659410083048	0.575719091729	0.683820295541	0.586976238261	0.675217506676	0.651040864335	0.601703592215	0.693504971507	0.701392922543	0.67638946705	0.681788154978	0.715981861547	0.686015530131	0.582963563289	0.59333250584	0.698784838203	0.6779150414	0.688915561963	0.680048498679	0.655560113389	0.612363372025	0.716773931872	0.660377972354	0.686370390065	0.730107763296	0.668541194764	0.673925282323	0.67110131366	0.65017463517	0.640678887865	0.692143632746	0.758834899217	0.622745619153	0.680426218948	0.633283928728	0.741178276598	0.755467556485	0.731110618081	0.621682980499	0.860939859375	0.855500835105	0.853337376471	0.844344942451	0.867184386909	0.875524097554	0.853157102557	0.842556874521	0.848254819424	0.845699567561
