	DD10	DD102	DD104	DD106	DD107	DD108	DD110	DD111	DD112	DD113	DD114	DD115	DD116	DD118	DD119	DD12	DD120	DD121	DD122	DD123	DD125	DD128	DD129	DD13	DD130	DD132	DD133	DD134	DD135	DD136	DD137	DD138	DD139	DD14	DD140	DD141	DD144	DD145	DD146	DD147	DD148	DD149	DD15	DD150	DD151	DD152	DD153	DD154	DD155	DD157	DD160	DD161	DD162	DD164	DD167	DD168	DD169	DD17	DD18	DD2	DD20	DD21	DD22	DD23	DD24	DD25	DD27	DD28	DD29	DD3	DD30	DD31	DD32	DD33	DD34	DD36	DD38	DD39	DD4	DD42	DD43	DD44	DD47	DD48	DD5	DD53	DD58	DD59	DD6	DD60	DD61	DD63	DD64	DD65	DD67	DD68	DD7	DD70	DD71	DD72	DD79	DD8	DD80	DD81	DD82	DD83	DD84	DD85	DD86	DD87	DD89	DD90	DD93	DD96	DD97	DD98	DIET1	DIET10	DIET11	DIET12	DIET13	DIET14	DIET15	DIET16	DIET17	DIET18	DIET19	DIET2	DIET20	DIET21	DIET22	DIET23	DIET24	DIET25	DIET26	DIET27	DIET28	DIET29	DIET3	DIET30	DIET31	DIET32	DIET33	DIET34	DIET35	DIET36	DIET37	DIET38	DIET39	DIET4	DIET40	DIET41	DIET42	DIET43	DIET44	DIET45	DIET46	DIET47	DIET48	DIET49	DIET5	DIET50	DIET51	DIET52	DIET53	DIET54	DIET55	DIET56	DIET6	DIET7	DIET8	DIET9	ID100	ID103	ID104	ID106	ID109	ID110	ID112	ID113	ID115	ID117	ID120	ID123	ID124	ID125	ID127	ID128	ID129	ID131	ID132	ID133	ID134	ID135	ID136	ID138	ID140	ID153	ID155	ID156	ID16	ID167	ID17	ID18	ID188	ID205	ID209	ID21	ID210	ID211	ID214	ID216	ID217	ID220	ID221	ID225	ID230	ID231	ID235	ID237	ID238	ID239	ID240	ID241	ID25	ID254	ID255	ID256	ID257	ID258	ID259	ID260	ID261	ID262	ID263	ID264	ID265	ID266	ID27	ID28	ID29	ID3	ID30	ID31	ID32	ID33	ID34	ID35	ID36	ID37	ID38	ID39	ID4	ID40	ID42	ID43	ID44	ID45	ID46	ID47	ID49	ID5	ID50	ID51	ID52	ID53	ID54	ID55	ID56	ID57	ID58	ID59	ID6	ID60	ID61	ID63	ID64	ID7	ID8	ID83	ID85	ID86	ID87	ID89	ID9	ID90	ID91	ID92	ID95	ID97	ID98	ID99	ITS3.DD102	ITS3.DD107	ITS3.DD115	ITS3.DD116	ITS3.DD119	ITS3.DD136	ITS3.DD58	ITS3.DIET14	ITS3.DIET54	ITS3.ID128
DD10	0.0	0.14472136	0.18603344	0.23698424	0.32201456	0.46056064	0.2144852	0.29362376	0.31284532	0.23245452	0.15821598	0.1954067	0.3313997	0.14955864	0.26900738	0.20808416	0.47633696	0.60994426	0.45065622	0.2404417	0.210395	0.45527182	0.2093774	0.1443863	0.20149846	0.23827228	0.275808	0.25174748	0.38430568	0.33645048	0.2608743	0.1892426	0.44666384	0.66546764	0.21297946	0.44684596	0.36765308	0.26738446	0.2077492	0.50928214	0.6968096	0.41412632	0.27356306	0.28973746	0.1623379	0.3411061	0.61773374	0.19809258	0.19523974	0.24715802	0.384516	0.2900791	0.21535656	0.36545488	0.33583256	0.36288694	0.29333556	0.29997874	0.18894436	0.20375606	0.21249884	0.59842596	0.1625279	0.27763152	0.63701244	0.27371882	0.25490688	0.25450164	0.32045084	0.41992044	0.283481	0.31160264	0.48255726	0.32729212	0.28833444	0.33107946	0.33233074	0.46547522	0.49161244	0.27889632	0.41255484	0.21159892	0.28537552	0.2108367	0.3383305	0.29990732	0.30414938	0.41683608	0.17270292	0.60785066	0.27488888	0.26056198	0.18858666	0.26335548	0.32042682	0.44397022	0.47163934	0.21818184	0.20774766	0.23554148	0.25130524	0.1738107	0.26809196	0.37567706	0.22635906	0.17408454	0.17127238	0.25390696	0.37940042	0.2421932	0.2168362	0.26828438	0.19893178	0.16371418	0.56424868	0.19761734	1.1445248	1.19606486	1.14511274	1.14586342	1.18869288	1.19070178	1.05726738	1.0573174	1.11899752	1.12239716	1.0784441	1.1481531	1.00551926	1.01657016	1.0202649	0.94287308	0.93482616	0.93293664	0.97293954	0.96940728	0.96877528	1.00993096	1.12093458	1.00360074	0.99094854	0.98938354	0.97655402	0.97885744	0.9976526	1.00199018	0.98866814	1.06347278	1.0651687	1.1206136	1.064138	1.00659342	1.0137355	0.98172714	1.05545476	1.05248322	1.05345294	0.95499068	0.95226256	0.95326882	1.14458882	1.048361	1.05892068	1.05124332	1.12008942	1.1213368	1.15007284	1.1498742	1.141087	1.00997628	1.0137357	1.20692308	0.28608796	0.41514212	0.18921402	0.30960068	0.4358123	0.21530272	0.24516744	0.28759612	0.2347645	0.31317762	0.19506428	0.29283588	0.52420976	0.63143552	0.20894922	0.23440008	0.24842802	0.25775856	0.47761738	0.32554702	0.41865138	0.45607026	0.46493472	0.4027296	0.70145368	0.20400034	0.29582036	0.66518994	0.18178718	0.15081374	0.41404652	0.21986992	0.27575322	0.23656742	0.23673126	0.30742892	0.17273058	0.21380454	0.1717945	0.18340848	0.27430294	0.25820466	0.23156176	0.28659858	0.57232404	0.35456056	0.22725006	0.2620945	0.60175782	0.25433664	0.28614222	0.2601681	0.34328122	0.24275394	0.18847066	0.2036444	0.3438289	0.48032674	0.2637337	0.32048518	0.28307418	0.24214942	0.29088728	0.25082506	0.38343752	0.16968888	0.22181302	0.49678904	0.18183496	0.3247206	0.29081338	0.22372444	0.22089808	0.29395076	0.20543406	0.20318864	0.31274492	0.26872834	0.22576176	0.25397538	0.49866242	0.32297158	0.2446	0.4862757	0.28672222	0.19086178	0.2342144	0.19498022	0.27011984	0.29405054	0.12418432	0.18633396	0.22966594	0.22545886	0.19058102	0.16658654	0.30216004	0.25158252	0.36596044	0.23143234	0.22469734	0.2479392	0.4666094	0.34057582	0.30142902	0.34716412	0.20800744	0.20552814	0.18924156	0.27097694	0.24524338	0.30322204	0.46780874	0.18778098	0.23885108	0.31846856	0.25464248	0.63124574	0.24122152	0.10233374	0.43235528	0.44320324	0.42874836	0.43189182	0.43527872	0.4551481	0.44955422	0.44884134	0.4489822	0.46223384
DD102	0.14472136	0.0	0.1829878	0.27636644	0.2992518	0.4437638	0.24151056	0.26891964	0.30214132	0.27029504	0.08847022	0.24795058	0.36687662	0.17275436	0.29976922	0.19970208	0.50057696	0.63215958	0.44184518	0.26636222	0.1365294	0.41301534	0.23181504	0.17018318	0.1786455	0.25785104	0.24844072	0.28016068	0.42662004	0.3598878	0.26195122	0.19743208	0.44602348	0.6869612	0.24763038	0.4862502	0.3544902	0.24559242	0.24141508	0.52198966	0.6761496	0.43958824	0.3142539	0.27818378	0.1773717	0.2939573	0.60589802	0.1476729	0.12722874	0.28308326	0.4065952	0.29091618	0.22378336	0.33599116	0.35686124	0.40461042	0.29640992	0.31389374	0.13212732	0.22427142	0.13686484	0.57832384	0.11282722	0.25506728	0.63502832	0.30386746	0.307207	0.28498712	0.30429952	0.40666864	0.32129396	0.3380116	0.44058306	0.30297396	0.29360164	0.28509814	0.35903558	0.45004018	0.46023008	0.3187102	0.4129084	0.17802896	0.2501172	0.25305874	0.36048066	0.25763424	0.25560758	0.3753772	0.12769472	0.5657035	0.25313524	0.24981134	0.22144578	0.27635992	0.31942626	0.46467422	0.45085554	0.2326344	0.22399374	0.2583702	0.2482334	0.24355006	0.25553816	0.36787874	0.18143074	0.19829222	0.1417571	0.2014084	0.33862606	0.20119732	0.17272784	0.22838026	0.13157158	0.1409595	0.5588376	0.20106758	1.1546504	1.20608318	1.1545447	1.15529538	1.19881848	1.20013374	1.0932467	1.10019924	1.12661664	1.13104836	1.09750926	1.1582787	1.01583714	1.02196164	1.02657658	0.94949808	0.94158596	0.93968628	0.97955186	0.97399928	0.97226492	1.0378098	1.1315991	1.03440898	1.02746274	1.02236086	1.01782322	1.01611348	0.98318032	0.98731926	0.97399722	1.07001914	1.07171506	1.13004556	1.07068436	0.99106682	0.99884898	0.96983802	1.0623192	1.05391314	1.05825402	0.94097196	0.93760432	0.93954042	1.15580406	1.05532544	1.06603568	1.05820776	1.13146914	1.12826228	1.16009116	1.15950716	1.15261184	1.05231116	1.05719382	1.21793892	0.31029332	0.37683108	0.1833143	0.25403636	0.40478778	0.23669232	0.27141644	0.3065032	0.2010097	0.36122714	0.16476312	0.24285744	0.49212956	0.60697976	0.25417966	0.26464316	0.22291798	0.26957768	0.44277486	0.33040834	0.38977086	0.44218154	0.45609848	0.45120508	0.68508528	0.2165529	0.28915004	0.65691934	0.16695606	0.09201542	0.44462744	0.2455984	0.23546102	0.26441342	0.2700411	0.33304536	0.18090738	0.1382079	0.20479058	0.16075784	0.32041466	0.25910382	0.25618156	0.2753293	0.56515996	0.34444648	0.27959726	0.28570582	0.60176278	0.2818464	0.32861722	0.22208806	0.36855986	0.22018874	0.2137871	0.23523764	0.33284642	0.50212938	0.28067114	0.31587094	0.31191478	0.30508994	0.33082472	0.24977342	0.40585212	0.12890084	0.22678862	0.50317736	0.23948188	0.3264496	0.28793206	0.20459884	0.21458428	0.28209188	0.2378429	0.19661072	0.32088336	0.26304286	0.23546708	0.23180322	0.4917335	0.28210106	0.2047884	0.4790517	0.26793694	0.21810318	0.24742796	0.15938782	0.30249904	0.32946558	0.17637816	0.23208028	0.23914746	0.20870442	0.14844214	0.1225385	0.34426172	0.26338432	0.39000992	0.29701698	0.22829574	0.2065254	0.49250516	0.36191134	0.32920206	0.3813426	0.17902836	0.21475058	0.1816124	0.23479878	0.22743242	0.28864504	0.45729238	0.16277514	0.22243704	0.32033312	0.29368164	0.62038794	0.27959356	0.1690151	0.44589744	0.4598852	0.44419412	0.44676366	0.44750908	0.46741446	0.49235246	0.4899601	0.48918272	0.46969088
DD104	0.18603344	0.1829878	0.0	0.21784384	0.37967348	0.39747468	0.27341492	0.35421752	0.3088872	0.24668584	0.13494734	0.20565594	0.30998898	0.196334	0.2603373	0.2603752	0.5400974	0.55606502	0.4732757	0.21824222	0.26074636	0.44641518	0.2776268	0.19011114	0.24967238	0.24978688	0.34301776	0.23774124	0.37304116	0.34818344	0.3240101	0.21576016	0.47717352	0.72312056	0.17479794	0.41547404	0.43870344	0.32590194	0.23044112	0.56541034	0.72495576	0.41952452	0.3129383	0.34562874	0.21300322	0.41401958	0.6507587	0.19152862	0.2559755	0.24193402	0.33350328	0.30479974	0.26515264	0.40273632	0.27592264	0.33287318	0.35427516	0.23861642	0.25721776	0.22392414	0.25527776	0.62590472	0.22631906	0.33201792	0.5512644	0.2552409	0.29587032	0.31260552	0.3611902	0.46746956	0.27268532	0.36004204	0.47512554	0.38660872	0.35121824	0.4079837	0.27796714	0.48965878	0.53499232	0.33467248	0.46896676	0.22236292	0.36959476	0.28956546	0.28070898	0.37081864	0.3593931	0.46322196	0.22264168	0.62949878	0.31711252	0.3347447	0.19465506	0.32631352	0.37426558	0.39022794	0.5125769	0.25080484	0.20141722	0.28963424	0.3053198	0.27066142	0.3020812	0.24326094	0.22931606	0.16753234	0.11099758	0.27689504	0.44251954	0.240279	0.23526152	0.29642462	0.24761154	0.15181626	0.60932344	0.25318966	1.14215532	1.19492986	1.14339138	1.14414206	1.1863234	1.18898042	1.07400834	1.08060532	1.11298308	1.11874176	1.0940937	1.14578362	1.02079094	0.99046112	0.99507606	0.91788736	0.90895912	0.9086724	0.94857834	0.94270464	0.9412914	1.01973476	1.11893198	1.01618918	1.00711506	0.98565538	0.9811769	0.979408	0.96950984	0.97364878	0.96032674	1.03869006	1.04038598	1.11889224	1.03935528	0.99261706	1.00028902	0.97134718	1.03080848	1.0244997	1.0266433	0.92730148	0.92393384	0.92557962	1.14508674	1.02399636	1.03455604	1.02687868	1.1191685	1.1165192	1.14893784	1.14815284	1.14129568	1.03271724	1.0375999	1.20623396	0.37874452	0.4632108	0.08510698	0.32789224	0.48365402	0.28050924	0.32308152	0.38060624	0.26935042	0.37081906	0.23720864	0.31686276	0.56139332	0.64940164	0.1986221	0.24633204	0.18066554	0.15428112	0.34398626	0.27230014	0.33586478	0.39504238	0.3933998	0.42695524	0.72334716	0.25508066	0.1720402	0.70013878	0.21075446	0.1788389	0.4830818	0.31061272	0.33106634	0.22010626	0.32119418	0.37841716	0.23617486	0.22544742	0.20578774	0.24530736	0.31886326	0.33866746	0.29582224	0.3351947	0.6046954	0.38348312	0.30216814	0.30790794	0.51739314	0.2842998	0.29827358	0.2949029	0.41426058	0.32085746	0.2749797	0.1860162	0.37221822	0.44603338	0.32938198	0.37992006	0.24363798	0.25830206	0.2404204	0.2985963	0.3874908	0.20259084	0.29736014	0.55051828	0.28467424	0.40937812	0.22950406	0.23273852	0.29290012	0.36140528	0.22010546	0.24779192	0.38021364	0.32113974	0.25046176	0.25100626	0.5298789	0.34429414	0.17804648	0.35365954	0.38181574	0.27493438	0.2754228	0.10599598	0.27491124	0.3023217	0.19837164	0.28459064	0.3001515	0.20300698	0.21316054	0.19496462	0.27322156	0.32336216	0.37783012	0.23655474	0.22685302	0.30445944	0.50676828	0.34335094	0.26385454	0.29022828	0.21743732	0.2518315	0.24680272	0.3248805	0.3085173	0.3777594	0.48854826	0.21957654	0.27179404	0.36482224	0.23729268	0.66400074	0.26024372	0.21044626	0.45045088	0.4745132	0.45273704	0.45918186	0.45282776	0.44628146	0.4772947	0.47835002	0.46574852	0.45679984
DD106	0.23698424	0.27636644	0.21784384	0.0	0.45446768	0.3861088	0.22786552	0.43389824	0.37169304	0.12878268	0.2290175	0.17006082	0.23201122	0.22517488	0.20915558	0.32885384	0.57567508	0.48455418	0.51186454	0.13164402	0.35924296	0.45815582	0.3475618	0.23942058	0.27253098	0.22097332	0.4212548	0.08239744	0.27136464	0.33008588	0.39049734	0.267631	0.5065766	0.771078	0.16502594	0.32893964	0.51744888	0.4086919	0.20872868	0.60717838	0.74565872	0.33526948	0.33329074	0.43116834	0.2356887	0.49197738	0.67125838	0.32659238	0.31894466	0.18539902	0.2132858	0.2676233	0.21765532	0.49855844	0.16510568	0.24474698	0.391253	0.17360806	0.3170412	0.22223402	0.34545016	0.64770044	0.3040249	0.41121964	0.50767488	0.10206674	0.20271	0.25714876	0.43621056	0.55843516	0.19515844	0.28974912	0.49260346	0.46508576	0.36871732	0.48337738	0.17877538	0.5094755	0.63517244	0.2597138	0.54012876	0.32920188	0.43279816	0.2413883	0.1820905	0.45118856	0.44370542	0.54989196	0.30206032	0.63895982	0.40540308	0.40381862	0.2216827	0.37091088	0.44004266	0.28687474	0.5391293	0.29951844	0.22678122	0.30693008	0.36831744	0.25267858	0.37149836	0.28807506	0.36937014	0.29230778	0.26886502	0.38780632	0.52014166	0.36810032	0.35636912	0.40692334	0.31391298	0.31039958	0.6194184	0.31641222	1.10495296	1.1584011	1.10618902	1.1069397	1.14654072	1.15177806	1.05228638	1.05887244	1.07563328	1.08038612	1.06150334	1.10858126	0.9773983	0.94284436	0.9474593	0.87130008	0.86413264	0.86381156	0.9030345	0.89717172	0.89561332	0.99428252	1.0829711	0.99078738	0.98344482	0.9570209	0.95274958	0.950862	0.91202164	0.91616058	0.90283854	0.99193438	0.9936303	1.08168988	0.9925996	0.93895474	0.94591814	0.9236881	0.98328956	0.97480502	0.97913674	0.87041716	0.8669276	0.87179438	1.10853422	0.97724068	0.98873872	0.980123	1.08463886	1.07931684	1.11190388	1.11109564	1.1059614	1.01026232	1.01551146	1.17195436	0.47296028	0.54775028	0.21623114	0.44099632	0.57749722	0.36799084	0.26988156	0.43651256	0.40189078	0.34328246	0.3395512	0.4244688	0.66166664	0.6773094	0.1013615	0.23754332	0.14864534	0.20798416	0.32825634	0.21084362	0.26004198	0.4267117	0.41966076	0.39332848	0.76460244	0.32490078	0.2435866	0.71946394	0.30262162	0.27613138	0.50969196	0.38565968	0.41518894	0.11977498	0.29216294	0.32476584	0.27625382	0.31073502	0.32104258	0.302	0.33721382	0.39324378	0.25183368	0.3991267	0.62426472	0.46706808	0.21737382	0.33572582	0.4644383	0.22968664	0.23459326	0.38601494	0.44122806	0.39745618	0.33627326	0.19957068	0.46699306	0.3220605	0.34045062	0.40416842	0.1792245	0.20772326	0.15419144	0.3783853	0.3226978	0.295547	0.34928978	0.57928524	0.26591068	0.5086386	0.19645326	0.30710416	0.36152704	0.41944956	0.20230406	0.32252524	0.485033	0.38332358	0.26462412	0.24095422	0.5539017	0.44711442	0.19199848	0.34762442	0.46680938	0.31586618	0.25954296	0.26254162	0.20526404	0.26588298	0.19924008	0.30139116	0.36619062	0.29289482	0.3179897	0.31381166	0.3078698	0.3916044	0.32654296	0.14556666	0.29125726	0.38548812	0.43336324	0.28154482	0.1826753	0.19300672	0.32511604	0.3222317	0.31041912	0.41922914	0.36960538	0.44487712	0.51563226	0.2939685	0.36121512	0.39568084	0.171591	0.68478742	0.22235836	0.2645007	0.43092624	0.454025	0.4317424	0.44116634	0.43441892	0.4249219	0.46151054	0.47265346	0.42542748	0.44063264
DD107	0.32201456	0.2992518	0.37967348	0.45446768	0.0	0.64692792	0.3723794	0.18507756	0.39734072	0.44479172	0.32582574	0.40768474	0.48486438	0.3267574	0.43211962	0.21186608	0.5492672	0.72783742	0.55895934	0.41045634	0.19783792	0.59853198	0.16323332	0.31769718	0.26484618	0.32732684	0.23435232	0.45609608	0.57817236	0.33961816	0.18115218	0.311283	0.6294654	0.58616364	0.4014187	0.59008472	0.17712236	0.18805714	0.37957268	0.58666978	0.58210968	0.58231676	0.32721426	0.23997646	0.3542463	0.19120738	0.51611454	0.26146686	0.29246926	0.4380839	0.55697464	0.42849806	0.36248532	0.17487152	0.51475104	0.55222026	0.20526088	0.4811755	0.2057706	0.35932834	0.21620108	0.51237056	0.29610282	0.11764164	0.78848832	0.48440398	0.49081944	0.36412412	0.20073092	0.26757048	0.44760036	0.41621604	0.58109618	0.1645384	0.216294	0.17578298	0.51794338	0.55511246	0.29397016	0.41488916	0.2560248	0.23538892	0.177034	0.3773033	0.53348338	0.1731946	0.17390578	0.22942292	0.24263448	0.50950678	0.16408916	0.21176494	0.35446426	0.19967676	0.18330834	0.63175482	0.57570406	0.34538252	0.36551466	0.31741004	0.18466696	0.30178146	0.281446	0.55817954	0.2294363	0.37644638	0.32380526	0.21063628	0.19521974	0.2303652	0.23421688	0.19701086	0.2313971	0.33068306	0.50095068	0.2268213	1.18068768	1.23337734	1.18058198	1.18133266	1.22485576	1.22617102	1.13576878	1.14268596	1.15671264	1.15708564	1.14675762	1.18431598	1.08435774	1.09481316	1.09649534	1.02134788	1.01923616	1.01039284	1.04961578	1.04780224	1.04685748	1.10846136	1.15842418	1.11750582	1.1146021	1.10642034	1.10368382	1.10205376	1.07545388	1.07959282	1.06627078	1.14094418	1.14163382	1.15608284	1.14060312	1.06608814	1.07017474	1.05061538	1.1323256	1.13072538	1.1321979	1.03443268	1.03065148	1.03498778	1.1861331	1.1252442	1.13674224	1.12812652	1.16030874	1.15400468	1.18629684	1.1856896	1.18385192	1.11089456	1.11671198	1.24809716	0.2761596	0.21444116	0.37276278	0.20553032	0.2596425	0.28983268	0.4032148	0.22155496	0.21560618	0.4323601	0.25500388	0.181068	0.33472612	0.51823868	0.43904622	0.37697308	0.45578718	0.41957844	0.66483222	0.52735202	0.6134151	0.6173685	0.63088156	0.5050504	0.58665756	0.28817318	0.47703316	0.5401167	0.29460402	0.29525914	0.37914068	0.31338796	0.19161138	0.44837966	0.38229238	0.37813412	0.33343202	0.31844042	0.36566074	0.25154136	0.41620146	0.17530078	0.3617224	0.13743762	0.49385672	0.22050672	0.35986266	0.28456398	0.76863778	0.42868344	0.45183318	0.20693454	0.35986774	0.22793034	0.25020346	0.3794018	0.20968386	0.64099998	0.2658745	0.17881458	0.4612203	0.44511274	0.50260056	0.23862422	0.45662908	0.2590188	0.2724345	0.40883216	0.3672558	0.1881326	0.49906242	0.26916716	0.21067236	0.24233164	0.3998699	0.287638	0.1859326	0.18352994	0.35930912	0.41545766	0.51094638	0.18967486	0.42598308	0.66555066	0.20908114	0.29761746	0.31914636	0.35253382	0.44094604	0.4446321	0.33023572	0.24904396	0.22335978	0.32500086	0.22796134	0.28403462	0.50969596	0.25354972	0.40437216	0.44188854	0.36940486	0.18491264	0.50402728	0.4019837	0.48107334	0.52664244	0.26612992	0.3194213	0.2779704	0.1877691	0.18217254	0.1875568	0.54187214	0.26055446	0.22332868	0.24048304	0.42708032	0.52418218	0.41078656	0.33018234	0.55054644	0.55790728	0.54103772	0.54514294	0.5439946	0.5742105	0.58597622	0.58539634	0.60871276	0.57849284
DD108	0.46056064	0.4437638	0.39747468	0.3861088	0.64692792	0.0	0.43157716	0.60800184	0.54341888	0.38145496	0.4124691	0.41017454	0.42400426	0.40745424	0.39494658	0.510416	0.306441	0.58312094	0.22005506	0.40186902	0.52765244	0.17961354	0.54332544	0.43111122	0.47680514	0.42469996	0.59430108	0.3903748	0.45126268	0.54217276	0.5945605	0.4650208	0.23251836	0.50767828	0.39091606	0.49772972	0.69775152	0.58866426	0.4238414	0.3175733	0.47927348	0.48208424	0.52350202	0.61285966	0.4331397	0.64824754	0.40556246	0.4975249	0.50515922	0.38674142	0.39643992	0.49917062	0.46599184	0.6889204	0.3906428	0.4693301	0.57540984	0.38188482	0.50588964	0.40889786	0.51373224	0.36404952	0.48146846	0.59913464	0.6170316	0.41259226	0.43458064	0.47242024	0.57373848	0.73265796	0.40608656	0.47211952	0.22811642	0.6529202	0.56550296	0.65509806	0.4066779	0.24320026	0.80343416	0.4658308	0.73463808	0.53240048	0.58430836	0.43415442	0.3967371	0.62032756	0.57489486	0.66698288	0.46877084	0.3877109	0.59316188	0.58678214	0.4182043	0.56471588	0.61718374	0.4804081	0.25437214	0.48523264	0.40339838	0.47816584	0.5573572	0.49291154	0.55144956	0.49165286	0.55037986	0.46463354	0.4484993	0.56847632	0.70108966	0.5523862	0.53251068	0.58834538	0.51544794	0.4678713	0.34978472	0.51406538	1.10181324	1.15358282	1.10170754	1.10245822	1.14598132	1.14729658	1.04548862	1.05246764	1.07318972	1.0782112	1.04856614	1.10544154	0.9727883	0.95239068	0.95700562	0.87992712	0.87281052	0.87011532	0.9099809	0.90442832	0.90269396	0.99006604	1.07876194	0.98666522	0.97924586	0.95863846	0.95440518	0.9523934	0.92838448	0.93252342	0.91920138	1.00044818	1.0021441	1.0772084	1.0011134	0.95086506	0.9580201	0.92985114	0.99284824	0.98519798	0.98868306	0.88646644	0.88295364	0.8855401	1.10356198	0.98575448	0.99646472	0.9886368	1.07942018	1.07483536	1.107254	1.10667	1.10036976	1.00457956	1.00930826	1.16589728	0.64994056	0.73186748	0.40064682	0.61610644	0.75977054	0.49482492	0.48214028	0.6111284	0.5693925	0.51976334	0.50098212	0.6067428	0.84383332	0.40448772	0.36656646	0.42246556	0.39190042	0.4011988	0.53091558	0.38614186	0.41870326	0.17399122	0.15313012	0.53901396	0.517075	0.5035791	0.43903728	0.46244978	0.47142526	0.43693102	0.42372184	0.51344028	0.59173166	0.38386446	0.4822525	0.45958344	0.4686635	0.49881314	0.48394654	0.49206428	0.5228861	0.57935178	0.43144968	0.58527706	0.3685066	0.6440598	0.45542998	0.5247741	0.34668766	0.41833968	0.44486294	0.57014262	0.45050538	0.5668931	0.5154301	0.41650024	0.64528826	0.48622758	0.52942726	0.58751942	0.40199974	0.40169494	0.39483852	0.5640673	0.47601624	0.47999532	0.48829766	0.50211908	0.45053344	0.66824996	0.40757334	0.47947436	0.5325604	0.59413144	0.39538282	0.45639032	0.65428028	0.53994894	0.3961626	0.3448263	0.29850494	0.6232477	0.39726216	0.53505238	0.63254266	0.49097146	0.44295944	0.42051134	0.40898512	0.43376202	0.41353464	0.5234214	0.55394514	0.46801118	0.50211658	0.46968998	0.49272892	0.57062592	0.49688088	0.38047442	0.45391062	0.56509252	0.5616326	0.45933394	0.39577462	0.40445136	0.49946944	0.5005781	0.48759	0.59636482	0.5744693	0.63235924	0.22515098	0.48422826	0.5524506	0.58771384	0.39446652	0.4405465	0.4486638	0.46651226	0.48204056	0.48979332	0.48665576	0.48490926	0.4785678	0.4716689	0.48046474	0.49093234	0.46448608	0.47161896
DD110	0.2144852	0.24151056	0.27341492	0.22786552	0.3723794	0.43157716	0.0	0.33855004	0.3185412	0.21175196	0.2398575	0.2083533	0.29505754	0.1804336	0.23241982	0.27879956	0.50939988	0.54007406	0.44138622	0.22171398	0.30359812	0.41334722	0.2662258	0.20332046	0.21758634	0.16898016	0.34028816	0.23998696	0.34335092	0.30492604	0.31679102	0.20190748	0.45994996	0.70396936	0.2173599	0.38000632	0.43452244	0.3307873	0.15213176	0.53612134	0.67789196	0.30324248	0.2565693	0.34037574	0.17849322	0.42530458	0.60762706	0.28825566	0.28584894	0.2194675	0.28404248	0.2971025	0.16312304	0.44013252	0.24564648	0.33488966	0.3028806	0.2651323	0.27297384	0.1450691	0.29859416	0.57610432	0.2681123	0.32382936	0.56042996	0.24842694	0.26695072	0.14680028	0.3466716	0.48949608	0.2324888	0.20374128	0.45606362	0.37029088	0.28894108	0.4229977	0.2300475	0.44172046	0.56703988	0.18000356	0.4658578	0.28882208	0.37050928	0.17321922	0.2510827	0.39795224	0.39033722	0.4636564	0.26355416	0.58256314	0.34887992	0.33397426	0.19686102	0.28095168	0.35158518	0.35019602	0.47047286	0.2080568	0.18473342	0.20812236	0.30186772	0.20693326	0.28654464	0.40298766	0.32337626	0.28646758	0.26944258	0.34445832	0.43684054	0.33241344	0.307838	0.3574867	0.28385154	0.28844938	0.55481828	0.2476221	1.1177734	1.17025638	1.1180443	1.11879498	1.16118828	1.16363334	1.0660505	1.07302952	1.08856012	1.09379476	1.0747893	1.1214017	0.99688214	0.9853102	0.98992514	0.91283028	0.90646536	0.90382264	0.94286082	0.93730824	0.93542872	1.0174298	1.0955099	1.01410354	1.00625334	0.99810318	0.99340434	0.9916588	0.95830228	0.96244122	0.94911918	1.03318294	1.03487886	1.09354516	1.03384816	0.97075794	0.97753658	0.95375146	1.025583	1.01707694	1.02141782	0.9166978	0.91320824	0.9157947	1.12023554	1.01848924	1.02998728	1.02137156	1.09681118	1.09117212	1.12375916	1.12295092	1.11766272	1.03167184	1.03640054	1.18380964	0.38559732	0.46319028	0.27788522	0.39220272	0.50495438	0.28611256	0.22602448	0.34295664	0.34645142	0.28509978	0.2973654	0.3793182	0.60058836	0.60925196	0.21626706	0.1955522	0.28298106	0.25515932	0.4551259	0.3159787	0.39065058	0.44176634	0.43784636	0.3231904	0.696416	0.25489198	0.33523188	0.6523063	0.2334681	0.2382139	0.43351956	0.3080048	0.37137558	0.2248519	0.23319594	0.2389312	0.22019698	0.27972006	0.29338454	0.25330748	0.3079609	0.33473002	0.16267764	0.31477122	0.55845752	0.41345308	0.20142194	0.24560194	0.54762602	0.1541446	0.18615062	0.32308882	0.37301318	0.33361698	0.2690999	0.21721136	0.40185034	0.3747087	0.24149378	0.29641546	0.24879142	0.20290494	0.2358982	0.30822998	0.3043168	0.2665916	0.2792261	0.50911092	0.20755696	0.43262516	0.33286226	0.25756172	0.27103328	0.32393948	0.15413806	0.25878372	0.42449264	0.3005199	0.18524628	0.22265478	0.48606582	0.39000214	0.27963904	0.46537002	0.3939433	0.22792754	0.16299328	0.28834746	0.17060764	0.26669682	0.17026512	0.26818648	0.27585402	0.25530086	0.27307386	0.26410874	0.3723304	0.29523536	0.29773888	0.22683674	0.22918382	0.31563772	0.4134454	0.26443786	0.2037281	0.24506996	0.26883032	0.22715818	0.2507036	0.34988242	0.31195254	0.35860276	0.44188566	0.25859626	0.30009976	0.3048098	0.22499248	0.6221305	0.19368308	0.2185867	0.36711832	0.3779492	0.36229276	0.36680394	0.36550916	0.37667154	0.42534346	0.42154094	0.4248532	0.38674604
DD111	0.29362376	0.26891964	0.35421752	0.43389824	0.18507756	0.60800184	0.33855004	0.0	0.2971534	0.4195646	0.29957882	0.39420814	0.50543878	0.29511204	0.42433158	0.2305724	0.5254208	0.70126022	0.52516806	0.4043001	0.19405112	0.5797509	0.24319676	0.3015139	0.23954718	0.36919248	0.14289312	0.4486156	0.55347168	0.40835428	0.18078278	0.3004786	0.59579028	0.57777124	0.38925938	0.61911152	0.23099992	0.16692986	0.36993672	0.5484799	0.56993908	0.53452052	0.32851262	0.20908898	0.32657274	0.1940389	0.51369422	0.28154274	0.27521602	0.4109775	0.55590124	0.42744902	0.3504418	0.21500484	0.5047088	0.54654022	0.2296886	0.46991962	0.21312936	0.32519718	0.20725068	0.50874856	0.2697039	0.16293432	0.7010608	0.47156874	0.46733548	0.35895264	0.12533108	0.27888072	0.43754724	0.4073856	0.5610209	0.16486804	0.24880228	0.19004134	0.50372198	0.53181926	0.34302244	0.40856224	0.2638724	0.23334304	0.16274808	0.36351854	0.51804294	0.14913144	0.19338462	0.22566916	0.24043336	0.50628698	0.18240248	0.23474202	0.36855774	0.23313016	0.19099566	0.6153193	0.5452773	0.28498552	0.35641278	0.33192008	0.16233084	0.29456094	0.20835812	0.52998966	0.2357313	0.35442526	0.3269047	0.19810252	0.1492859	0.222758	0.22484804	0.17528202	0.2085943	0.3329557	0.4759444	0.2251705	1.1851688	1.23727518	1.1850631	1.18581378	1.22933688	1.23065214	1.13141438	1.13828652	1.1569876	1.16156676	1.13002738	1.1887971	1.05869414	1.07889124	1.0815797	1.00555092	0.99952292	0.9954772	1.03470014	1.03195184	1.03100708	1.084359	1.1629053	1.09324474	1.09065846	1.08332426	1.07901026	1.07807996	1.05651516	1.0606541	1.04733206	1.12502226	1.12671818	1.16056396	1.12568748	1.04598286	1.05095098	1.02496894	1.117394	1.11480346	1.11627598	1.01491068	1.01142112	1.01400758	1.18725434	1.11032856	1.1218266	1.11321088	1.16420658	1.15863324	1.19077796	1.19017072	1.18468152	1.0886358	1.0933645	1.25082844	0.306138	0.20364076	0.35429558	0.21590396	0.29399714	0.27570744	0.33968164	0.22709724	0.19804282	0.37205538	0.2294898	0.19892928	0.35939204	0.51516772	0.4070469	0.38717676	0.40623574	0.4026398	0.63526142	0.49197502	0.5833783	0.59200034	0.60943336	0.4544726	0.57674144	0.26221246	0.45526848	0.54510818	0.27945838	0.28165754	0.3529376	0.27590144	0.19346494	0.42108586	0.3611763	0.39506236	0.31520954	0.3212815	0.34716714	0.25704848	0.38917014	0.15150902	0.35598508	0.1625785	0.48576872	0.21679592	0.3648789	0.29994766	0.75242522	0.4290334	0.45485234	0.17563126	0.33216594	0.18959326	0.23755166	0.38151148	0.20636422	0.63795714	0.2800693	0.20355194	0.4533649	0.42406218	0.48013344	0.20905274	0.47226336	0.27438456	0.2481131	0.39599952	0.32862832	0.2239926	0.45618422	0.26316504	0.22047936	0.1366436	0.38460698	0.2690748	0.19500928	0.21157706	0.32856748	0.38870998	0.48656434	0.20029246	0.40318732	0.64461782	0.21610314	0.29012302	0.31465092	0.35912522	0.44047056	0.4126845	0.31363936	0.24327488	0.26985258	0.30924886	0.2414567	0.26583542	0.48113124	0.19362736	0.41753192	0.43162342	0.2773775	0.13896268	0.52005452	0.41804014	0.48202766	0.5276842	0.2632374	0.24656394	0.31660376	0.1563093	0.2116563	0.21893556	0.5244803	0.29380406	0.22812456	0.23642016	0.41588676	0.5268869	0.41588256	0.31061078	0.52926948	0.53290116	0.52595932	0.53229254	0.52886348	0.55021946	0.56826506	0.5737033	0.58744924	0.53959072
DD112	0.31284532	0.30214132	0.3088872	0.37169304	0.39734072	0.54341888	0.3185412	0.2971534	0.0	0.37349976	0.28959542	0.3411049	0.45653366	0.30472368	0.37320586	0.36913272	0.58461772	0.53523454	0.5646543	0.34798394	0.336139	0.56657878	0.33641764	0.30810874	0.3230369	0.322977	0.28006688	0.38450136	0.50288052	0.35724588	0.38719778	0.34236324	0.55795272	0.74576196	0.32970742	0.5538516	0.45693876	0.29968026	0.36242352	0.58577014	0.72496972	0.33295964	0.23812262	0.23710914	0.31895554	0.43068214	0.65569122	0.35184326	0.3096029	0.3711021	0.49896976	0.35183318	0.34863604	0.43686956	0.44800824	0.4857363	0.36538	0.4010281	0.33149272	0.2835469	0.3373746	0.64137448	0.30370906	0.34340288	0.55040856	0.40984406	0.41099668	0.38731872	0.29960296	0.49416388	0.38953984	0.42363196	0.59129542	0.30413004	0.3689856	0.42540166	0.44424358	0.57855398	0.5667944	0.41916744	0.48813412	0.35209268	0.3872774	0.35628394	0.45883102	0.37813948	0.38939094	0.44484624	0.3406078	0.64051754	0.38437404	0.41782398	0.34050582	0.34843348	0.38869394	0.5534573	0.57821942	0.22684864	0.30747846	0.33314112	0.3489928	0.33062682	0.2367256	0.4605839	0.36813514	0.3080071	0.33618614	0.3717322	0.37623322	0.38062392	0.36678816	0.3649809	0.32550758	0.32387154	0.61536332	0.35267342	1.14685256	1.19895894	1.14674686	1.14749754	1.19102064	1.1923359	1.09627282	1.10317192	1.1173444	1.12325052	1.10252498	1.15048086	1.03113878	1.027787	1.03148174	0.95438688	0.94832	0.94537924	0.98441742	0.98073436	0.9797896	1.04566596	1.12458906	1.05287626	1.04915306	1.04069974	1.03598218	1.03436932	0.99868976	1.0060131	0.98883626	1.07473954	1.07643546	1.12224772	1.07540476	0.98033166	0.9871103	0.96435778	1.06711128	1.06351446	1.06498698	0.94736448	0.94387492	0.94646138	1.14909206	1.06004584	1.07154388	1.06292816	1.12589034	1.11987468	1.15246172	1.15185448	1.14651924	1.05440252	1.05928518	1.2125122	0.4118758	0.43832904	0.30866658	0.40684476	0.51923342	0.36434676	0.30417152	0.38330748	0.36292042	0.27429446	0.34625392	0.39664832	0.59741868	0.65716848	0.3551467	0.33185608	0.3610657	0.33257704	0.55723894	0.43312874	0.51190694	0.5520383	0.53884052	0.22753432	0.73368244	0.3225611	0.39667332	0.70217662	0.34599858	0.3235465	0.50090316	0.34018316	0.39959454	0.36480462	0.35866698	0.38682288	0.33612014	0.31351302	0.32376058	0.34188612	0.34709738	0.36212866	0.36143964	0.34853386	0.62640264	0.40869032	0.37374342	0.25918098	0.67676122	0.40532664	0.4209721	0.35804754	0.43933678	0.33906578	0.33052246	0.34736192	0.40547486	0.5835671	0.30518282	0.3530595	0.39223018	0.37313282	0.42135488	0.31821878	0.35238168	0.3440428	0.34674554	0.56393008	0.33140596	0.45345904	0.4154451	0.33873008	0.35954436	0.25241808	0.35680342	0.33769752	0.42794436	0.35285678	0.3126776	0.3267323	0.59128958	0.3994967	0.35021076	0.56583102	0.4119533	0.33429526	0.30092088	0.32841614	0.40533936	0.36387758	0.30505028	0.3394958	0.34255662	0.34815826	0.34016618	0.32814986	0.43441788	0.29076928	0.2689562	0.37818374	0.2349803	0.3221932	0.49968016	0.30998462	0.4208677	0.46733624	0.34522424	0.26631946	0.365059	0.35453058	0.36487662	0.4232124	0.56587162	0.34608122	0.36272276	0.25306272	0.36306668	0.67667242	0.38230628	0.3078655	0.4879436	0.5048464	0.48644464	0.50472686	0.49378384	0.49106602	0.52293522	0.5252821	0.53938348	0.47911608
DD113	0.23245452	0.27029504	0.24668584	0.12878268	0.44479172	0.38145496	0.21175196	0.4195646	0.37349976	0.0	0.2509621	0.13788886	0.24406638	0.20802068	0.20439538	0.3200016	0.55895956	0.4954957	0.49706378	0.1578453	0.34966808	0.45930066	0.33986124	0.21962322	0.27209706	0.22829116	0.4159916	0.12417396	0.29063092	0.33316168	0.39395866	0.2711858	0.4800856	0.748063	0.20760402	0.3422808	0.509618	0.40020194	0.22616876	0.58584822	0.72838848	0.32787144	0.3201913	0.41214614	0.21715594	0.47787022	0.66415142	0.3362927	0.31892262	0.17002954	0.24027948	0.25448754	0.200022	0.49427972	0.20625068	0.28616062	0.38608496	0.1812937	0.3130234	0.2149177	0.34986436	0.64256792	0.29599514	0.40043684	0.53299304	0.1377971	0.15919292	0.24817252	0.43543652	0.56537624	0.19088208	0.27057668	0.49421214	0.45474664	0.36493624	0.47229694	0.21012358	0.49979386	0.6359908	0.24170772	0.53559216	0.33371632	0.42371632	0.22590222	0.21672226	0.44341148	0.44748598	0.53914404	0.30543844	0.62575242	0.40993908	0.39955178	0.2282565	0.36417568	0.43825298	0.31404734	0.50777814	0.29974572	0.21956494	0.2858892	0.37326912	0.23121146	0.3701988	0.33658178	0.37664542	0.2898901	0.28511666	0.39594692	0.51575754	0.38982448	0.35581128	0.41080138	0.32034786	0.31565754	0.60166748	0.30754402	1.10188816	1.1546627	1.10312422	1.1038749	1.14348428	1.14871326	1.0382697	1.04475684	1.07345312	1.07732132	1.04810042	1.10551646	0.95991186	0.94976128	0.95437622	0.87776968	0.86943944	0.86901716	0.90917178	0.90329808	0.90188484	0.98133996	1.07866482	0.97793914	0.97030862	0.95109826	0.94663866	0.94485088	0.91710016	0.9212391	0.90791706	0.99857238	1.0002683	1.07862508	0.9992376	0.93705986	0.9447507	0.91590814	0.9901342	0.98162146	0.98596234	0.8748918	0.87152416	0.87360542	1.10452874	0.98387868	0.9943992	0.986761	1.07890134	1.07625204	1.10867068	1.10788568	1.10088284	0.99632452	1.0010167	1.16566608	0.45716352	0.54977544	0.25854046	0.45002352	0.58244158	0.33838804	0.20524624	0.42371916	0.39667322	0.2836577	0.33468784	0.43308252	0.66721892	0.66392592	0.12562198	0.22072548	0.2041655	0.25248548	0.37624506	0.2197145	0.31172366	0.45614198	0.43115092	0.374758	0.7474752	0.31725634	0.29778652	0.71306258	0.31958058	0.2744669	0.47760736	0.34745976	0.42761814	0.1247127	0.25078838	0.28769376	0.24972674	0.31552634	0.30878622	0.288489	0.2994393	0.37637638	0.23676032	0.38238842	0.61494548	0.47623508	0.2017897	0.32328434	0.50102042	0.22136728	0.21467978	0.39412942	0.41464394	0.38430258	0.30068514	0.22836844	0.45954326	0.31812682	0.32022298	0.38763754	0.20773202	0.17640274	0.19806316	0.37022018	0.3004286	0.29725732	0.31775562	0.55774376	0.22737408	0.48459956	0.2507459	0.31042872	0.35199392	0.40113504	0.19545034	0.30986536	0.46729512	0.36306886	0.2581754	0.23796122	0.54415378	0.45720962	0.22350932	0.39871546	0.4272023	0.28923182	0.24252844	0.27963794	0.18832508	0.2214111	0.18194388	0.2789774	0.34754166	0.29765014	0.32368414	0.30774182	0.3126624	0.3715692	0.30307008	0.11051346	0.28239534	0.37443996	0.39874472	0.26326726	0.17775838	0.21993828	0.3240398	0.30585422	0.3126356	0.40606038	0.3596457	0.44582568	0.5037031	0.30045526	0.35721356	0.390183	0.19257728	0.67794526	0.198487	0.2442765	0.40978036	0.4316104	0.40813524	0.41734106	0.4055514	0.4006333	0.43264822	0.4385099	0.40242084	0.41128988
DD114	0.15821598	0.08847022	0.13494734	0.2290175	0.32582574	0.4124691	0.2398575	0.29957882	0.28959542	0.2509621	0.0	0.21808064	0.32915152	0.17936114	0.26497436	0.21528934	0.5235841	0.58391888	0.4635022	0.22897736	0.17747874	0.416919	0.23607098	0.16090472	0.19614652	0.23487442	0.28387338	0.24710718	0.38900718	0.34814118	0.28516196	0.19224422	0.45351462	0.71112194	0.19660152	0.43639306	0.37793254	0.27099	0.21631386	0.54417808	0.69531398	0.4225451	0.31101996	0.30194036	0.1657324	0.33333152	0.62333568	0.16203028	0.16451656	0.25237236	0.35488494	0.30017704	0.23550834	0.35835442	0.30569554	0.3593952	0.3194637	0.27441476	0.16657074	0.20516112	0.16599994	0.59610246	0.146734	0.2853475	0.58352746	0.27168376	0.2961007	0.28996098	0.31908154	0.42711046	0.2858155	0.33828278	0.4467898	0.33224734	0.31956946	0.32686768	0.30808768	0.465813	0.48690706	0.31539958	0.43522998	0.18589366	0.29777226	0.26126368	0.31374104	0.29943334	0.28207084	0.40443438	0.1605269	0.59013684	0.26879126	0.27292796	0.17949732	0.29993562	0.34476116	0.4163892	0.48603708	0.23129754	0.191958	0.2692303	0.27421154	0.258782	0.26216254	0.31198308	0.20326988	0.18738032	0.11105484	0.22283414	0.36758184	0.21099494	0.20004566	0.2503752	0.161718	0.13649096	0.57752014	0.219721	1.14487306	1.19630584	1.14476736	1.14551804	1.18904114	1.1903564	1.0874652	1.09441774	1.1153649	1.12127102	1.09653204	1.14850136	1.01556116	0.99951794	1.00413288	0.92705438	0.91928742	0.91724258	0.95710816	0.95155558	0.94982122	1.0319181	1.12182176	1.02844048	1.02111116	1.00634204	1.00208396	1.00020486	0.97016126	0.9743002	0.96097816	1.04757544	1.04927136	1.12026822	1.04824066	0.98716904	0.9949512	0.96924352	1.0399515	1.03146944	1.03581032	0.9279529	0.92458526	0.92666652	1.14617188	1.03288174	1.04359198	1.03576406	1.1216918	1.11789518	1.15031382	1.14972982	1.14297966	1.04652966	1.05141232	1.20830674	0.33004486	0.3975775	0.13198076	0.2819103	0.43336968	0.25636506	0.29677206	0.33047302	0.2357338	0.36497516	0.19499494	0.27240982	0.51912226	0.62347842	0.22358588	0.23975946	0.19250464	0.21164506	0.40030916	0.29230292	0.3467744	0.39343632	0.40695174	0.43815206	0.7008985	0.22225212	0.23886542	0.67373376	0.1794434	0.10770752	0.46374702	0.2761609	0.25408664	0.230713	0.28928924	0.34637386	0.19392968	0.13483028	0.1971288	0.18572606	0.3192144	0.29486736	0.26736706	0.30418552	0.57927346	0.35660686	0.27793276	0.29040848	0.55180116	0.26827414	0.29467992	0.24161488	0.39133348	0.25739756	0.2410538	0.18695462	0.35515408	0.460347	0.29964556	0.34595876	0.26595984	0.28194564	0.28332282	0.255643	0.39326466	0.15401966	0.2528702	0.52222742	0.2681195	0.36030238	0.25171732	0.21877186	0.24087962	0.31946374	0.21610172	0.20868198	0.35037154	0.29412288	0.2297711	0.22200896	0.50873996	0.30759436	0.1683641	0.4175524	0.31633984	0.238818	0.24457746	0.11620724	0.26546838	0.31927748	0.17419798	0.25248474	0.25182668	0.19383728	0.17041444	0.1572042	0.30603302	0.2793163	0.38230034	0.2653448	0.20301944	0.24076738	0.50281962	0.35225764	0.28048148	0.33162354	0.18278142	0.22577328	0.18216806	0.26619124	0.25533252	0.31127274	0.46738116	0.1626614	0.2417371	0.3380053	0.24771378	0.63593988	0.26259778	0.17374364	0.42609118	0.44921074	0.4260465	0.43339616	0.42917058	0.44645072	0.48060212	0.48261616	0.47441802	0.45067586
DD115	0.1954067	0.24795058	0.20565594	0.17006082	0.40768474	0.41017454	0.2083533	0.39420814	0.3411049	0.13788886	0.21808064	0.0	0.2890954	0.19997866	0.22985576	0.29613222	0.5199337	0.51684872	0.4768722	0.14866212	0.32181562	0.45436504	0.30164554	0.22080952	0.24963552	0.21385922	0.39325818	0.17329094	0.33583026	0.30838594	0.34884936	0.2279559	0.45450042	0.7111951	0.1895254	0.38442458	0.4676291	0.3619252	0.22014706	0.55724848	0.71674682	0.36207958	0.2795444	0.3760738	0.20299588	0.44931508	0.64956856	0.28185048	0.29059324	0.20374588	0.28923914	0.21115852	0.1814027	0.44666926	0.24904598	0.32063412	0.34703166	0.23080136	0.2913707	0.1923336	0.31755382	0.6298271	0.26590724	0.36174282	0.5559609	0.20524816	0.1803213	0.24666918	0.39840574	0.51476418	0.21968134	0.29668338	0.4878584	0.41771862	0.33102738	0.44353868	0.24488488	0.48214636	0.58291746	0.26181326	0.49418446	0.28771174	0.39453426	0.21785812	0.2582142	0.41857962	0.40738892	0.50343446	0.28789878	0.61220516	0.36553522	0.3599014	0.21020028	0.32942034	0.39407124	0.3532264	0.47962432	0.25934766	0.19848836	0.2620637	0.34132782	0.19577288	0.32501338	0.3431544	0.31056464	0.2182652	0.24184028	0.35056734	0.48489696	0.33715842	0.31455398	0.37109328	0.29202292	0.25208488	0.59646482	0.28075228	1.11233098	1.16482388	1.1132854	1.11403608	1.15473438	1.15887444	1.02977964	1.0346465	1.08341258	1.08766882	1.06208728	1.11595928	0.97728856	0.96275626	0.96694888	0.88942442	0.88049618	0.88096898	0.92090192	0.91487298	0.91345974	0.9812805	1.088587	0.97728124	0.963375	0.9449586	0.94048012	0.93848878	0.93104382	0.93525524	0.9219332	1.00998444	1.01168036	1.08878626	1.01064966	0.95052544	0.9581974	0.92744048	1.00239118	0.99387844	0.99821932	0.88881682	0.88556206	0.88721764	1.11404488	0.9951875	1.00574846	0.99804026	1.08900636	1.08641322	1.11883186	1.11804686	1.11019766	0.98803914	0.992125	1.1756821	0.39909622	0.50500646	0.23226532	0.40379138	0.52427472	0.2915025	0.21573326	0.39436526	0.34734976	0.29050356	0.30775894	0.38887846	0.6077659	0.64700638	0.153027	0.19790042	0.22136012	0.2379535	0.39678508	0.28121424	0.34910464	0.44756604	0.42579218	0.35413698	0.72879574	0.27823948	0.2819813	0.68958128	0.27804436	0.25357064	0.4481985	0.3099465	0.39690528	0.17644036	0.25330556	0.31116866	0.22243376	0.26534512	0.263879	0.26639626	0.25729556	0.35387468	0.24779346	0.34593356	0.5921297	0.42277526	0.21816296	0.2750216	0.52319532	0.23112394	0.24379048	0.34746996	0.38769256	0.35583416	0.28742908	0.21192902	0.4149842	0.36847044	0.3135854	0.37256824	0.21982416	0.19238728	0.21464942	0.33475896	0.31759206	0.2780013	0.29818556	0.53832422	0.2092085	0.43358078	0.27648812	0.27177258	0.32169794	0.38486738	0.19488032	0.2815991	0.40684766	0.32525988	0.23487374	0.2276918	0.52403044	0.40556516	0.22154842	0.42323552	0.39672768	0.26906416	0.22198502	0.23111372	0.22122422	0.218887	0.17885566	0.25800602	0.31492788	0.27125044	0.2759626	0.27323564	0.29253214	0.34485206	0.3080467	0.15435908	0.253189	0.35096282	0.44088318	0.2713906	0.21802008	0.2657599	0.2806141	0.26986668	0.27994646	0.37936932	0.31960952	0.40575322	0.48342688	0.26085596	0.3156401	0.35158174	0.20538258	0.66205424	0.20104998	0.20479536	0.4031741	0.4280381	0.4084457	0.41643608	0.40500986	0.39958044	0.42096828	0.42357612	0.4007699	0.40829022
DD116	0.3313997	0.36687662	0.30998898	0.23201122	0.48486438	0.42400426	0.29505754	0.50543878	0.45653366	0.24406638	0.32915152	0.2890954	0.0	0.28754594	0.14253992	0.40592046	0.60402942	0.48241548	0.5474182	0.27205436	0.42392954	0.5144194	0.37896054	0.3043436	0.36525032	0.28591578	0.48637322	0.23461258	0.17304838	0.36399094	0.46584832	0.31800074	0.5618825	0.79999546	0.1947328	0.18787842	0.54308462	0.4897956	0.27636442	0.64399612	0.79535646	0.3409089	0.37496952	0.499356	0.30060292	0.5500258	0.70951688	0.41512432	0.40602236	0.16471212	0.26415206	0.38876956	0.3182161	0.57343054	0.2540341	0.1955904	0.42928154	0.22440332	0.38843762	0.30279216	0.4207677	0.69393638	0.38817636	0.47424378	0.5128423	0.23277352	0.25545346	0.33822914	0.51672514	0.62240534	0.14375938	0.34549358	0.55963256	0.51892162	0.41536122	0.53647368	0.24302688	0.56309708	0.69807678	0.30440842	0.60652418	0.42128362	0.49098874	0.21808184	0.25817124	0.51312718	0.52082768	0.62178174	0.37690166	0.70755436	0.4793739	0.42774768	0.21043136	0.39491486	0.46810364	0.2741624	0.594782	0.36744586	0.28520396	0.35281418	0.42368126	0.36099116	0.45750746	0.31367464	0.45983576	0.36345344	0.35231248	0.46940594	0.58770128	0.4526991	0.4412461	0.48039164	0.4128546	0.38969196	0.6594577	0.38849292	1.05796414	1.11124388	1.0592002	1.05995088	1.10175562	1.10478924	1.00693884	1.0135385	1.03348678	1.03505862	1.0088498	1.06159244	0.94370592	0.9295737	0.93125588	0.85582982	0.84992678	0.84500278	0.88475816	0.8826235	0.88231262	0.97133522	1.03519448	0.96566816	0.959134	0.93416088	0.928209	0.92802214	0.91088866	0.9150276	0.90170556	0.97587616	0.9765658	1.03470106	0.9755351	0.9376418	0.94451824	0.91768424	0.96699498	0.96587852	0.96684824	0.86911578	0.86562622	0.86963788	1.06135052	0.96017618	0.97088642	0.9630585	1.03686224	1.0348345	1.06474666	1.06396166	1.0581583	0.9788447	0.98463564	1.12417774	0.50391278	0.62461978	0.30777344	0.52400714	0.64604576	0.41986298	0.34274958	0.43440234	0.47263476	0.37458468	0.40621126	0.5053887	0.73758938	0.7274531	0.22420008	0.20255978	0.24002296	0.30046798	0.36416544	0.21235736	0.31019884	0.47615668	0.46693122	0.46926398	0.8045253	0.39193724	0.30998606	0.75254024	0.36814496	0.34996828	0.54247898	0.43336826	0.48041604	0.24380472	0.31202476	0.31138666	0.32682412	0.40900764	0.38157936	0.38679822	0.38284104	0.44955204	0.2594243	0.44124296	0.67046666	0.54833994	0.32777052	0.38379504	0.44484136	0.30450374	0.26209	0.46505064	0.48704552	0.45357944	0.38355604	0.21472018	0.5454364	0.3226756	0.39073512	0.44459696	0.16326616	0.26307016	0.2461279	0.45129736	0.3038107	0.36932314	0.40179092	0.61812134	0.33006738	0.55491606	0.25393568	0.38654614	0.40879278	0.48751758	0.2867682	0.37335002	0.55120906	0.42156224	0.33663094	0.3259534	0.592044	0.518137	0.29374006	0.36503748	0.50378708	0.32955496	0.34746414	0.35023056	0.27028786	0.28375444	0.27900794	0.39560746	0.40173064	0.35966964	0.40290628	0.37876792	0.32587066	0.4528393	0.38174782	0.24093364	0.36260284	0.4517111	0.3742027	0.34544324	0.25121388	0.23214574	0.39238574	0.39025404	0.31313394	0.4776678	0.4505294	0.45926902	0.54360068	0.35699864	0.43974246	0.45909346	0.16628782	0.73176556	0.29507554	0.34804856	0.46161726	0.48530386	0.46085646	0.46718384	0.45639634	0.44344992	0.47629452	0.48117356	0.43781586	0.46525022
DD118	0.14955864	0.17275436	0.196334	0.22517488	0.3267574	0.40745424	0.1804336	0.29511204	0.30472368	0.20802068	0.17936114	0.19997866	0.28754594	0.0	0.23506434	0.17990844	0.48801988	0.57333334	0.42809482	0.22342078	0.2202548	0.4004389	0.2232002	0.09967326	0.14050118	0.19872292	0.2821574	0.2389166	0.36118832	0.32060348	0.25662098	0.155896	0.4688538	0.67941848	0.18956862	0.41477084	0.38760552	0.29263066	0.15201992	0.5279655	0.66628488	0.39126384	0.28162966	0.30501238	0.13150114	0.3457547	0.59129398	0.22160806	0.20453578	0.20854614	0.33086512	0.2789679	0.14418284	0.38463372	0.29843888	0.34950066	0.27385148	0.22293026	0.1890702	0.16956834	0.22188492	0.56867172	0.19005022	0.28607264	0.60367424	0.26317894	0.27518704	0.2154762	0.31996692	0.43217824	0.25263048	0.25494	0.4304185	0.34244944	0.25560476	0.32789218	0.28958858	0.43916242	0.50942756	0.22727208	0.41521088	0.2159728	0.29197996	0.1794485	0.30420242	0.29520976	0.32685634	0.42585044	0.16595608	0.5760287	0.25849384	0.28394546	0.18620378	0.24274828	0.31572902	0.4096253	0.47001334	0.20667208	0.17328666	0.21736348	0.24327144	0.17027218	0.25805708	0.3578649	0.26104046	0.22863238	0.19531806	0.27454708	0.3888449	0.24795036	0.22882296	0.2870061	0.21306602	0.22450962	0.53649576	0.16664346	1.13799108	1.19009746	1.13788538	1.13863606	1.18215916	1.18347442	1.0829769	1.08992944	1.109515	1.11438904	1.08427526	1.14161938	1.01342466	1.00098488	1.00559982	0.9285984	0.9216502	0.91949732	0.95862894	0.95417872	0.95340156	1.029893	1.11572758	1.02430506	1.01771066	1.00846614	1.00404458	1.00221876	0.9821186	0.98625754	0.9729355	1.04895106	1.05064698	1.11338624	1.04961628	0.9950509	1.00192298	0.97394566	1.04133876	1.0373901	1.03835982	0.94051412	0.93702456	0.93961102	1.14023058	1.03425736	1.0457554	1.03713968	1.11702886	1.11116064	1.14360024	1.142993	1.13765776	1.04204136	1.04692402	1.20365072	0.33848212	0.42356956	0.20009814	0.323022	0.4567665	0.2184712	0.24685988	0.29465896	0.27361666	0.3121539	0.19942608	0.30470256	0.54498804	0.600331	0.19004138	0.20649516	0.23159634	0.2168014	0.44831062	0.29171862	0.3948971	0.42842014	0.43428932	0.403693	0.68708816	0.2040831	0.28875596	0.63980486	0.19062194	0.14572766	0.42600232	0.23877856	0.28284882	0.2186895	0.21596214	0.28170612	0.16445098	0.24647706	0.23928386	0.16447888	0.28255122	0.23489378	0.17617124	0.27005806	0.55203556	0.35403924	0.18779114	0.24622126	0.55870146	0.20592164	0.23823478	0.2630503	0.36221138	0.2529489	0.16840206	0.18628476	0.3503401	0.4350733	0.24256738	0.3034277	0.24333398	0.24372222	0.26538972	0.25808298	0.3626914	0.16799784	0.21329914	0.49756044	0.17866852	0.35525836	0.2724383	0.1889958	0.23533088	0.28120124	0.16126246	0.18851452	0.36449244	0.25414506	0.18113392	0.23065502	0.4665905	0.32605194	0.23370932	0.4541687	0.30978818	0.18863342	0.18801224	0.22568086	0.22736664	0.27833834	0.09681084	0.19211124	0.23416458	0.19906102	0.19868586	0.17324542	0.34276576	0.25878296	0.34923288	0.22292614	0.22161654	0.25415772	0.43883184	0.32010462	0.25369934	0.30270748	0.20404196	0.19991638	0.1890122	0.28207378	0.22951002	0.32043004	0.4255819	0.16258338	0.24730364	0.2995846	0.22484208	0.6147999	0.2124378	0.17216334	0.41433896	0.42018516	0.40825472	0.40826878	0.40915332	0.43082586	0.45764578	0.46188194	0.46235748	0.43869364
DD119	0.26900738	0.29976922	0.2603373	0.20915558	0.43211962	0.39494658	0.23241982	0.42433158	0.37320586	0.20439538	0.26497436	0.22985576	0.14253992	0.23506434	0.0	0.35322402	0.57658618	0.51189708	0.51949116	0.24001836	0.35866986	0.48007532	0.32618738	0.2518354	0.30881516	0.2520221	0.4124985	0.21371458	0.22408362	0.32476102	0.40590776	0.26581974	0.5239647	0.7700123	0.15082716	0.24989726	0.49757626	0.41219748	0.24052902	0.61077804	0.75981102	0.33057926	0.33370488	0.42230444	0.23911712	0.47570792	0.68112936	0.3510808	0.34130192	0.12736804	0.2741743	0.32487936	0.27425682	0.51170762	0.23368542	0.21448616	0.37398082	0.21395204	0.33290534	0.23326344	0.35023946	0.65377938	0.32352788	0.4022761	0.52615642	0.22437116	0.2419085	0.2908703	0.44002958	0.5579991	0.10656522	0.31375962	0.52540756	0.44464494	0.37388442	0.47206052	0.2234298	0.52253564	0.63469342	0.27752462	0.53965146	0.35755782	0.42354818	0.1686602	0.24299736	0.44933494	0.45149168	0.54023026	0.31434366	0.66460916	0.42373762	0.37169332	0.16723292	0.3515865	0.42285912	0.32386552	0.55506544	0.28859746	0.23515804	0.31387286	0.36611474	0.29052084	0.37749186	0.30984364	0.39035956	0.29759868	0.29625712	0.39887238	0.51024708	0.38906178	0.3782347	0.41164216	0.35318604	0.32621284	0.62329318	0.3312262	1.09288538	1.14561268	1.0934006	1.09415128	1.13630026	1.13898964	1.04044572	1.04729138	1.06529394	1.06890674	1.04286536	1.09651368	0.97267864	0.9565743	0.95918108	0.88310298	0.87707498	0.87302926	0.9123832	0.9096349	0.90869014	0.99664058	1.07062188	0.99115424	0.98481412	0.96256696	0.95717012	0.95633198	0.93703062	0.94116956	0.92784752	1.00270532	1.00440124	1.06890146	1.00337054	0.96013304	0.96709644	0.93999404	0.99510538	0.99248652	0.99395904	0.89542614	0.89193658	0.89452304	1.0957458	0.98794298	0.99950966	0.99089394	1.07192316	1.0675605	1.09911546	1.09830722	1.09317298	1.00562226	1.01050492	1.15916594	0.4418513	0.54750286	0.25688252	0.45416098	0.58056888	0.3534429	0.28786886	0.37582514	0.40416496	0.32863984	0.33691062	0.4442685	0.6754193	0.68568862	0.18371216	0.15470634	0.21665368	0.27496334	0.40318468	0.2413112	0.34301468	0.4582026	0.44173502	0.40935978	0.76878202	0.32422968	0.28233682	0.72201676	0.29622216	0.286628	0.50445874	0.36860282	0.42292616	0.20241508	0.2530828	0.27467486	0.26933824	0.3366182	0.31103428	0.32526382	0.31886936	0.39383556	0.21929214	0.38251048	0.63234238	0.49012326	0.28671836	0.3294446	0.47610148	0.26583274	0.23985504	0.39587856	0.44243228	0.38857332	0.32358496	0.18846846	0.4871942	0.36010312	0.34637504	0.401178	0.13824016	0.20092204	0.22383038	0.37367668	0.31022198	0.31498494	0.33640912	0.57557954	0.27036714	0.4886253	0.2410166	0.33543382	0.33500442	0.41165782	0.24789812	0.32049166	0.49003758	0.36451332	0.26733058	0.27079244	0.5607832	0.46267236	0.23709062	0.40397308	0.44831516	0.2670336	0.29048318	0.28835512	0.23641114	0.246283	0.22107202	0.33569442	0.3406308	0.308819	0.33097124	0.31015864	0.29490178	0.37707194	0.34040214	0.20166124	0.28205692	0.38614534	0.38708258	0.30716928	0.22705936	0.22465678	0.33070122	0.31636196	0.2711521	0.41319344	0.38893808	0.40180206	0.50878068	0.29959476	0.3843455	0.40550686	0.1159683	0.6971302	0.25042746	0.28659644	0.42340138	0.4475951	0.42424654	0.43037612	0.4208897	0.4083168	0.4454978	0.44802352	0.40689318	0.4278723
DD12	0.20808416	0.19970208	0.2603752	0.32885384	0.21186608	0.510416	0.27879956	0.2305724	0.36913272	0.3200016	0.21528934	0.29613222	0.40592046	0.17990844	0.35322402	0.0	0.49648996	0.6645929	0.44460154	0.31712998	0.14622004	0.45999282	0.18842316	0.18321866	0.1097333	0.29985732	0.23953116	0.34705448	0.48201476	0.38862288	0.13699746	0.18855516	0.5105524	0.63893092	0.28160686	0.51991192	0.28202084	0.18152794	0.25097244	0.55783078	0.6075214	0.46808964	0.36394866	0.2527683	0.2056405	0.26004094	0.54225306	0.19994954	0.22587926	0.34268946	0.4223954	0.32671282	0.23152636	0.26471588	0.3910564	0.45150882	0.21722948	0.32542582	0.1369568	0.27001874	0.14965348	0.513661	0.20786878	0.1676578	0.700463	0.36176794	0.37879316	0.25421972	0.24076084	0.31895808	0.37080404	0.3157496	0.4512861	0.23573072	0.20837192	0.23974426	0.39041914	0.43442554	0.38605656	0.30018612	0.31662088	0.17290856	0.20421372	0.2910137	0.39505778	0.21141768	0.21353542	0.31264552	0.13300116	0.51632082	0.143152	0.16074478	0.25033674	0.19914552	0.23856014	0.50522202	0.47828846	0.27098268	0.27148922	0.28410372	0.16843104	0.21278238	0.24080592	0.44456378	0.17513486	0.28120622	0.23321546	0.16708676	0.30318426	0.15536968	0.14789216	0.18992954	0.14795466	0.24299814	0.48057748	0.08605014	1.20212724	1.25423362	1.20202154	1.20277222	1.24629532	1.24761058	1.1532375	1.16019004	1.17261908	1.1785252	1.16497554	1.20575554	1.09044858	1.07083852	1.07525298	0.99824264	0.99599676	0.98905024	1.02827318	1.0227206	1.02084108	1.09770364	1.17986374	1.09697426	1.09331578	1.08889418	1.08468118	1.08274376	1.0482076	1.05234654	1.0390245	1.1185953	1.12029122	1.1775224	1.11926052	1.0519273	1.0588907	1.0408405	1.11095068	1.1034959	1.10683018	1.00660312	1.00311356	1.00726746	1.20582494	1.1039016	1.11539964	1.10678392	1.18116502	1.17514936	1.2077364	1.20712916	1.20354376	1.11230196	1.11718462	1.26837016	0.30968784	0.30695868	0.25197082	0.19888268	0.34433626	0.19703864	0.33011428	0.26737012	0.18392746	0.3935175	0.15002792	0.18775604	0.42784644	0.54088896	0.29950298	0.31281012	0.33579234	0.31136772	0.54249042	0.4063761	0.48710642	0.50282186	0.518181	0.47110548	0.63609916	0.2201245	0.357253	0.59050942	0.1976431	0.1759939	0.3793508	0.2666532	0.18549918	0.32304018	0.30553542	0.37900644	0.2254417	0.2478827	0.26548826	0.11792088	0.36925254	0.17964614	0.28763832	0.19222054	0.49555132	0.25678644	0.26608202	0.3107349	0.65015122	0.29176432	0.33296718	0.15672226	0.33953554	0.19704694	0.1696913	0.2563226	0.2471455	0.5265685	0.29084982	0.23961746	0.34496606	0.34413434	0.36669292	0.20956426	0.45223104	0.15130028	0.18571262	0.4583994	0.270503	0.25427036	0.37851898	0.17391952	0.1483184	0.24694696	0.26631798	0.16803936	0.25985828	0.1905895	0.26610168	0.31676686	0.42391994	0.2140469	0.30254112	0.54538782	0.22329982	0.23346442	0.2639104	0.25801438	0.31464432	0.37329474	0.21851856	0.16957584	0.20941014	0.21223154	0.14089278	0.19210978	0.42748824	0.229279	0.42087752	0.32691954	0.29480318	0.1658604	0.53084932	0.38938734	0.34774142	0.39533188	0.16739748	0.25352766	0.19812376	0.19058146	0.13589042	0.20268256	0.44167282	0.16566654	0.16467628	0.29492192	0.33596916	0.56131322	0.3021106	0.2076201	0.4901102	0.49740984	0.48080952	0.49229942	0.4890544	0.51135062	0.5397075	0.53959822	0.54897624	0.51882868
DD120	0.47633696	0.50057696	0.5400974	0.57567508	0.5492672	0.306441	0.50939988	0.5254208	0.58461772	0.55895956	0.5235841	0.5199337	0.60402942	0.48801988	0.57658618	0.49648996	0.0	0.75530946	0.14147526	0.5481927	0.47193576	0.21338142	0.49263652	0.5073469	0.45767498	0.52255444	0.5160058	0.57038728	0.62531768	0.57814588	0.51192198	0.48148864	0.17243996	0.2496258	0.55221106	0.66699352	0.59907904	0.50475054	0.51425848	0.12839638	0.31219416	0.619154	0.5239529	0.53617806	0.51955966	0.5706461	0.22614134	0.48551982	0.5141109	0.56507534	0.59079024	0.5893129	0.51115308	0.58832984	0.5874502	0.64120314	0.48308936	0.58607426	0.48063256	0.49782206	0.48244912	0.21917056	0.48747334	0.51017784	0.79196232	0.59836726	0.52556612	0.48589952	0.47898432	0.62805804	0.58211916	0.49885056	0.1851311	0.56021124	0.49307372	0.5757845	0.59066554	0.15446338	0.69905864	0.49975508	0.6340424	0.4939602	0.5025926	0.51075494	0.5892869	0.540608	0.48785062	0.56798016	0.47634672	0.22876078	0.51083496	0.52070966	0.54951546	0.48741832	0.51752026	0.66929502	0.14033334	0.53182204	0.51139586	0.46277316	0.48202536	0.45234022	0.49069588	0.67335682	0.47722086	0.47902606	0.53153842	0.4990394	0.61236122	0.51927828	0.48479824	0.51306646	0.47010742	0.48178702	0.20004128	0.48395782	1.13640104	1.18753894	1.13600046	1.13675114	1.18027424	1.18174406	1.0486753	1.02722456	1.1117584	1.11515804	1.07680342	1.13973446	1.00497934	1.0232376	1.02693234	0.94966908	0.94162216	0.93966168	0.97972286	0.9760398	0.9754078	0.98329864	1.11254874	0.98607858	0.97661614	0.99223718	0.96754778	0.96883388	1.00419636	1.0083353	0.99501326	1.07019014	1.07188606	1.11150132	1.07085536	1.00200618	1.00960358	0.9776079	1.06259688	1.05946786	1.06043758	0.961988	0.95862036	0.96026614	1.13675994	1.05549644	1.06601696	1.05837876	1.11271366	1.11340404	1.14154692	1.14096292	1.13291644	0.97862948	0.97447226	1.19839716	0.5111474	0.62965356	0.55516042	0.54657932	0.65338726	0.4299144	0.504799	0.539148	0.46440486	0.53723714	0.48380752	0.52391828	0.735831	0.24449152	0.56758858	0.5430548	0.60204726	0.5562286	0.72434322	0.58848494	0.61868334	0.2422801	0.26174056	0.5724978	0.33201172	0.49677746	0.63322132	0.2742313	0.49450146	0.5052539	0.2963914	0.41914908	0.53475838	0.5765251	0.51231418	0.48366784	0.51168034	0.54042782	0.49079418	0.48999464	0.51281694	0.49997682	0.49995828	0.4915735	0.1992772	0.54388592	0.49025778	0.52297818	0.5357261	0.51447852	0.5497741	0.50936598	0.32674814	0.4978401	0.47665934	0.55961012	0.54607118	0.65265686	0.50043914	0.51165546	0.58459854	0.49900086	0.5786952	0.50985778	0.58975812	0.49375656	0.4554123	0.38943444	0.45965948	0.54155096	0.61466538	0.4601086	0.4701326	0.52341604	0.5134675	0.44365812	0.49828048	0.45254942	0.43933232	0.4417031	0.15976222	0.5382393	0.59134236	0.72862026	0.53436118	0.4835057	0.48730532	0.53960314	0.53407756	0.5335931	0.49324792	0.4924726	0.4963075	0.51295066	0.4809907	0.4974459	0.5853026	0.52712252	0.5467862	0.53766538	0.5551725	0.48780876	0.625041	0.56503326	0.56797614	0.59530168	0.49353464	0.51808906	0.51473976	0.51142698	0.50388398	0.54256804	0.18308302	0.5051757	0.49322652	0.51961552	0.57170792	0.26450266	0.52169712	0.46624246	0.54175516	0.53492044	0.54017976	0.53581318	0.5396216	0.56836926	0.5119069	0.50985382	0.54109632	0.55607992
DD121	0.60994426	0.63215958	0.55606502	0.48455418	0.72783742	0.58312094	0.54007406	0.70126022	0.53523454	0.4954957	0.58391888	0.51684872	0.48241548	0.57333334	0.51189708	0.6645929	0.75530946	0.0	0.69763604	0.49482324	0.70365534	0.66619476	0.61759198	0.5804656	0.63349464	0.48386214	0.69952514	0.47226154	0.3844523	0.60990742	0.72304788	0.5909603	0.69200926	0.93584586	0.51162348	0.41840374	0.82138734	0.62022436	0.5677973	0.787529	0.91255002	0.37681606	0.52195432	0.56935268	0.5858172	0.82016832	0.84658324	0.65250056	0.66079524	0.5217958	0.43582738	0.59353952	0.56684206	0.78585006	0.47785522	0.42797296	0.70292858	0.4391328	0.66892374	0.53444476	0.69067966	0.83063686	0.6506094	0.64732178	0.2194419	0.4704988	0.48179018	0.59464714	0.68370146	0.8661555	0.48870846	0.53762042	0.69298608	0.65104778	0.69503142	0.80206108	0.47717316	0.69938544	0.93207414	0.56500406	0.85092042	0.64299726	0.75928446	0.56021772	0.4646114	0.77644758	0.76515912	0.81890958	0.65696486	0.81960044	0.72683258	0.72158548	0.55641372	0.68290962	0.75137176	0.373451	0.72519968	0.5011477	0.55501984	0.6092461	0.7036807	0.60913916	0.5683307	0.47720328	0.6995492	0.61204336	0.6044778	0.71882798	0.78375496	0.70054182	0.68744938	0.73725536	0.6758122	0.64297444	0.7870915	0.64662508	1.00573654	1.05900948	1.00563084	1.00638152	1.04990462	1.05121988	0.96011256	0.9664305	0.97622838	0.9821345	0.9736512	1.00936484	0.90180976	0.8296095	0.83310376	0.75628482	0.75719474	0.74709242	0.78631536	0.7826323	0.7813959	0.9088847	0.98376468	0.90339452	0.89707148	0.848843	0.84462296	0.84272014	0.80029606	0.8076194	0.79044256	0.87634584	0.87804176	0.9811317	0.87701106	0.84088584	0.84592936	0.82979904	0.86875258	0.86512076	0.86659328	0.75632134	0.75254014	0.77427792	1.01292756	0.86165214	0.87344182	0.86453446	0.98594088	0.97875866	1.01163734	1.0110301	1.01064638	0.9205635	0.92660848	1.0740839	0.7512771	0.82839446	0.5496152	0.76421258	0.8787444	0.6654637	0.54578406	0.74767522	0.73173648	0.50613048	0.67674342	0.75499198	0.9594849	0.8379029	0.48680944	0.5554069	0.4896282	0.50606026	0.41225748	0.44778616	0.3929806	0.6156	0.60016146	0.48985678	0.92913882	0.59212852	0.5155507	0.88273444	0.64092288	0.61565932	0.7164003	0.69572074	0.76198584	0.49657404	0.60357352	0.58641718	0.59079696	0.61892084	0.6427024	0.63824074	0.63728256	0.73279916	0.57507922	0.68497108	0.78230502	0.75572426	0.55525928	0.5253792	0.41860844	0.55509266	0.53900504	0.66682792	0.70501304	0.69368292	0.64840748	0.5382119	0.743674	0.45476392	0.58721812	0.66256628	0.48271372	0.49719152	0.49067662	0.6716254	0.35759902	0.63984986	0.66275012	0.83817494	0.59211034	0.80975122	0.49006488	0.62047622	0.67996954	0.64260542	0.54155972	0.63164206	0.77632062	0.67720304	0.5351235	0.54921224	0.71868444	0.74839976	0.53715658	0.4119716	0.77604328	0.6396176	0.47875502	0.59330948	0.50658234	0.4535618	0.56012194	0.66488774	0.64453964	0.59505944	0.63469872	0.63203464	0.55951658	0.62274934	0.39999274	0.47373444	0.50316488	0.68582122	0.60304606	0.38259032	0.50919424	0.4553839	0.61779994	0.5408586	0.63801814	0.71822504	0.696924	0.76378002	0.68381688	0.60887756	0.65715886	0.5653873	0.49287078	0.84956416	0.55011814	0.62339972	0.5358813	0.5452955	0.5442679	0.55072424	0.53360714	0.51434524	0.59171028	0.58945636	0.54984758	0.50554578
DD122	0.45065622	0.44184518	0.4732757	0.51186454	0.55895934	0.22005506	0.44138622	0.52516806	0.5646543	0.49706378	0.4635022	0.4768722	0.5474182	0.42809482	0.51949116	0.44460154	0.14147526	0.69763604	0.0	0.4962486	0.45175758	0.13727352	0.48132786	0.45201088	0.40922284	0.47147326	0.52604362	0.51037646	0.5695497	0.56967314	0.5019332	0.42711738	0.16642114	0.34425698	0.49544348	0.60968354	0.60682366	0.50736708	0.4517157	0.18215628	0.32976158	0.5590711	0.51979216	0.53257364	0.45150484	0.5705748	0.2479332	0.43521692	0.48711504	0.50678892	0.5335771	0.54665424	0.45471198	0.59113742	0.53073614	0.58348868	0.4842943	0.5196276	0.45040186	0.44056008	0.45336506	0.22457734	0.45272972	0.5166249	0.73124154	0.53695564	0.51918346	0.43575642	0.48099842	0.63870102	0.52410878	0.44647458	0.13402932	0.56717358	0.48099462	0.57768492	0.5333954	0.10712208	0.7090649	0.43698778	0.63865046	0.46332446	0.50637618	0.45213052	0.53179224	0.5425137	0.48889268	0.57304946	0.42777678	0.25224384	0.51057674	0.49640892	0.49235604	0.4769709	0.5217502	0.6099644	0.10468688	0.48100594	0.44349224	0.42950834	0.47413066	0.43373444	0.48091122	0.61998664	0.44012428	0.49008964	0.47052128	0.48056702	0.62060068	0.48699678	0.45314622	0.50594112	0.44635912	0.46644076	0.20355054	0.43764304	1.14580542	1.1972382	1.14569972	1.1464504	1.1899735	1.19128876	1.07500452	1.08193782	1.11747678	1.12220338	1.09184856	1.14943372	1.01940632	1.01559806	1.020213	0.9431011	0.93417286	0.93317214	0.97315488	0.9676023	0.9668027	1.02214374	1.12222784	1.01775252	1.01137004	1.00709192	1.00271516	1.00083142	0.99461022	0.99874916	0.98542712	1.06362216	1.06531808	1.12120058	1.06428738	1.00053484	1.0082836	0.97725184	1.05602222	1.05038452	1.05185704	0.95240186	0.94903422	0.95068	1.14681392	1.04892846	1.05948814	1.05181078	1.12211432	1.11912242	1.15124618	1.15066218	1.1429667	1.03406958	1.03895164	1.20864026	0.56104458	0.6431717	0.49659256	0.5349245	0.66562236	0.40462074	0.49393266	0.55085654	0.45849896	0.52619052	0.43788638	0.51394298	0.7518139	0.2592643	0.502327	0.47802582	0.54136032	0.49571474	0.66220208	0.52113956	0.559451	0.19108208	0.20856054	0.55577634	0.35732434	0.45671868	0.5777693	0.30847612	0.43715052	0.44119256	0.31823278	0.4430809	0.52765768	0.5125994	0.48648448	0.4682865	0.44838364	0.4998792	0.48460368	0.4321265	0.5413624	0.50244064	0.4391341	0.49222172	0.22130478	0.55222554	0.43983836	0.51155592	0.47873916	0.4532681	0.49161612	0.48124584	0.34579656	0.49320904	0.45920504	0.50358406	0.5495812	0.59677108	0.4817384	0.50437912	0.52623952	0.4766154	0.52486534	0.49477592	0.54192934	0.44059022	0.43090216	0.38892646	0.43113078	0.56006058	0.55915976	0.41456154	0.45370326	0.51688382	0.45193968	0.3961081	0.54207314	0.44357532	0.37618738	0.38320428	0.15128488	0.53507736	0.53076142	0.67427332	0.5452874	0.4655888	0.43233454	0.47991096	0.46961526	0.49651812	0.43982246	0.47485418	0.48677456	0.45302284	0.435882	0.4383984	0.58614514	0.5091453	0.52816798	0.48395484	0.4905404	0.48123906	0.61891426	0.50973	0.51138044	0.53341122	0.4401381	0.46617652	0.45879814	0.51236544	0.4938502	0.53772674	0.12059988	0.45168104	0.46299226	0.5093069	0.51071314	0.29445656	0.4708005	0.450755	0.49859726	0.49623774	0.49934394	0.4967824	0.49815254	0.52197384	0.4929692	0.50240416	0.51350966	0.51437774
DD123	0.2404417	0.26636222	0.21824222	0.13164402	0.41045634	0.40186902	0.22171398	0.4043001	0.34798394	0.1578453	0.22897736	0.14866212	0.27205436	0.22342078	0.24001836	0.31712998	0.5481927	0.49482324	0.4962486	0.0	0.33930254	0.46557816	0.32092866	0.24054776	0.26358968	0.2171979	0.40177866	0.1323383	0.31098598	0.3084783	0.36610728	0.26425818	0.49074234	0.7293587	0.18216072	0.36499054	0.46721538	0.37490792	0.2208455	0.57235956	0.70838654	0.37086174	0.29845648	0.38495396	0.22762396	0.4531686	0.6391374	0.30098732	0.30668016	0.21724216	0.27385582	0.250446	0.20849954	0.4651341	0.2242967	0.299549	0.35329166	0.20560428	0.29599174	0.19450248	0.33115822	0.61630978	0.29055632	0.36642658	0.5300053	0.17215584	0.22972934	0.25541518	0.40796162	0.51716754	0.23118494	0.30854042	0.49844748	0.42421414	0.33070346	0.44963548	0.24274528	0.4938686	0.58579318	0.27554006	0.48958586	0.3068099	0.39904554	0.24188464	0.2306228	0.42164702	0.42127808	0.51275686	0.29463646	0.61114384	0.38253794	0.3898264	0.2270384	0.33355566	0.397675	0.34222568	0.51711828	0.27964354	0.20756204	0.27253494	0.34660418	0.247274	0.34820002	0.3272712	0.33883716	0.2713918	0.27034192	0.36861014	0.4847422	0.36536158	0.34732062	0.37594572	0.30922052	0.29867056	0.59089214	0.3066418	1.0955351	1.14747308	1.0954294	1.09618008	1.13970318	1.14101844	1.04280348	1.0497825	1.06602694	1.07193306	1.05107016	1.0991634	0.97062368	0.94106674	0.94568168	0.86856978	0.86162158	0.85841102	0.89862356	0.89307098	0.89133662	0.98760194	1.07233324	0.98420112	0.97670532	0.9538026	0.94947772	0.94750958	0.91285054	0.91698948	0.90366744	0.98909084	0.99078676	1.07093026	0.98975606	0.93781324	0.94476648	0.92199072	0.98149758	0.97298484	0.97732572	0.87107766	0.8675881	0.87017456	1.09745224	0.97439714	0.98491766	0.97727946	1.07363452	1.06855722	1.10097586	1.10039186	1.09410946	1.0019169	1.00657648	1.16025638	0.4296619	0.51364898	0.21960488	0.42355582	0.53893276	0.3367851	0.2606049	0.40085614	0.38000536	0.3165464	0.33275366	0.40453426	0.61057702	0.64364142	0.14582832	0.23378698	0.19771576	0.2170377	0.37839888	0.26047684	0.31393804	0.43103512	0.41761526	0.37134958	0.72746134	0.29591456	0.27047126	0.6821334	0.30377876	0.27264084	0.47524662	0.34610254	0.40717472	0.18102976	0.28501804	0.31517278	0.25562292	0.28894396	0.30647404	0.28683258	0.30095068	0.36226032	0.26024874	0.35300044	0.59809054	0.4266879	0.22348408	0.29889712	0.5087812	0.2427583	0.25022492	0.36152316	0.40943176	0.36251388	0.30594548	0.2099945	0.4293894	0.36957712	0.3140598	0.3658406	0.21537644	0.22948256	0.20669238	0.34679024	0.33510346	0.30053178	0.32562236	0.54498638	0.25084734	0.46580374	0.25764576	0.29361326	0.33884382	0.39058822	0.2102064	0.3132655	0.44955962	0.33030916	0.25659814	0.23585036	0.52802244	0.42647104	0.22594426	0.39205436	0.42226056	0.300656	0.22510534	0.25364144	0.22441378	0.26356488	0.19191218	0.29246702	0.33140928	0.29030588	0.30181396	0.30486492	0.3287239	0.3591437	0.31281866	0.17718396	0.26275144	0.35538602	0.43378082	0.279297	0.21311644	0.25036526	0.31254246	0.29815928	0.30124698	0.37091572	0.33722436	0.42715186	0.49235684	0.28673036	0.3337667	0.3591637	0.20889198	0.65811244	0.22857146	0.25405624	0.40700374	0.42844526	0.40685298	0.41547792	0.40905202	0.4044286	0.4346074	0.4423846	0.41623574	0.41294674
DD125	0.210395	0.1365294	0.26074636	0.35924296	0.19783792	0.52765244	0.30359812	0.19405112	0.336139	0.34966808	0.17747874	0.32181562	0.42392954	0.2202548	0.35866986	0.14622004	0.47193576	0.70365534	0.45175758	0.33930254	0.0	0.49269926	0.1941194	0.22004726	0.16370798	0.32417068	0.19693764	0.36828708	0.49387396	0.37830936	0.18499782	0.2253878	0.51952536	0.62127896	0.31402014	0.54416064	0.27237148	0.16888742	0.28755064	0.50982106	0.61735308	0.50671872	0.33375766	0.24588858	0.25103126	0.19405262	0.5484785	0.16481622	0.16477138	0.34501242	0.47390516	0.35787146	0.29112968	0.25203564	0.43086212	0.48023802	0.22044764	0.38019606	0.07975328	0.29451502	0.07554828	0.5205404	0.15294926	0.16960416	0.71380596	0.3933399	0.38779144	0.28630356	0.23827584	0.32995912	0.38854828	0.35449648	0.47765046	0.22710084	0.22794228	0.18659526	0.42893954	0.46155054	0.37313792	0.34432852	0.33155424	0.16497488	0.16437912	0.31100178	0.4353247	0.16894184	0.17186074	0.28927128	0.11734848	0.52208382	0.1743538	0.17617446	0.28799982	0.21299944	0.24223562	0.54283162	0.4711951	0.301833	0.29188342	0.28086592	0.16898808	0.2253881	0.2392746	0.44578742	0.1269723	0.26323074	0.20435594	0.12593544	0.24706898	0.15040932	0.12275328	0.14748346	0.08908978	0.20703458	0.50219896	0.15725794	1.18366388	1.23509666	1.18355818	1.18430886	1.22783196	1.22914722	1.11715462	1.12381552	1.15636732	1.16006184	1.12184934	1.18729218	1.04570858	1.06611	1.07072494	0.99353624	0.98489832	0.98383464	1.02359002	1.01803744	1.01630308	1.06218988	1.16061258	1.0686981	1.06417226	1.0621223	1.05547934	1.053588	1.04133864	1.04547758	1.03215554	1.1140573	1.11575322	1.15905904	1.11472252	1.03793374	1.0456057	1.01575274	1.10635736	1.0979513	1.10229218	0.99913028	0.99576264	0.99740842	1.18467238	1.0993636	1.11007384	1.10224592	1.16048262	1.15801296	1.18910464	1.18852064	1.181335	1.07592744	1.0808101	1.2469524	0.27443064	0.28703568	0.26797502	0.1744026	0.31564182	0.20974536	0.3133536	0.24693884	0.11506882	0.37841294	0.13230072	0.15881776	0.40629496	0.54663724	0.33427206	0.32676616	0.31873046	0.34236436	0.54142042	0.39770906	0.49449098	0.52085894	0.53386756	0.474239	0.62047936	0.24215486	0.3724282	0.59727714	0.19984742	0.15529546	0.36183532	0.22913412	0.14223154	0.3547467	0.29763766	0.35187948	0.22685422	0.2235595	0.2494353	0.15338076	0.32349158	0.16805458	0.29201368	0.19255394	0.50600876	0.27243856	0.29753254	0.31285118	0.6814675	0.3389292	0.38469706	0.1741737	0.29696418	0.16652022	0.17290758	0.30230576	0.26681034	0.57320194	0.27800022	0.24467042	0.37511614	0.3707757	0.4038338	0.20339738	0.47134856	0.14580384	0.16837178	0.42812376	0.2638162	0.22565316	0.36747798	0.204254	0.14652772	0.22206068	0.3060437	0.17598888	0.24497236	0.19071862	0.29010432	0.33478738	0.46100942	0.21392478	0.30785932	0.5645463	0.17593366	0.2095017	0.29602104	0.22216206	0.3616222	0.38613694	0.23566116	0.18106728	0.19884626	0.25658526	0.13648082	0.16322566	0.4110404	0.22085248	0.4245198	0.3599817	0.29659474	0.13539016	0.5106476	0.42253958	0.38988902	0.44301144	0.19484332	0.26771498	0.19497348	0.1551467	0.16114006	0.19299196	0.46477394	0.17693498	0.1936262	0.29263204	0.35816948	0.56175858	0.33561344	0.21398858	0.50510424	0.51165244	0.496112	0.50304162	0.50029948	0.52556942	0.5236549	0.52347894	0.538924	0.52685732
DD128	0.45527182	0.41301534	0.44641518	0.45815582	0.59853198	0.17961354	0.41334722	0.5797509	0.56657878	0.45930066	0.416919	0.45436504	0.5144194	0.4004389	0.48007532	0.45999282	0.21338142	0.66619476	0.13727352	0.46557816	0.49269926	0.0	0.50855218	0.42115508	0.4185344	0.44105946	0.56668654	0.46292498	0.54461842	0.57341286	0.53350104	0.40928474	0.15981246	0.40905742	0.4412798	0.57450046	0.64810178	0.54090564	0.40949358	0.2476662	0.37655394	0.52429482	0.54424872	0.5668354	0.40654852	0.61599696	0.30462876	0.45613672	0.47085068	0.4732502	0.46715586	0.52090508	0.41301114	0.62754522	0.46091678	0.54529644	0.51951386	0.46519048	0.47109222	0.41824336	0.4789051	0.26596474	0.4569766	0.54963438	0.69702374	0.48042672	0.4904539	0.4416747	0.52161806	0.66878722	0.49281378	0.44592454	0.10905124	0.6079473	0.51542502	0.6256234	0.47432916	0.12939528	0.7443623	0.43390402	0.67338778	0.4787553	0.55184614	0.44241276	0.46337968	0.59034902	0.53051036	0.61019082	0.43296386	0.26798212	0.53752198	0.5289294	0.44655652	0.51342646	0.56111812	0.54753228	0.1420808	0.46072402	0.42015616	0.4415743	0.51547122	0.47553132	0.50597938	0.57434428	0.49928688	0.49000292	0.44281024	0.52046726	0.66580956	0.49177598	0.48133874	0.54596812	0.46582904	0.46345768	0.26386534	0.45902288	1.14429726	1.19676048	1.1448852	1.14563588	1.1877717	1.19047424	1.09204036	1.09886902	1.1147891	1.12000158	1.1050752	1.14792556	1.02403668	0.99921922	1.00363368	0.92588226	0.92242302	0.91625522	0.95593604	0.95038346	0.9486491	1.03698014	1.12124596	1.03366124	1.02580368	1.0145288	1.01022368	1.00820686	0.96458314	0.96892072	0.95559868	1.04667004	1.04814452	1.12038606	1.04711382	0.97975104	0.98647724	0.96719044	1.03880338	1.03029732	1.0346382	0.92237558	0.91935094	0.9222158	1.1474606	1.03170962	1.04241986	1.03459194	1.12166012	1.11801302	1.15043166	1.14964666	1.14456002	1.0511313	1.05570604	1.20907494	0.60605478	0.67941446	0.4458162	0.55843106	0.69775136	0.44853462	0.49397674	0.5831711	0.52383336	0.54716176	0.46558538	0.54804326	0.7858195	0.29460718	0.45711856	0.45064286	0.47771772	0.43738614	0.5961624	0.482746	0.4861798	0.14404088	0.15940306	0.56497146	0.41805322	0.46679392	0.51947134	0.35032156	0.42747004	0.4082414	0.3702563	0.48826606	0.55219652	0.45482136	0.49056108	0.47406406	0.45130676	0.45870932	0.49704104	0.44145342	0.55720452	0.54601972	0.42190842	0.53355016	0.26420762	0.59106954	0.4377698	0.51872192	0.41486544	0.3991865	0.44823344	0.51504344	0.40959764	0.53498916	0.49051588	0.4520461	0.58732784	0.53797176	0.49824004	0.54066744	0.477079	0.46409804	0.47547694	0.5232706	0.5331369	0.43944414	0.46373752	0.45440114	0.4485627	0.61856778	0.50954396	0.42347758	0.48961742	0.5641283	0.40522608	0.42137346	0.60372678	0.49424156	0.3551831	0.34198164	0.19242632	0.56350724	0.46197454	0.61758188	0.59741988	0.48547432	0.42576918	0.4531738	0.4211355	0.48784064	0.41740342	0.50304614	0.51271804	0.42520244	0.44827452	0.43668684	0.56427142	0.54597978	0.53645742	0.46950244	0.4788492	0.52952742	0.62588846	0.51151728	0.45096548	0.47136938	0.44001118	0.47189404	0.44180038	0.56080128	0.51798744	0.57021122	0.14796064	0.43827296	0.49502006	0.54586238	0.47435126	0.3392724	0.4466015	0.464908	0.48143622	0.47653586	0.4830571	0.47264416	0.4783881	0.49405916	0.5038052	0.51497128	0.51873746	0.49138766
DD129	0.2093774	0.23181504	0.2776268	0.3475618	0.16323332	0.54332544	0.2662258	0.24319676	0.33641764	0.33986124	0.23607098	0.30164554	0.37896054	0.2232002	0.32618738	0.18842316	0.49263652	0.61759198	0.48132786	0.32092866	0.1941194	0.50855218	0.0	0.20656966	0.19328322	0.20322032	0.22507768	0.34866912	0.47010568	0.25031576	0.23113754	0.21994544	0.53408704	0.6582944	0.2930039	0.47385736	0.27138556	0.19196802	0.27256436	0.55045426	0.6522682	0.47554144	0.23831694	0.21681006	0.24283022	0.3080403	0.57505882	0.24065186	0.21636242	0.32450234	0.44810308	0.32782482	0.26111088	0.29233268	0.40435564	0.44166074	0.21039648	0.37671574	0.16390808	0.26079274	0.1974322	0.5613302	0.2122041	0.16734696	0.67744584	0.3758761	0.37977196	0.26153656	0.2456198	0.36875168	0.34045912	0.3126456	0.49923698	0.22883372	0.20885908	0.2979037	0.40713206	0.47917234	0.4304166	0.308336	0.35583756	0.20637632	0.25700708	0.26351938	0.4246147	0.26817876	0.26202366	0.3453382	0.17701656	0.55901038	0.22282928	0.22730822	0.24678274	0.16598316	0.23804258	0.52278154	0.49998886	0.25018732	0.2703613	0.23255484	0.21306788	0.19711014	0.1982446	0.45232986	0.22131734	0.2788829	0.25460806	0.22818032	0.31957534	0.23107072	0.21843688	0.23681418	0.17334006	0.26222658	0.52750968	0.18750206	1.13106604	1.18346406	1.13096034	1.13171102	1.17523412	1.17654938	1.0858555	1.09277268	1.11422276	1.107464	1.09633866	1.13469434	1.03984634	1.03972448	1.04140666	0.9662258	0.96382244	0.95530416	0.9944937	0.99268016	0.9917354	1.0577108	1.10880254	1.05994982	1.05702742	1.05042354	1.04593978	1.0444908	1.0202982	1.02443714	1.0111151	1.0858221	1.08651174	1.1064612	1.08548104	1.02065062	1.0267057	1.00514446	1.0771712	1.0756033	1.07707582	0.97898536	0.97520416	0.97954046	1.13563866	1.07012212	1.08162016	1.07300444	1.11039546	1.1115148	1.1366752	1.13606796	1.13335748	1.06678608	1.0726035	1.19818388	0.24863208	0.33848408	0.26798194	0.26826564	0.38531334	0.1948862	0.31058676	0.2132278	0.22579274	0.3598537	0.20340628	0.25348524	0.46485232	0.58255648	0.3276035	0.26934732	0.3440401	0.31453472	0.55711454	0.42116654	0.50003166	0.51511462	0.52477944	0.44253184	0.65770236	0.1816045	0.37058	0.6102245	0.20977866	0.21787118	0.40129636	0.25335376	0.24970154	0.33456358	0.28441946	0.27275244	0.2296411	0.25574766	0.26105586	0.18287604	0.33838638	0.24107834	0.25363564	0.18282046	0.52308924	0.2942756	0.25325174	0.18004422	0.66092686	0.3222894	0.34758994	0.21544826	0.33674262	0.19148314	0.1637467	0.27115644	0.28060086	0.5365541	0.1647429	0.18039854	0.35481902	0.33340854	0.38931468	0.18118674	0.33002564	0.19605432	0.20151998	0.47569604	0.259769	0.30184468	0.38976166	0.20443264	0.17796304	0.238161	0.2942833	0.18931436	0.27689216	0.18078674	0.25045296	0.31418198	0.47406034	0.26243414	0.31753828	0.5586423	0.27532018	0.1989411	0.22384296	0.27868054	0.33547304	0.34908734	0.2282024	0.17353204	0.1487073	0.2477047	0.1940481	0.22873058	0.40460768	0.17872492	0.31109944	0.33993322	0.25997958	0.19954652	0.43652704	0.29340214	0.37640334	0.41773548	0.21347848	0.21330046	0.22272176	0.21871522	0.20272282	0.259962	0.46221674	0.19359014	0.20580628	0.20412492	0.31612812	0.58488986	0.30881752	0.21898278	0.45422864	0.46237524	0.45152348	0.45798214	0.45110588	0.4788811	0.49351586	0.49208554	0.51522296	0.4849908
DD13	0.1443863	0.17018318	0.19011114	0.23942058	0.31769718	0.43111122	0.20332046	0.3015139	0.30810874	0.21962322	0.16090472	0.22080952	0.3043436	0.09967326	0.2518354	0.18321866	0.5073469	0.5804656	0.45201088	0.24054776	0.22004726	0.42115508	0.20656966	0.0	0.16491644	0.22237982	0.29119114	0.25548666	0.37986506	0.3395875	0.25973944	0.16062298	0.49260358	0.70111582	0.1968412	0.42882546	0.37477822	0.27314116	0.17151102	0.54473048	0.68253958	0.40824666	0.30689104	0.29682172	0.12283636	0.34710204	0.61145168	0.19944288	0.20241088	0.22544448	0.3407433	0.29801124	0.17930478	0.35976806	0.31140442	0.35383832	0.2940741	0.24776876	0.18617158	0.19649208	0.2138705	0.58787358	0.19205412	0.27620594	0.6133929	0.26898424	0.29931266	0.23867462	0.31437266	0.42071278	0.27134934	0.2768001	0.45282708	0.33094082	0.28137394	0.32609532	0.30767484	0.45860732	0.49269066	0.25652278	0.41463694	0.19655258	0.30362394	0.21577032	0.30701732	0.3000413	0.30613844	0.41694822	0.17521946	0.59157332	0.25045406	0.2620868	0.16234788	0.25823994	0.32409704	0.41692876	0.49168624	0.21499854	0.17957228	0.24081354	0.23962694	0.1995112	0.26055562	0.35621168	0.25084692	0.2312628	0.180176	0.25999526	0.38661088	0.24417926	0.21698386	0.28008584	0.20843684	0.22037612	0.55236162	0.15927816	1.15331494	1.20542132	1.15320924	1.15395992	1.19748302	1.19879828	1.10230272	1.10920182	1.12380678	1.1297129	1.10739272	1.15694324	1.03760932	1.0120965	1.01564044	0.93854558	0.9326295	0.92953794	0.96857612	0.96519466	0.9644007	1.0494321	1.13105144	1.04379904	1.0370912	1.02381348	1.01926528	1.01748306	0.99318926	0.9973282	0.98400616	1.05889824	1.06059416	1.1287101	1.05956346	1.00878036	1.015559	0.99176152	1.0512983	1.04846076	1.04944728	0.95158478	0.94809522	0.95068168	1.15555444	1.04420454	1.05570258	1.04708686	1.13235272	1.12633706	1.1589241	1.15831686	1.15298162	1.06028162	1.06516428	1.21897458	0.32689018	0.41006242	0.18855696	0.30777346	0.4446476	0.2169033	0.27928378	0.29085778	0.27130964	0.33362016	0.20873978	0.2980551	0.53100538	0.61632418	0.20681452	0.22922222	0.23989988	0.22052318	0.46395296	0.30278804	0.40318484	0.42580568	0.43456798	0.42908198	0.69690162	0.19191068	0.27908394	0.65085156	0.18370436	0.14790256	0.43880886	0.24501366	0.27339244	0.21391816	0.24389684	0.3098555	0.15781788	0.2300784	0.22550936	0.16080562	0.30973688	0.24497452	0.20724986	0.28395252	0.5609797	0.3476789	0.20690668	0.2640684	0.56337832	0.22727178	0.24876384	0.2600982	0.37244012	0.2519942	0.1768042	0.16989626	0.32984568	0.42846656	0.26063768	0.31880588	0.2521752	0.26051564	0.27988718	0.24705104	0.37944234	0.15854098	0.21345228	0.51080786	0.21108714	0.34999794	0.28389072	0.19920678	0.22534582	0.29509954	0.17472624	0.18239998	0.35273682	0.27027952	0.19981602	0.24083728	0.4864656	0.3138942	0.22714914	0.46529016	0.31087372	0.1899586	0.21044178	0.21387384	0.23738362	0.30198188	0.1212807	0.1854875	0.22082588	0.16167572	0.18519212	0.1752602	0.3325999	0.24656566	0.37371182	0.24036204	0.21660768	0.25139446	0.4740301	0.34113124	0.262961	0.31248478	0.18224762	0.19298276	0.16570298	0.27341196	0.2295946	0.30254898	0.4461752	0.15052636	0.21782278	0.31653466	0.2343269	0.6228268	0.21993446	0.1559658	0.42058714	0.43092802	0.41710966	0.41733824	0.41641618	0.43736508	0.4752366	0.47844284	0.47860266	0.44536462
DD130	0.20149846	0.1786455	0.24967238	0.27253098	0.26484618	0.47680514	0.21758634	0.23954718	0.3230369	0.27209706	0.19614652	0.24963552	0.36525032	0.14050118	0.30881516	0.1097333	0.45767498	0.63349464	0.40922284	0.26358968	0.16370798	0.4185344	0.19328322	0.16491644	0.0	0.25752154	0.23678594	0.2914467	0.4367737	0.3558083	0.16837008	0.15730382	0.47286514	0.62937194	0.25551824	0.47854214	0.31645182	0.21490076	0.21109842	0.51274772	0.60218462	0.42895634	0.31749656	0.2470846	0.1596022	0.28823176	0.53441512	0.21146736	0.21095992	0.30201088	0.3813351	0.2934222	0.17965906	0.3157723	0.3505119	0.41211788	0.20441698	0.3014374	0.13793706	0.2247354	0.15880842	0.5111119	0.20039776	0.21865626	0.65864694	0.31241296	0.3306989	0.21771998	0.24701798	0.35487126	0.32657214	0.28860702	0.41860304	0.27195182	0.19575046	0.27675928	0.35026096	0.40653356	0.43666974	0.26503262	0.3438375	0.17888394	0.23166666	0.24787048	0.35581556	0.24729042	0.24533132	0.34066002	0.12976146	0.50201548	0.19042598	0.2126292	0.24153876	0.1867299	0.24222304	0.46541132	0.43779408	0.24786982	0.22775228	0.24164722	0.18168446	0.18326088	0.21615518	0.42047828	0.1853416	0.27529792	0.23632584	0.20375998	0.32996836	0.19844154	0.1676695	0.2220788	0.13383784	0.24459612	0.4810019	0.0968622	1.16793982	1.2200462	1.16783412	1.1685848	1.2121079	1.21342316	1.1170086	1.12396114	1.13843166	1.14433778	1.12520688	1.17156812	1.04502928	1.03669966	1.0413146	0.9644045	0.95850126	0.9552121	0.99443504	0.98888246	0.98700294	1.0615717	1.14567632	1.05988112	1.05582028	1.05149564	1.0471654	1.04523978	1.00732618	1.01146512	0.99814308	1.08475716	1.08645308	1.14333498	1.08542238	1.011901	1.0188644	0.99715684	1.07705722	1.06865116	1.07299204	0.9657217	0.96223214	0.9648186	1.17017932	1.07006346	1.0815615	1.07294578	1.1469776	1.14096194	1.17354898	1.17294174	1.1676065	1.07607306	1.08095572	1.23359946	0.30989046	0.34780462	0.25204952	0.24764254	0.38930884	0.18990654	0.28419214	0.2721841	0.2101118	0.3558616	0.17017638	0.23458458	0.46766742	0.53872202	0.25434232	0.27262606	0.29423152	0.28390958	0.49979288	0.36806252	0.43634592	0.46425104	0.47691514	0.4283463	0.62694418	0.21150248	0.35003646	0.5833758	0.18760248	0.17621372	0.37300186	0.2459761	0.22986424	0.27344048	0.274425	0.3285725	0.220772	0.23946208	0.26890708	0.1204707	0.33173432	0.18813556	0.24335838	0.20432208	0.49140862	0.27620274	0.23297548	0.27634016	0.61243112	0.25738942	0.29985872	0.1960416	0.31296888	0.20683916	0.159458	0.2447079	0.27998936	0.4830524	0.25023192	0.23337484	0.30540972	0.305995	0.32821774	0.20988704	0.41223494	0.15815042	0.18688312	0.44535998	0.23459774	0.29471622	0.34481492	0.14279598	0.16740754	0.21861506	0.23777328	0.1593159	0.29476122	0.1851464	0.22144686	0.25613432	0.41779768	0.25453076	0.28060662	0.51510696	0.26103148	0.23238872	0.22414822	0.25875596	0.28486338	0.33195452	0.17746742	0.17446022	0.21111228	0.19279064	0.15130616	0.18521104	0.40742542	0.22631442	0.38124642	0.292721	0.26930172	0.1914663	0.49365078	0.3490612	0.31186	0.35909482	0.17681722	0.23153188	0.20159726	0.22325464	0.17114508	0.24540506	0.41249496	0.17967716	0.18540826	0.25243894	0.29604226	0.55395304	0.2711781	0.20258064	0.4522055	0.4589913	0.44420238	0.45207012	0.45189278	0.47427296	0.49843628	0.50088144	0.50203262	0.4801673
DD132	0.23827228	0.25785104	0.24978688	0.22097332	0.32732684	0.42469996	0.16898016	0.36919248	0.322977	0.22829116	0.23487442	0.21385922	0.28591578	0.19872292	0.2520221	0.29985732	0.52255444	0.48386214	0.47147326	0.2171979	0.32417068	0.44105946	0.20322032	0.22237982	0.25752154	0.0	0.35394976	0.23216956	0.3513862	0.21791148	0.36118834	0.23899668	0.47470056	0.71310472	0.21778834	0.36568876	0.42482044	0.31934686	0.20029232	0.56379274	0.70440092	0.33580344	0.19073094	0.33835606	0.24118366	0.45535418	0.6250913	0.29895102	0.3006251	0.2269799	0.31018632	0.2881669	0.21734292	0.44740596	0.26926204	0.34585162	0.31273052	0.25598542	0.29290028	0.18468086	0.32045592	0.60546676	0.2857257	0.30934924	0.54290408	0.25107602	0.2573576	0.22875804	0.36415048	0.51208872	0.26248928	0.24013336	0.46572218	0.36429164	0.3022804	0.4419285	0.26776106	0.47619626	0.5867746	0.24113784	0.49244116	0.29020268	0.40339636	0.20357646	0.27940918	0.4118558	0.4056847	0.48272604	0.27774528	0.6041531	0.3587042	0.36992998	0.21139246	0.279094	0.35221222	0.38135654	0.50700494	0.23931112	0.20073646	0.23131376	0.32841132	0.23192258	0.29150896	0.37915902	0.33645278	0.27020262	0.26161902	0.34809544	0.45505786	0.3317598	0.31355416	0.37473794	0.29401182	0.27280138	0.5741426	0.27594162	1.0808254	1.13293178	1.0807197	1.08147038	1.12499348	1.12630874	1.0334537	1.0403528	1.06151044	1.05722336	1.0453007	1.0844537	0.98360298	0.96869572	0.97239046	0.89535704	0.8924982	0.88628796	0.92538758	0.92170452	0.92075976	1.00290004	1.0585619	0.99756858	0.99077138	0.98112306	0.9755127	0.97380868	0.94767112	0.95181006	0.93848802	1.0157097	1.01740562	1.05622056	1.01637492	0.9612187	0.9674755	0.94562262	1.0080974	1.00448462	1.00595714	0.90606664	0.90257708	0.90662174	1.08510638	1.001016	1.01251404	1.00389832	1.05986318	1.05880248	1.08643456	1.08582732	1.0828252	1.014077	1.01895966	1.1476516	0.39872664	0.47560752	0.2502403	0.39928444	0.52613918	0.32412972	0.25244316	0.35719964	0.35989266	0.29960306	0.30455908	0.379999	0.60726964	0.63178468	0.22459782	0.1874352	0.26612086	0.23190304	0.4339395	0.30015162	0.36475534	0.42388166	0.42937892	0.35252332	0.71484488	0.26626418	0.31302564	0.66605558	0.26025082	0.25327638	0.4546948	0.345994	0.38365546	0.22802246	0.2684325	0.22338876	0.23883358	0.28905034	0.28857662	0.2831572	0.31177498	0.35598886	0.18398644	0.28810254	0.5762324	0.41411308	0.2103957	0.1894957	0.53203482	0.21454072	0.23274818	0.33529974	0.3983275	0.35188086	0.30221054	0.22028784	0.4091245	0.41561634	0.18824918	0.25330202	0.26602882	0.21812946	0.2528586	0.3313863	0.22210724	0.27405896	0.3153813	0.53382556	0.22364916	0.4583506	0.31442834	0.25389352	0.30422124	0.3457596	0.19243306	0.27860632	0.42966268	0.29328438	0.2035634	0.22850606	0.50450746	0.39058986	0.26544368	0.43641854	0.4278553	0.26048958	0.14399688	0.27075006	0.21265836	0.25075314	0.1953984	0.29323156	0.2906785	0.27055126	0.27013314	0.26789598	0.35124996	0.31857904	0.22497812	0.22661426	0.24045842	0.3423736	0.38050048	0.1777695	0.23690458	0.27920076	0.2801936	0.25009742	0.29094644	0.37579918	0.33836942	0.41021004	0.4629243	0.26023642	0.31053048	0.2797876	0.2438742	0.63965358	0.22195412	0.25642686	0.36608332	0.38499204	0.36783956	0.38118762	0.36926888	0.37439918	0.42272882	0.42013542	0.42344312	0.38225124
DD133	0.275808	0.24844072	0.34301776	0.4212548	0.23435232	0.59430108	0.34028816	0.14289312	0.28006688	0.4159916	0.28387338	0.39325818	0.48637322	0.2821574	0.4124985	0.23953116	0.5160058	0.69952514	0.52604362	0.40177866	0.19693764	0.56668654	0.22507768	0.29119114	0.23678594	0.35394976	0.0	0.43310508	0.547884	0.38126344	0.2656205	0.29645216	0.5757706	0.61819028	0.38293042	0.60509688	0.29160556	0.19950486	0.36234248	0.5322131	0.62746448	0.525179	0.30264994	0.18358158	0.32330682	0.2541073	0.57755398	0.27685826	0.2507495	0.39683222	0.54027692	0.42291702	0.34695676	0.28830024	0.49330548	0.53516266	0.25257232	0.45695422	0.19216032	0.32240634	0.21676528	0.57219872	0.20893362	0.2011346	0.69375504	0.45969194	0.44789564	0.35388544	0.17758456	0.34418056	0.42718248	0.39481812	0.56086698	0.18947628	0.25502392	0.24208914	0.49648546	0.53607342	0.41011876	0.3974084	0.33637308	0.23615444	0.19266388	0.34124862	0.51624026	0.20822964	0.25792938	0.29187336	0.21617392	0.57196474	0.25415536	0.2851319	0.35565138	0.2319816	0.26851222	0.61255394	0.54786174	0.26502424	0.34571042	0.3182992	0.22666716	0.27812826	0.1809446	0.51856998	0.25433378	0.32044658	0.30922178	0.2450432	0.20061842	0.26149912	0.24495992	0.23576302	0.17948666	0.29862326	0.5418952	0.24030946	1.1633432	1.21353286	1.16132078	1.16207146	1.20559456	1.20690982	1.10624034	1.10929468	1.13870056	1.1421002	1.08769318	1.16520222	1.00992138	1.06799912	1.07068758	0.99446668	0.98843868	0.98458508	1.0236159	1.0208676	1.01992284	1.05429384	1.13916298	1.0633383	1.06024246	1.0715459	1.05810818	1.0619932	1.04476052	1.04889946	1.03557742	1.11393802	1.11563394	1.13682164	1.11460324	1.03442034	1.03549082	1.0132143	1.10623808	1.10371922	1.10519174	1.00315604	0.99966648	1.00225294	1.16366598	1.09924432	1.11074236	1.10212664	1.14238098	1.1403462	1.16703564	1.1664284	1.16109316	1.0541028	1.05898546	1.22708612	0.25656276	0.27808164	0.33915086	0.28969632	0.36785802	0.27406784	0.31622228	0.19373576	0.22999414	0.35239922	0.22357124	0.270277	0.44219008	0.58482784	0.39533202	0.37873872	0.39883274	0.39151236	0.6286237	0.49004062	0.57643522	0.58309906	0.59925024	0.44796432	0.63762264	0.24280762	0.44574196	0.6021247	0.27352842	0.26034318	0.41860128	0.25537848	0.26270294	0.40687222	0.3028195	0.37217396	0.30670374	0.30579066	0.31111398	0.23715824	0.36932258	0.21628358	0.3372814	0.2364787	0.55560628	0.3000314	0.34803946	0.27987786	0.74199554	0.4204658	0.44378206	0.21944374	0.3438313	0.16813646	0.23121458	0.3675714	0.28339466	0.62551214	0.26891098	0.21919538	0.44389922	0.40602786	0.47401932	0.20180678	0.45353328	0.25162808	0.2454201	0.45500216	0.30803332	0.29212908	0.4387695	0.248912	0.2263472	0.11544012	0.38027034	0.2628342	0.24246944	0.23943262	0.32286264	0.37628194	0.51706714	0.2622013	0.38848052	0.63592978	0.18505226	0.2466635	0.30536548	0.34161622	0.43046856	0.40930958	0.30020628	0.23970524	0.24770138	0.2944207	0.23990962	0.24340494	0.46115992	0.17356748	0.3959568	0.42575998	0.27270378	0.1778952	0.45727412	0.40832686	0.4713945	0.51981836	0.25439688	0.23391894	0.29436976	0.2105997	0.2350179	0.29193984	0.52418502	0.27465418	0.2270654	0.22164804	0.40522588	0.59231102	0.40302148	0.28092678	0.52408432	0.52612244	0.52113412	0.52613674	0.52410264	0.5465679	0.5599353	0.5609807	0.58013724	0.53472804
DD134	0.25174748	0.28016068	0.23774124	0.08239744	0.45609608	0.3903748	0.23998696	0.4486156	0.38450136	0.12417396	0.24710718	0.17329094	0.23461258	0.2389166	0.21371458	0.34705448	0.57038728	0.47226154	0.51037646	0.1323383	0.36828708	0.46292498	0.34866912	0.25548666	0.2914467	0.23216956	0.43310508	0.0	0.27166964	0.33560228	0.40712806	0.28659772	0.49677672	0.76389908	0.19223882	0.32517452	0.52718248	0.4163847	0.2345088	0.60300126	0.74055788	0.34433976	0.33919158	0.43784026	0.2530425	0.49633274	0.66847274	0.33569286	0.3283717	0.19974954	0.22617592	0.25675442	0.22427288	0.513037	0.18215912	0.2527129	0.40903072	0.1789841	0.32845256	0.23100538	0.35899512	0.6441162	0.31600502	0.411666	0.50790644	0.1059789	0.18598776	0.2659214	0.44965476	0.57336432	0.19469536	0.2758466	0.50063322	0.47456952	0.37514852	0.49172486	0.1966403	0.50841106	0.64811756	0.25955424	0.5460256	0.34757704	0.43904856	0.2456621	0.20424362	0.46320456	0.45736922	0.55997284	0.31834968	0.63056946	0.4240056	0.41877578	0.24239022	0.3804768	0.45267374	0.30027642	0.5300261	0.31606368	0.24290338	0.31347316	0.38675864	0.25622058	0.38281876	0.30254954	0.37349354	0.30565086	0.28857878	0.40246928	0.53039926	0.387576	0.374266	0.41377066	0.32333306	0.32235438	0.61691292	0.33497754	1.09710208	1.15038182	1.09833814	1.09908882	1.1395518	1.14392718	1.0440751	1.05066116	1.0677824	1.07253524	1.05192046	1.10073038	0.96945834	0.93929488	0.94390982	0.86700276	0.85977292	0.85829392	0.8980493	0.8921756	0.89076236	0.98746308	1.07433242	0.98406226	0.97643574	0.95173562	0.94725714	0.9453936	0.90437108	0.90851002	0.89518798	0.98780546	0.98950138	1.073839	0.98847068	0.9302725	0.93714894	0.9138507	0.97964224	0.97113618	0.97547706	0.8625982	0.85910864	0.86255022	1.10051494	0.97311176	0.983822	0.97599408	1.07600018	1.07146596	1.1038846	1.1030996	1.09732272	1.00241752	1.00730018	1.16331568	0.47992012	0.56407928	0.23887374	0.45802948	0.5803383	0.3740442	0.26019784	0.44260884	0.41441078	0.33198306	0.35671212	0.44438772	0.66978044	0.673099	0.12841658	0.25160272	0.17343334	0.24130084	0.33356946	0.22039378	0.26588742	0.43547498	0.42014288	0.40312052	0.76111876	0.33717066	0.2680866	0.71598538	0.31892046	0.29241006	0.50454252	0.38857704	0.43399854	0.1464475	0.27880798	0.31735392	0.28391414	0.3154383	0.33146006	0.3112142	0.34250058	0.40493998	0.26886572	0.40231118	0.62630028	0.47801548	0.21278202	0.33746362	0.46639866	0.24785012	0.24052326	0.40232278	0.4410445	0.40803238	0.33977006	0.2246752	0.4797005	0.31934842	0.34395066	0.41049462	0.1957975	0.21706566	0.18259492	0.38904914	0.30564384	0.31802092	0.35468838	0.5776002	0.27088484	0.51478596	0.2227319	0.32554852	0.3694448	0.42814024	0.21673818	0.33576964	0.49884824	0.38807606	0.27867376	0.2395023	0.54948542	0.46408066	0.21360188	0.35844854	0.4679467	0.32565562	0.26047716	0.27650734	0.20865084	0.25078386	0.20070968	0.29803	0.36897014	0.31882894	0.33171686	0.32758542	0.32409	0.39652904	0.32172848	0.13717622	0.29972658	0.39598588	0.41871508	0.27928242	0.18916766	0.2063436	0.34394912	0.32877386	0.32809388	0.42663214	0.37409782	0.46101584	0.51111894	0.3124321	0.37332172	0.39994708	0.1858798	0.6833587	0.22492656	0.2752231	0.42696852	0.44897144	0.4285698	0.43589726	0.42981236	0.42238502	0.46067566	0.4666305	0.4206994	0.43211508
DD135	0.38430568	0.42662004	0.37304116	0.27136464	0.57817236	0.45126268	0.34335092	0.55347168	0.50288052	0.29063092	0.38900718	0.33583026	0.17304838	0.36118832	0.22408362	0.48201476	0.62531768	0.3844523	0.5695497	0.31098598	0.49387396	0.54461842	0.47010568	0.37986506	0.4367737	0.3513862	0.547884	0.27166964	0.0	0.45575824	0.53167814	0.38620624	0.57818652	0.8237356	0.2526465	0.17596008	0.6397194	0.5438977	0.33663776	0.66295098	0.81175732	0.3597226	0.45856026	0.55998314	0.3664171	0.61204366	0.73114238	0.47524454	0.47434054	0.22939286	0.26989268	0.43510482	0.38327624	0.62964192	0.26464292	0.17325662	0.5157144	0.28271962	0.46669424	0.34430742	0.48354628	0.708674	0.45494178	0.54128216	0.41126884	0.26837726	0.29759372	0.37164384	0.57459068	0.68760672	0.2137432	0.37674008	0.58597234	0.58955164	0.50251648	0.60845954	0.25976358	0.5761453	0.76172396	0.33646024	0.66825024	0.47134228	0.55632912	0.28215054	0.26196206	0.57687144	0.58328674	0.6808434	0.45047052	0.71778838	0.55069284	0.49251842	0.2971961	0.48441776	0.56229698	0.18321178	0.61294482	0.41849052	0.34256778	0.41534732	0.49343596	0.42492566	0.50730656	0.29683062	0.51653418	0.43108982	0.41463314	0.53316276	0.64669654	0.52229212	0.50354128	0.54336878	0.48469966	0.45656482	0.67875244	0.45531018	1.03879848	1.09128146	1.03906938	1.03982006	1.08296656	1.08465842	0.98775514	0.99467232	1.01017496	1.01519644	0.9882001	1.04242678	0.9200543	0.8768632	0.87854538	0.80339792	0.79749488	0.79244288	0.83166582	0.83001988	0.82924272	0.9388484	1.01653498	0.93302686	0.92674426	0.88240522	0.87921122	0.87766028	0.85817432	0.86231326	0.84899122	0.92299422	0.92368386	1.01457024	0.92265316	0.89894922	0.90591262	0.87851858	0.914388	0.91344582	0.91441554	0.81656984	0.81308028	0.83077386	1.04141458	0.90729424	0.91879228	0.91017656	1.01783626	1.0121972	1.04478424	1.043976	1.03884176	0.94619212	0.95200954	1.10483472	0.58352144	0.6837928	0.3660401	0.59062188	0.7108735	0.4920172	0.411034	0.52341108	0.53539806	0.44364454	0.47503512	0.57721908	0.80217236	0.7403156	0.28088078	0.30269176	0.29344562	0.34119488	0.3209255	0.2532487	0.2478699	0.49534682	0.48251668	0.48807652	0.82114268	0.45486286	0.33856484	0.76926562	0.4362225	0.42128234	0.56072536	0.5087332	0.55374894	0.3047387	0.38149338	0.3758238	0.40327398	0.46803918	0.44877682	0.46298208	0.45495114	0.52767862	0.33587076	0.52791042	0.68079564	0.59901224	0.37238166	0.46659826	0.36380398	0.35016952	0.30930374	0.52147298	0.51668966	0.5187291	0.45756662	0.28772056	0.59770674	0.3157633	0.47228306	0.5329093	0.21192006	0.31288522	0.27665664	0.50946034	0.34745292	0.45278044	0.47878438	0.64127256	0.39552496	0.62658988	0.2912107	0.45180648	0.48419864	0.54539096	0.3379379	0.45948964	0.61365832	0.50567118	0.38776356	0.37931774	0.60865018	0.58536686	0.3611084	0.31969266	0.58527234	0.41922778	0.3849506	0.41507186	0.31192136	0.35583246	0.34176704	0.4646712	0.48319974	0.41875854	0.46627758	0.43761558	0.37371412	0.5168056	0.4273502	0.28433546	0.41512858	0.50762484	0.4183154	0.39107754	0.2924561	0.2441834	0.45372464	0.45590378	0.39446376	0.5404969	0.5236605	0.52477728	0.56311358	0.43453466	0.49412684	0.53581352	0.22930996	0.74513526	0.36089752	0.40508086	0.47412624	0.5014618	0.4753728	0.48272414	0.47318108	0.46041662	0.4949729	0.50097898	0.45213016	0.48084348
DD136	0.33645048	0.3598878	0.34818344	0.33008588	0.33961816	0.54217276	0.30492604	0.40835428	0.35724588	0.33316168	0.34814118	0.30838594	0.36399094	0.32060348	0.32476102	0.38862288	0.57814588	0.60990742	0.56967314	0.3084783	0.37830936	0.57341286	0.25031576	0.3395875	0.3558083	0.21791148	0.38126344	0.33560228	0.45575824	0.0	0.40886774	0.34783908	0.56521344	0.74246072	0.30819118	0.44550044	0.42362476	0.37502954	0.333182	0.59370958	0.74509592	0.45509416	0.21250846	0.37925614	0.35003394	0.47623962	0.66511962	0.38626078	0.35163634	0.31285722	0.43610992	0.3427585	0.32379364	0.46455404	0.39087872	0.42967802	0.34843876	0.36121654	0.35290384	0.30022418	0.38892804	0.64760852	0.34003686	0.34612876	0.66752668	0.36066198	0.36486368	0.3483342	0.4023152	0.53057812	0.33385112	0.37707492	0.59522858	0.4002384	0.3417064	0.46297658	0.3885171	0.5846425	0.5987696	0.36604692	0.51164564	0.38743252	0.4254282	0.29500554	0.40124058	0.43676468	0.42994574	0.51223596	0.36779744	0.6521671	0.4060892	0.42886634	0.31628214	0.31185076	0.37426354	0.50258654	0.58766846	0.3427494	0.30566298	0.30644164	0.36448848	0.30398322	0.3589114	0.45448734	0.40311474	0.33440906	0.37126866	0.40736444	0.49181202	0.42044556	0.40152332	0.41831362	0.36024766	0.3637691	0.62516144	0.37525454	1.06100852	1.0503709	1.00328218	1.00141374	1.042601	1.04391626	1.00186458	0.99581524	1.06031068	1.05137512	1.00854902	1.05416034	0.97324458	1.00112828	1.00281046	0.9274946	0.9247996	0.9155398	0.95578574	0.9539722	0.9531726	0.99010204	1.01932538	0.99913914	0.9962887	1.0105359	1.0039439	1.00436972	0.981769	0.98590794	0.9725859	1.0472593	1.04794894	1.02418112	1.04691824	0.97478702	0.98119038	0.95931426	1.03861728	1.0370405	1.03851302	0.93999612	0.93650656	0.94055122	1.0025455	1.03155932	1.04207984	1.03444164	1.04201034	1.05760272	1.00387368	1.00343712	0.99949436	0.99799716	1.00374546	1.06432076	0.39294024	0.50979832	0.35169378	0.45066936	0.53894946	0.37980948	0.30803712	0.36620392	0.4049243	0.34042434	0.38482884	0.42533204	0.62244956	0.67401748	0.3205279	0.26733428	0.35522014	0.35083288	0.53827686	0.40844262	0.48399978	0.55808918	0.54752888	0.40109124	0.75047456	0.3513061	0.40855732	0.70120226	0.36359014	0.3625467	0.49597796	0.3590316	0.43103026	0.3263459	0.30440878	0.25132584	0.33675418	0.36905906	0.34618798	0.37155164	0.30406974	0.37949106	0.2937758	0.31965002	0.6286918	0.43918804	0.32023882	0.2176255	0.6448435	0.34952088	0.36232962	0.40519058	0.43280214	0.37705006	0.34974918	0.3290876	0.43282722	0.52826418	0.2148101	0.28627454	0.34109186	0.31627538	0.369679	0.36637662	0.324667	0.37481588	0.3637645	0.56756772	0.29443396	0.47545068	0.39862478	0.35627276	0.35678076	0.38899328	0.33544766	0.3570036	0.44618912	0.32416638	0.31835864	0.33230074	0.58861006	0.42705982	0.36376836	0.5366873	0.4357065	0.3032015	0.2856348	0.3724161	0.34926988	0.3388243	0.30583368	0.34700452	0.33537778	0.37971102	0.37725438	0.36857066	0.40575716	0.36406208	0.2934194	0.3324497	0.3395387	0.38581496	0.31281088	0.27866282	0.35939318	0.39855404	0.38768772	0.3423823	0.38286208	0.40866742	0.38102558	0.44088908	0.56030974	0.36210906	0.3883976	0.32216876	0.3131942	0.67613586	0.3226526	0.32997602	0.469523	0.48890988	0.46851036	0.48179234	0.46886256	0.47223194	0.47827778	0.4751077	0.49408536	0.47552216
